/* Copyright 2018 The TensorFlow Authors. All Rights Reserved.

Licensed under the Apache License, Version 2.0 (the "License");
you may not use this file except in compliance with the License.
You may obtain a copy of the License at

    http://www.apache.org/licenses/LICENSE-2.0

Unless required by applicable law or agreed to in writing, software
distributed under the License is distributed on an "AS IS" BASIS,
WITHOUT WARRANTIES OR CONDITIONS OF ANY KIND, either express or implied.
See the License for the specific language governing permissions and
limitations under the License.
==============================================================================*/

// Automatically created from a TensorFlow Lite flatbuffer using the command:
// xxd -i tiny_conv.tflite > tiny_conv_simple_features_model_data.cc
// See the README for a full description of the creation process.

#include "micro_features_tiny_conv_micro_features_model_data.h"

// We need to keep the data array aligned on some architectures.
#ifdef __has_attribute
#define HAVE_ATTRIBUTE(x) __has_attribute(x)
#else
#define HAVE_ATTRIBUTE(x) 0
#endif
#if HAVE_ATTRIBUTE(aligned) || (defined(__GNUC__) && !defined(__clang__))
#define DATA_ALIGN_ATTRIBUTE __attribute__((aligned(4)))
#else
#define DATA_ALIGN_ATTRIBUTE
#endif

const unsigned char
    g_tiny_conv_micro_features_model_data[] DATA_ALIGN_ATTRIBUTE = {
  0x1c, 0x00, 0x00, 0x00, 0x54, 0x46, 0x4c, 0x33, 0x00, 0x00, 0x00, 0x00,
  0x00, 0x00, 0x0e, 0x00, 0x18, 0x00, 0x04, 0x00, 0x08, 0x00, 0x0c, 0x00,
  0x10, 0x00, 0x14, 0x00, 0x0e, 0x00, 0x00, 0x00, 0x03, 0x00, 0x00, 0x00,
  0xcc, 0x46, 0x00, 0x00, 0x0c, 0x00, 0x00, 0x00, 0x10, 0x00, 0x00, 0x00,
  0x20, 0x00, 0x00, 0x00, 0x01, 0x00, 0x00, 0x00, 0x74, 0x00, 0x00, 0x00,
  0x0f, 0x00, 0x00, 0x00, 0x54, 0x4f, 0x43, 0x4f, 0x20, 0x43, 0x6f, 0x6e,
  0x76, 0x65, 0x72, 0x74, 0x65, 0x64, 0x2e, 0x00, 0x09, 0x00, 0x00, 0x00,
  0x54, 0x00, 0x00, 0x00, 0x48, 0x00, 0x00, 0x00, 0x3c, 0x00, 0x00, 0x00,
  0x34, 0x00, 0x00, 0x00, 0x2c, 0x00, 0x00, 0x00, 0x24, 0x00, 0x00, 0x00,
  0x18, 0x00, 0x00, 0x00, 0x10, 0x00, 0x00, 0x00, 0x04, 0x00, 0x00, 0x00,
  0x4e, 0xba, 0xff, 0xff, 0x10, 0x01, 0x00, 0x00, 0xfc, 0xb9, 0xff, 0xff,
  0x5a, 0xba, 0xff, 0xff, 0x88, 0x40, 0x00, 0x00, 0x08, 0xba, 0xff, 0xff,
  0x0c, 0xba, 0xff, 0xff, 0x10, 0xba, 0xff, 0xff, 0x6e, 0xba, 0xff, 0xff,
  0xa4, 0x44, 0x00, 0x00, 0x76, 0xba, 0xff, 0xff, 0x30, 0x45, 0x00, 0x00,
  0x24, 0xba, 0xff, 0xff, 0x00, 0xbc, 0xff, 0xff, 0x20, 0x00, 0x00, 0x00,
  0x14, 0x00, 0x00, 0x00, 0x08, 0x00, 0x00, 0x00, 0x2c, 0x45, 0x00, 0x00,
  0x01, 0x00, 0x00, 0x00, 0x05, 0x00, 0x00, 0x00, 0x01, 0x00, 0x00, 0x00,
  0x03, 0x00, 0x00, 0x00, 0x08, 0x00, 0x00, 0x00, 0x1c, 0x44, 0x00, 0x00,
  0x9c, 0x44, 0x00, 0x00, 0x34, 0x3f, 0x00, 0x00, 0xb4, 0x42, 0x00, 0x00,
  0x24, 0x43, 0x00, 0x00, 0x8c, 0x43, 0x00, 0x00, 0x94, 0x3f, 0x00, 0x00,
  0x04, 0x00, 0x00, 0x00, 0x8e, 0xbb, 0xff, 0xff, 0x00, 0x00, 0x00, 0x03,
  0x10, 0x00, 0x00, 0x00, 0x08, 0x00, 0x00, 0x00, 0x14, 0x00, 0x00, 0x00,
  0x48, 0x00, 0x00, 0x00, 0x02, 0x00, 0x00, 0x00, 0x04, 0x00, 0x00, 0x00,
  0xa0, 0x0f, 0x00, 0x00, 0x31, 0x00, 0x00, 0x00, 0x77, 0x65, 0x69, 0x67,
  0x68, 0x74, 0x73, 0x5f, 0x71, 0x75, 0x61, 0x6e, 0x74, 0x5f, 0x31, 0x2f,
  0x46, 0x61, 0x6b, 0x65, 0x51, 0x75, 0x61, 0x6e, 0x74, 0x57, 0x69, 0x74,
  0x68, 0x4d, 0x69, 0x6e, 0x4d, 0x61, 0x78, 0x56, 0x61, 0x72, 0x73, 0x2f,
  0x74, 0x72, 0x61, 0x6e, 0x73, 0x70, 0x6f, 0x73, 0x65, 0x00, 0x00, 0x00,
  0xa4, 0xbc, 0xff, 0xff, 0x30, 0x00, 0x00, 0x00, 0x24, 0x00, 0x00, 0x00,
  0x18, 0x00, 0x00, 0x00, 0x04, 0x00, 0x00, 0x00, 0x01, 0x00, 0x00, 0x00,
  0x89, 0x00, 0x00, 0x00, 0x00, 0x00, 0x00, 0x00, 0x00, 0x00, 0x00, 0x00,
  0x01, 0x00, 0x00, 0x00, 0x3c, 0x9a, 0xc6, 0x39, 0x01, 0x00, 0x00, 0x00,
  0x47, 0x20, 0x37, 0x3d, 0x01, 0x00, 0x00, 0x00, 0xc8, 0xf9, 0x52, 0xbd,
  0x80, 0x3e, 0x00, 0x00, 0x82, 0x99, 0x83, 0x82, 0x8e, 0x8d, 0x7f, 0x6b,
  0x80, 0x8c, 0x6d, 0x6c, 0x9d, 0x62, 0xa1, 0x99, 0x7a, 0x39, 0x8f, 0x98,
  0xad, 0x63, 0xff, 0x85, 0x3b, 0x6c, 0x6c, 0x84, 0x7c, 0x84, 0x7e, 0x96,
  0x37, 0x73, 0xa1, 0xa7, 0x8e, 0x69, 0x8d, 0xb4, 0x82, 0x65, 0xa4, 0x85,
  0x82, 0x69, 0x66, 0x81, 0x4b, 0x7d, 0x6a, 0xab, 0x81, 0x79, 0x70, 0x9e,
  0x80, 0x69, 0x94, 0x5d, 0xad, 0xb6, 0xbf, 0x7d, 0x50, 0x70, 0x94, 0x5a,
  0x75, 0xae, 0x9d, 0x83, 0x5c, 0x7c, 0x88, 0x61, 0x9a, 0x8b, 0x82, 0xb3,
  0x8a, 0x58, 0x9a, 0x74, 0x74, 0xb6, 0xa2, 0x7f, 0x7e, 0x6c, 0x7a, 0x82,
  0x91, 0x89, 0x80, 0x60, 0x4e, 0x7f, 0x86, 0xa4, 0x73, 0x74, 0xb7, 0x80,
  0x70, 0x7a, 0x9f, 0xad, 0x5a, 0x81, 0xa8, 0x82, 0x58, 0x71, 0x7a, 0x98,
  0x8b, 0x60, 0x7f, 0x9c, 0x6e, 0x7d, 0x68, 0x80, 0x8e, 0xbc, 0x8b, 0x9f,
  0x7f, 0x8e, 0x86, 0x87, 0x91, 0xad, 0xc0, 0x92, 0x56, 0xa2, 0x76, 0x76,
  0x94, 0x7d, 0xf7, 0xa2, 0x61, 0x78, 0x6a, 0x71, 0x7e, 0x97, 0xb8, 0x8e,
  0x62, 0x98, 0x69, 0xab, 0x94, 0x79, 0xc1, 0xa8, 0x93, 0x70, 0x62, 0x8d,
  0x6a, 0xaa, 0x97, 0x85, 0x97, 0xa9, 0xb7, 0xa5, 0x9f, 0x80, 0xbd, 0x79,
  0x79, 0x73, 0x92, 0x71, 0xb5, 0xbc, 0xac, 0xb1, 0xbf, 0x59, 0x8b, 0x87,
  0x91, 0x9b, 0x6e, 0x90, 0x94, 0x5c, 0x7c, 0x83, 0xac, 0xab, 0x78, 0x8e,
  0x96, 0x84, 0x87, 0x82, 0x73, 0x8d, 0x65, 0x93, 0x98, 0x6a, 0x80, 0xa1,
  0x71, 0x9a, 0x63, 0x6b, 0x94, 0x93, 0x75, 0xa4, 0x7c, 0x8e, 0x80, 0xac,
  0x7a, 0x74, 0x96, 0xa9, 0x8d, 0x84, 0x7d, 0x89, 0x94, 0x7d, 0x9d, 0x7d,
  0x72, 0xa8, 0x87, 0x86, 0xa9, 0x88, 0x73, 0x89, 0x92, 0x56, 0xa2, 0x89,
  0x9a, 0x7e, 0xb8, 0x9b, 0xa9, 0x9e, 0x9e, 0x87, 0xa3, 0x8d, 0x6c, 0x91,
  0x95, 0x7d, 0x8f, 0x8c, 0x81, 0x82, 0xa2, 0x95, 0x94, 0xb5, 0x90, 0xa7,
  0xbd, 0x63, 0xa6, 0x9d, 0xa7, 0x81, 0x84, 0x9b, 0x91, 0xa9, 0x7c, 0x8c,
  0x9a, 0x92, 0x89, 0x8a, 0xa3, 0x98, 0x86, 0x99, 0x85, 0xa7, 0x9b, 0x8a,
  0x95, 0x98, 0x71, 0xb9, 0x91, 0x5f, 0xc8, 0x79, 0xa3, 0x82, 0x9a, 0xae,
  0x93, 0x82, 0xad, 0x9a, 0x91, 0xb0, 0xa4, 0xa7, 0x75, 0x93, 0xdc, 0xa0,
  0x8f, 0x60, 0x91, 0x6c, 0xaf, 0xa6, 0x65, 0x9b, 0x98, 0x78, 0x92, 0x6a,
  0x87, 0x81, 0x96, 0x82, 0x87, 0xa8, 0x87, 0x40, 0xa9, 0x69, 0x96, 0x6d,
  0xb9, 0x8d, 0x83, 0x70, 0x7d, 0x6f, 0x40, 0x86, 0x87, 0x80, 0x9d, 0x5a,
  0x5f, 0x6e, 0x7a, 0xa4, 0x91, 0xa2, 0x85, 0x6e, 0x74, 0x75, 0x86, 0x85,
  0x89, 0x93, 0x90, 0x6b, 0x8f, 0x84, 0x7f, 0x89, 0x92, 0x8d, 0x7b, 0x3d,
  0x6e, 0x7a, 0x88, 0x89, 0x84, 0x9c, 0x63, 0x52, 0x5d, 0x91, 0x7e, 0x6a,
  0xb4, 0x74, 0x8e, 0x6e, 0x88, 0x67, 0x82, 0x9d, 0x7e, 0x6c, 0x82, 0x68,
  0xb3, 0x4b, 0x97, 0xb1, 0xb4, 0x84, 0x5a, 0x6b, 0xad, 0x88, 0xac, 0x8a,
  0x9d, 0xb3, 0x69, 0x5c, 0x9e, 0x89, 0xa0, 0xb4, 0x9d, 0x97, 0x89, 0x81,
  0xbb, 0xac, 0x95, 0x90, 0xa5, 0x9e, 0x78, 0x7b, 0x98, 0x8e, 0x77, 0x75,
  0xb1, 0x7b, 0xa5, 0x74, 0x8c, 0xab, 0x8e, 0x57, 0x8b, 0xaa, 0x67, 0x5d,
  0xb5, 0xa3, 0x98, 0x7d, 0xa7, 0xac, 0xb1, 0x49, 0xa5, 0xb4, 0xc9, 0x8b,
  0xaa, 0x68, 0x95, 0x7a, 0x79, 0x97, 0xba, 0x93, 0x9d, 0x96, 0x67, 0x50,
  0xab, 0x96, 0xb7, 0xaa, 0x90, 0x70, 0x6f, 0x86, 0x69, 0x95, 0x81, 0x87,
  0x8d, 0x92, 0x7e, 0x86, 0xaa, 0x68, 0xb7, 0x9c, 0x8d, 0x74, 0x75, 0x8a,
  0x95, 0x5f, 0x72, 0xad, 0x8b, 0x94, 0x6a, 0x5a, 0x82, 0x63, 0x24, 0x66,
  0x9f, 0x90, 0x68, 0x9f, 0x82, 0x91, 0x5b, 0x81, 0xa0, 0x98, 0x8d, 0x92,
  0x76, 0x83, 0x55, 0x78, 0x78, 0xad, 0x6f, 0x68, 0x65, 0x55, 0x42, 0x92,
  0xa0, 0x73, 0xa6, 0x84, 0x7a, 0x6d, 0x6e, 0x6b, 0xa4, 0xa0, 0x99, 0x77,
  0x9f, 0x74, 0x50, 0x86, 0x88, 0x80, 0x86, 0x70, 0x95, 0x8e, 0x63, 0x7e,
  0x90, 0x9f, 0x93, 0x83, 0xa7, 0x63, 0x88, 0xb6, 0x81, 0x86, 0x87, 0x8e,
  0x9b, 0x8c, 0x8c, 0x91, 0xc5, 0x92, 0x5e, 0x67, 0x81, 0x7c, 0x80, 0x9a,
  0x97, 0x83, 0x66, 0x84, 0x74, 0x90, 0x71, 0xa1, 0xa0, 0x89, 0xc2, 0x95,
  0xa5, 0xa1, 0x53, 0x83, 0x95, 0x98, 0x87, 0xb0, 0x86, 0x89, 0x5f, 0x75,
  0xaf, 0x80, 0xb2, 0x7c, 0x86, 0xa2, 0x89, 0x67, 0x94, 0x94, 0xb2, 0x81,
  0x96, 0x93, 0xae, 0xab, 0xd1, 0x83, 0xa6, 0xa1, 0x52, 0x9b, 0xab, 0x6a,
  0xad, 0x9e, 0x70, 0x9c, 0xa7, 0xa1, 0xd8, 0x9e, 0x8b, 0x5e, 0x5e, 0x8e,
  0x9c, 0x82, 0x70, 0x85, 0xb0, 0x75, 0x54, 0xd7, 0x97, 0x59, 0x89, 0xa0,
  0x81, 0x8e, 0x3d, 0x82, 0x7a, 0x62, 0x69, 0xab, 0x9d, 0xa8, 0x7f, 0x99,
  0x7a, 0x64, 0x1f, 0x81, 0x7c, 0x91, 0x50, 0x98, 0x9a, 0x3f, 0x50, 0x79,
  0x76, 0x8b, 0x75, 0x71, 0x6e, 0x55, 0x3f, 0xb6, 0xa8, 0x89, 0x5d, 0xa6,
  0x90, 0x79, 0x55, 0x70, 0x9d, 0x9c, 0x82, 0x91, 0x92, 0x71, 0x34, 0x7f,
  0x92, 0x93, 0x5b, 0xb2, 0x90, 0x6e, 0x51, 0x51, 0x9c, 0xb1, 0x92, 0xa9,
  0x7b, 0x6e, 0x54, 0x9e, 0xae, 0xa2, 0x7b, 0x98, 0x7b, 0x8c, 0x77, 0x9f,
  0xab, 0x91, 0x78, 0x92, 0x73, 0x88, 0x71, 0x83, 0x9a, 0x77, 0x6a, 0x77,
  0xac, 0x97, 0x8b, 0xb3, 0xd4, 0x87, 0x94, 0x85, 0xa8, 0x95, 0x77, 0xa3,
  0xb1, 0x5f, 0x8f, 0xb5, 0x79, 0x9e, 0x46, 0x89, 0x98, 0x9c, 0x85, 0xac,
  0x86, 0xaf, 0x6c, 0x85, 0x9e, 0x99, 0xa1, 0xaf, 0x7d, 0x77, 0x60, 0x70,
  0xba, 0xb4, 0x7e, 0x9a, 0x6f, 0x80, 0x97, 0xb3, 0xb9, 0xad, 0x80, 0xa4,
  0x97, 0x7f, 0xa1, 0x84, 0xa7, 0xac, 0x82, 0xa3, 0xb3, 0x97, 0xd3, 0x9a,
  0x79, 0x76, 0x60, 0x8e, 0x81, 0x88, 0x5b, 0x7c, 0x7f, 0x6f, 0x73, 0xb0,
  0x97, 0x68, 0x8f, 0x9f, 0x90, 0xac, 0x77, 0xa5, 0x73, 0x4c, 0x32, 0x87,
  0xa7, 0x93, 0x78, 0xa6, 0x7d, 0x39, 0x49, 0x79, 0x99, 0x7b, 0x55, 0x6d,
  0xaa, 0x78, 0x51, 0x8e, 0x87, 0x8e, 0x48, 0x81, 0x6e, 0x78, 0x3e, 0xa2,
  0xb6, 0x8d, 0x75, 0xae, 0x8c, 0x63, 0x4e, 0x77, 0xb9, 0x81, 0x56, 0xa7,
  0x6c, 0x5a, 0x36, 0x73, 0x7d, 0xb6, 0x76, 0x9c, 0x7e, 0xa4, 0x48, 0x9d,
  0x96, 0x53, 0x8e, 0xb4, 0xb6, 0x7e, 0x3f, 0x93, 0x9d, 0x93, 0x9d, 0xa2,
  0x8b, 0x80, 0x4f, 0xa3, 0xdc, 0x68, 0x85, 0x9a, 0x6c, 0x98, 0x85, 0x9a,
  0xac, 0x86, 0x8e, 0xb8, 0x97, 0xb5, 0x7d, 0xb6, 0x98, 0x7c, 0xb7, 0xc5,
  0x6d, 0x86, 0x79, 0x63, 0xb1, 0x8c, 0x92, 0xbd, 0x85, 0xaf, 0x4f, 0x8e,
  0xa7, 0x64, 0xa2, 0x96, 0x67, 0x82, 0x47, 0x80, 0x97, 0x8d, 0x9c, 0xaa,
  0x85, 0x80, 0x79, 0x88, 0xc4, 0x97, 0x82, 0x8b, 0x66, 0xa4, 0x7f, 0x89,
  0xce, 0x6e, 0x74, 0xb8, 0x73, 0x9f, 0xaf, 0x83, 0xb6, 0xa8, 0x7e, 0x9b,
  0x8f, 0x6e, 0xd3, 0xa2, 0xa4, 0x8b, 0x72, 0xa1, 0x98, 0x8e, 0x87, 0x65,
  0x90, 0xb5, 0x7f, 0xa2, 0xa3, 0x61, 0x7a, 0x7d, 0x7d, 0x80, 0x49, 0x81,
  0x85, 0x5e, 0x45, 0x96, 0x8f, 0x8c, 0x57, 0xa0, 0x59, 0x4d, 0x32, 0x65,
  0xa3, 0x72, 0x36, 0x7b, 0x99, 0x64, 0x65, 0x72, 0x94, 0xb5, 0x65, 0x8f,
  0x5c, 0x6a, 0x48, 0x67, 0xab, 0x93, 0x5d, 0xa7, 0x5f, 0x68, 0x3f, 0x75,
  0x92, 0x86, 0x9b, 0x97, 0x7e, 0x5b, 0x33, 0x66, 0x8a, 0x96, 0x5d, 0xa0,
  0x8b, 0x78, 0x23, 0x7c, 0xbe, 0x63, 0x82, 0xac, 0xaa, 0xb7, 0x54, 0xaa,
  0x95, 0x7a, 0x61, 0xaf, 0xad, 0x80, 0x7a, 0x77, 0x95, 0x85, 0x73, 0xb2,
  0x5c, 0xaa, 0x84, 0x5f, 0x94, 0x7c, 0x8d, 0xa4, 0x72, 0x82, 0x97, 0x8d,
  0xae, 0x88, 0xac, 0xa9, 0x9c, 0xb2, 0x8d, 0x7d, 0x9c, 0x8f, 0x6d, 0xa7,
  0x5f, 0xbd, 0x71, 0x56, 0xa6, 0x9e, 0x83, 0xa6, 0x8d, 0x8b, 0x60, 0x62,
  0xc2, 0x8b, 0x8a, 0xa6, 0x9c, 0xbc, 0x64, 0x59, 0x9f, 0x91, 0x99, 0x94,
  0x7c, 0x9a, 0x6f, 0x53, 0xd2, 0x99, 0xb0, 0xa7, 0x90, 0x80, 0xa3, 0x6e,
  0xbe, 0xab, 0x99, 0xa0, 0xbd, 0x9c, 0xac, 0x91, 0x83, 0x98, 0x7b, 0xb7,
  0xa0, 0x8b, 0x82, 0xaa, 0x71, 0x73, 0x69, 0x99, 0x96, 0x80, 0x68, 0x73,
  0x94, 0x8b, 0x68, 0x8a, 0x72, 0x52, 0x3b, 0x5b, 0x8a, 0xa3, 0x4a, 0xae,
  0x6d, 0x70, 0x49, 0x89, 0x6f, 0x88, 0x76, 0x9e, 0x5d, 0x4d, 0x46, 0x91,
  0xaa, 0x7f, 0x86, 0x89, 0x99, 0x6e, 0x4e, 0x59, 0xa8, 0x9b, 0x74, 0x96,
  0x9c, 0x6a, 0x20, 0x59, 0x92, 0x87, 0x82, 0x95, 0x71, 0x83, 0x39, 0x77,
  0x99, 0x97, 0x97, 0xac, 0x56, 0x73, 0x36, 0x7d, 0xa7, 0x93, 0x7a, 0x98,
  0x7a, 0x79, 0x38, 0xa9, 0xba, 0x7c, 0x7f, 0x9d, 0x9a, 0x91, 0x77, 0x8d,
  0xa7, 0x87, 0x7e, 0xa9, 0x9a, 0xaa, 0x64, 0x90, 0xbb, 0x60, 0x97, 0xb4,
  0x9b, 0x89, 0x95, 0x77, 0xc7, 0x8d, 0xa0, 0xa1, 0xae, 0xb0, 0x5b, 0x8d,
  0x92, 0x65, 0x6b, 0xb8, 0xac, 0xae, 0x5e, 0x6c, 0xb7, 0x79, 0x9c, 0xa4,
  0x5a, 0xa6, 0x36, 0x90, 0xd2, 0x81, 0xa7, 0xa0, 0x4c, 0xa2, 0x4e, 0x61,
  0xb1, 0x90, 0x98, 0xae, 0x67, 0x79, 0x61, 0x66, 0xcd, 0x7a, 0x5c, 0x98,
  0x80, 0xaa, 0x90, 0x9c, 0xa0, 0x92, 0x95, 0xac, 0xa5, 0x67, 0xcc, 0xb2,
  0xb2, 0xac, 0x68, 0xb6, 0x70, 0xa2, 0x73, 0x7d, 0x7d, 0x63, 0x55, 0x9e,
  0x94, 0x3b, 0x79, 0x7b, 0x6f, 0xaf, 0x65, 0x93, 0x9b, 0x61, 0x58, 0x62,
  0x85, 0x88, 0x38, 0xbd, 0x6c, 0x61, 0x5b, 0x56, 0x90, 0x91, 0x86, 0x98,
  0x5f, 0x40, 0x54, 0x9e, 0x9d, 0x81, 0x5a, 0x7e, 0x9c, 0x68, 0x42, 0x8f,
  0xb0, 0x9e, 0x82, 0x8f, 0x81, 0x91, 0x41, 0x6b, 0x8b, 0x95, 0x7f, 0x8e,
  0x7a, 0x6c, 0x60, 0x8b, 0x90, 0x69, 0x9e, 0x8e, 0x82, 0x93, 0x24, 0xbc,
  0x7c, 0xb1, 0x8a, 0x90, 0xad, 0x68, 0x75, 0x6e, 0xb5, 0x9b, 0x73, 0x72,
  0x93, 0x90, 0x88, 0xbd, 0xb3, 0x76, 0x8b, 0x8b, 0x79, 0x95, 0xa0, 0x65,
  0xbb, 0x5f, 0xa5, 0x7c, 0x94, 0x77, 0x80, 0x90, 0x96, 0x82, 0x73, 0x9b,
  0x5f, 0x8b, 0x95, 0xa1, 0xca, 0x8b, 0xa6, 0xa5, 0x7f, 0xaa, 0x4d, 0x88,
  0xa5, 0x7e, 0x9f, 0x97, 0x8d, 0x93, 0x3c, 0xa1, 0xc5, 0xb2, 0x90, 0x90,
  0x73, 0xb7, 0x57, 0xa0, 0x88, 0xb0, 0x8a, 0x79, 0x7c, 0x73, 0x60, 0x76,
  0xc2, 0xbb, 0x88, 0xa0, 0x65, 0xa8, 0x99, 0x83, 0xb7, 0xb3, 0x9d, 0xa9,
  0xaa, 0x97, 0xb4, 0x94, 0x90, 0x8e, 0x61, 0xbe, 0x7a, 0x94, 0x6a, 0x8d,
  0x7b, 0xa6, 0x2e, 0x8d, 0xa1, 0x5b, 0x84, 0x89, 0x93, 0x64, 0x8e, 0x9e,
  0x87, 0x86, 0x69, 0x89, 0x79, 0x95, 0x52, 0xa1, 0x52, 0x58, 0x4a, 0x59,
  0x78, 0x93, 0x75, 0xb0, 0x6c, 0x3f, 0x36, 0x7c, 0x91, 0x9f, 0x44, 0x85,
  0xa2, 0x63, 0x32, 0x92, 0x9a, 0xa4, 0x71, 0x75, 0x8c, 0x82, 0x4c, 0x95,
  0xa1, 0x6e, 0x6e, 0x7c, 0x8e, 0x76, 0x5c, 0x9b, 0xbc, 0xaa, 0x78, 0x8d,
  0x8b, 0x74, 0x36, 0x86, 0x75, 0xa4, 0x78, 0x98, 0x77, 0x74, 0x75, 0x8c,
  0xc2, 0xa2, 0x75, 0x79, 0x88, 0x85, 0x61, 0x7f, 0xb4, 0x83, 0x70, 0x65,
  0x6c, 0x6c, 0x81, 0x6a, 0x9e, 0x85, 0x84, 0x73, 0x85, 0xb2, 0x71, 0x66,
  0xb6, 0x9c, 0x90, 0x7f, 0x7a, 0xa2, 0x88, 0x8c, 0xad, 0xc1, 0xa9, 0x81,
  0x91, 0x88, 0x5f, 0x73, 0xc3, 0x8c, 0x8b, 0x8f, 0x7f, 0x97, 0x5d, 0xad,
  0x8d, 0x89, 0x82, 0x94, 0x8c, 0x89, 0x54, 0xa1, 0xb4, 0x8d, 0x93, 0x8c,
  0xa9, 0x94, 0x57, 0x8a, 0xbd, 0x7c, 0xa1, 0x7b, 0x87, 0x97, 0xae, 0x89,
  0x9e, 0xa0, 0x68, 0x99, 0x98, 0x85, 0xc0, 0x9f, 0x99, 0x88, 0x53, 0xcc,
  0x88, 0x99, 0x75, 0xa1, 0x9d, 0x72, 0x74, 0x9f, 0x95, 0x79, 0x64, 0xb9,
  0x8f, 0x86, 0x65, 0xb0, 0x64, 0x52, 0x56, 0x84, 0x59, 0xad, 0x49, 0xb7,
  0x9d, 0x63, 0x4f, 0x72, 0x81, 0x6e, 0x7d, 0xc1, 0x92, 0x40, 0x4e, 0x8c,
  0xad, 0x8e, 0x75, 0x9a, 0x85, 0x92, 0x26, 0xa2, 0xa5, 0x99, 0x90, 0x7f,
  0xa6, 0x71, 0x5e, 0x7f, 0xb8, 0x98, 0x7d, 0x86, 0x80, 0x81, 0x3c, 0x7a,
  0xa3, 0x95, 0x69, 0x99, 0x80, 0x95, 0x40, 0xa4, 0x9f, 0xa4, 0x67, 0x85,
  0x92, 0x7d, 0x68, 0x8f, 0xa6, 0xb7, 0x77, 0x6f, 0xa0, 0x80, 0x70, 0x99,
  0xaf, 0x91, 0xa9, 0x65, 0xa4, 0x8a, 0x8b, 0x63, 0x8f, 0xa3, 0x85, 0x69,
  0x8d, 0x87, 0x9a, 0x70, 0x8a, 0xa7, 0x8a, 0x94, 0xa4, 0x95, 0x60, 0x5c,
  0xcb, 0x70, 0xb2, 0x93, 0x81, 0xac, 0x6c, 0x64, 0x9c, 0x84, 0x98, 0x91,
  0x89, 0x7e, 0x31, 0x5e, 0xa0, 0xad, 0x9c, 0x7e, 0x86, 0x8a, 0x60, 0x89,
  0xbf, 0x75, 0x9b, 0x7e, 0x74, 0x70, 0x7c, 0x8c, 0xc0, 0x9f, 0x80, 0x92,
  0x76, 0x87, 0xad, 0x94, 0xca, 0xa3, 0x79, 0x81, 0x93, 0x85, 0xb8, 0x9c,
  0x8a, 0xa1, 0x43, 0xbf, 0x72, 0x87, 0x71, 0x7e, 0x6f, 0xac, 0x57, 0xad,
  0xab, 0x4c, 0x92, 0x7b, 0x99, 0x6d, 0x72, 0x97, 0x67, 0x70, 0x28, 0x79,
  0x90, 0x75, 0x64, 0xaf, 0x6d, 0x63, 0x3a, 0x74, 0x88, 0x77, 0x62, 0x9d,
  0x86, 0x51, 0x41, 0x9d, 0x8a, 0x91, 0x64, 0x92, 0x9a, 0x77, 0x45, 0x84,
  0xa1, 0x8f, 0x86, 0xa3, 0xa0, 0x74, 0x43, 0x9a, 0x8f, 0x92, 0x74, 0x6f,
  0x65, 0x82, 0x4a, 0x95, 0xb9, 0xb1, 0x95, 0x88, 0x6d, 0x60, 0x2b, 0x68,
  0x99, 0x9f, 0x92, 0x77, 0x92, 0x8e, 0x56, 0x83, 0xad, 0xa7, 0x81, 0x86,
  0xba, 0x77, 0x5d, 0x76, 0xad, 0x86, 0x5d, 0x76, 0x93, 0x6f, 0x66, 0xa3,
  0xa4, 0x7f, 0x88, 0x8b, 0x7f, 0x7e, 0x76, 0x7c, 0x78, 0x88, 0x98, 0x85,
  0x97, 0xab, 0x97, 0x84, 0x97, 0xbf, 0x96, 0x97, 0xa3, 0xb0, 0x64, 0xb9,
  0xac, 0xa3, 0x78, 0xa5, 0x87, 0x86, 0x65, 0x5f, 0xb6, 0xba, 0x6f, 0x82,
  0x70, 0xb0, 0x61, 0xa8, 0xa4, 0x73, 0x8b, 0x78, 0x7a, 0x98, 0x6a, 0x9a,
  0xab, 0xb3, 0x9f, 0x7f, 0x60, 0x81, 0x8c, 0x8a, 0xba, 0x7e, 0x60, 0x96,
  0xac, 0x90, 0xc5, 0x8a, 0x8a, 0x75, 0x48, 0xbc, 0x9b, 0x70, 0x9f, 0x8b,
  0x75, 0x7d, 0x3d, 0xab, 0x7b, 0x7c, 0x6c, 0x6e, 0x8a, 0x92, 0x71, 0x9c,
  0x7b, 0x72, 0x3c, 0x63, 0x7c, 0x88, 0x70, 0xc4, 0x58, 0x42, 0x55, 0x6e,
  0x93, 0x5d, 0x4d, 0x9f, 0xb7, 0x1d, 0x44, 0x78, 0xae, 0x83, 0x53, 0x98,
  0x85, 0x5c, 0x1f, 0x75, 0x8a, 0x93, 0x65, 0x8e, 0x8e, 0x79, 0x5a, 0x5e,
  0xb0, 0x80, 0x7e, 0x8a, 0x94, 0x92, 0x4c, 0x89, 0x8f, 0xa5, 0x87, 0xa7,
  0x8c, 0xa2, 0x48, 0xba, 0xb4, 0x8f, 0x8e, 0x8e, 0xa0, 0xa6, 0x6f, 0xaf,
  0xaa, 0x98, 0x74, 0x93, 0x8c, 0x95, 0x51, 0x6d, 0xb5, 0x84, 0x8f, 0x7c,
  0xb0, 0x88, 0x7d, 0x6e, 0x99, 0x92, 0x8f, 0x7a, 0x9c, 0x6d, 0x8d, 0xa3,
  0xa4, 0x9e, 0x8b, 0x78, 0x97, 0xbe, 0x84, 0x69, 0xb0, 0x99, 0x7c, 0x83,
  0x8c, 0xb3, 0x3e, 0x6a, 0xa3, 0x92, 0x78, 0x77, 0x93, 0x74, 0x53, 0xa3,
  0xab, 0x8e, 0x7d, 0x7a, 0x6d, 0x9c, 0x60, 0x8a, 0x98, 0xb5, 0x66, 0x67,
  0x86, 0x77, 0x78, 0x90, 0x9b, 0x91, 0x68, 0x92, 0x71, 0xa8, 0x82, 0x83,
  0xc0, 0x87, 0x98, 0x88, 0x90, 0x92, 0xbe, 0x9a, 0x8a, 0x9d, 0x40, 0xab,
  0x6e, 0x74, 0x83, 0x64, 0x81, 0x56, 0x76, 0x9e, 0x73, 0x5c, 0x46, 0x81,
  0x67, 0x8a, 0x8b, 0xa9, 0x91, 0x37, 0x3d, 0x95, 0x92, 0x7f, 0x37, 0xb8,
  0x8a, 0x5a, 0x41, 0x90, 0x73, 0xb6, 0x43, 0xb6, 0x86, 0x4a, 0x5b, 0x7a,
  0xb5, 0xa9, 0x3d, 0x94, 0x95, 0x49, 0x51, 0x9d, 0x97, 0xb8, 0x81, 0x9b,
  0x91, 0x5e, 0x4e, 0x7a, 0xb5, 0x8b, 0x8c, 0xa3, 0x7c, 0x85, 0x18, 0x92,
  0xae, 0x96, 0x72, 0xb5, 0x85, 0x86, 0x39, 0x7b, 0xa4, 0x80, 0x7f, 0x8d,
  0x6b, 0x8b, 0x6a, 0x74, 0xbe, 0xb8, 0x6f, 0x7b, 0x8b, 0x8e, 0x7a, 0x93,
  0xb2, 0x81, 0x6a, 0x74, 0x6c, 0x87, 0x78, 0x9c, 0x91, 0xb7, 0x6c, 0x6b,
  0x86, 0xc0, 0xa2, 0x88, 0x88, 0x83, 0xab, 0x92, 0x86, 0x7a, 0xaf, 0x93,
  0x9a, 0xb0, 0xbb, 0xa1, 0x85, 0xa2, 0x60, 0x79, 0xa7, 0xba, 0x7f, 0x7d,
  0x84, 0xa0, 0x76, 0x9a, 0xa2, 0x6b, 0xac, 0x82, 0x5e, 0x8c, 0x4f, 0x9f,
  0xb7, 0xa1, 0x6c, 0x5e, 0x58, 0x85, 0x3f, 0x77, 0xc4, 0x86, 0x84, 0x99,
  0x6a, 0x96, 0x8d, 0x9a, 0xa3, 0x9c, 0x93, 0x84, 0xa1, 0x66, 0xbb, 0x86,
  0x90, 0x7e, 0x58, 0xc5, 0xab, 0x7d, 0x9e, 0x69, 0x9b, 0x8a, 0x65, 0x9d,
  0x7e, 0x38, 0x94, 0x89, 0x67, 0xa9, 0x44, 0xa8, 0x71, 0x32, 0x4d, 0x6c,
  0x69, 0x7b, 0x65, 0xd2, 0x96, 0x4c, 0x5e, 0x4e, 0x6a, 0x78, 0x45, 0xc1,
  0x87, 0x3a, 0x3c, 0xaa, 0xa1, 0xa9, 0x55, 0xa8, 0x6e, 0x70, 0x6b, 0x8d,
  0xb0, 0x83, 0x65, 0x8c, 0x8f, 0x70, 0x54, 0x8c, 0x87, 0x88, 0x87, 0xa4,
  0xa1, 0x76, 0x40, 0x6d, 0xb3, 0x97, 0x6f, 0xa0, 0x80, 0x7e, 0x3d, 0xc1,
  0x85, 0x73, 0x8f, 0xa6, 0x9d, 0x7e, 0x46, 0x86, 0xa0, 0x82, 0x83, 0x86,
  0x82, 0x5c, 0x9d, 0x81, 0xb9, 0x6c, 0x96, 0x64, 0x5e, 0x9a, 0x66, 0x77,
  0x9b, 0x74, 0x56, 0x83, 0x82, 0x94, 0x93, 0x70, 0xb6, 0x97, 0x97, 0x80,
  0x9c, 0xc2, 0x94, 0x76, 0x94, 0x98, 0x75, 0x80, 0xa8, 0x9f, 0x4a, 0xa7,
  0x9c, 0xb3, 0xa1, 0x87, 0x5a, 0x94, 0x48, 0x7c, 0xc1, 0xbd, 0x62, 0x80,
  0x7f, 0xb0, 0x68, 0x91, 0xb5, 0x95, 0x97, 0x7c, 0x83, 0x8e, 0x58, 0x90,
  0xb2, 0x9b, 0x70, 0x9f, 0x7a, 0x6b, 0x6a, 0x8e, 0x9e, 0xa6, 0x77, 0x98,
  0x86, 0x95, 0xbb, 0xa5, 0x71, 0xa2, 0x4e, 0xc6, 0x8c, 0x79, 0x7e, 0x7f,
  0x96, 0x76, 0x57, 0xaf, 0x77, 0x54, 0x69, 0x82, 0x67, 0x7a, 0x70, 0x9e,
  0x85, 0x64, 0x5c, 0x50, 0x73, 0x63, 0x3b, 0xd6, 0x69, 0x58, 0x35, 0x82,
  0x80, 0x73, 0x55, 0xc6, 0x8b, 0x4c, 0x61, 0x98, 0x76, 0x97, 0x5c, 0xa4,
  0x79, 0x4c, 0x2c, 0x96, 0xc1, 0xab, 0x7f, 0xa0, 0x79, 0x7d, 0x5a, 0xb4,
  0x96, 0x87, 0x5d, 0xab, 0x9e, 0x82, 0x4b, 0x7c, 0xa3, 0xa2, 0x8d, 0xbe,
  0x4c, 0x72, 0x43, 0x88, 0x96, 0xa7, 0x76, 0x8d, 0x52, 0x75, 0x94, 0x8e,
  0x8c, 0x99, 0x91, 0x88, 0xa5, 0x8c, 0x84, 0x75, 0xc2, 0x93, 0x65, 0x89,
  0x6d, 0x7f, 0x78, 0x79, 0xc6, 0x7d, 0x6c, 0x82, 0x6e, 0x8c, 0xa2, 0x6a,
  0xa6, 0xa4, 0x8c, 0x7c, 0x7f, 0x98, 0x91, 0x8c, 0xbe, 0x8a, 0x8c, 0x9c,
  0xac, 0xac, 0x87, 0x71, 0xae, 0x9e, 0x6a, 0x8d, 0x8d, 0xa8, 0x6a, 0x83,
  0x95, 0xc8, 0x8c, 0x81, 0x82, 0xa4, 0x67, 0x67, 0xa9, 0xac, 0x50, 0x7a,
  0xa7, 0x96, 0x67, 0x82, 0xbf, 0x99, 0x89, 0x92, 0x87, 0x9e, 0x6a, 0x78,
  0xbe, 0x96, 0x6f, 0xa1, 0x8c, 0x7d, 0xbb, 0x9d, 0x98, 0x8e, 0x4e, 0xcf,
  0x8a, 0x6f, 0x5b, 0x8e, 0x7f, 0x82, 0x6f, 0xa6, 0x6e, 0x79, 0x9e, 0x60,
  0x7e, 0x7f, 0x4b, 0xad, 0x4d, 0x4e, 0x3c, 0x7f, 0x5d, 0xb0, 0x2e, 0xd6,
  0x68, 0x4b, 0x75, 0x98, 0x6a, 0x58, 0x72, 0xad, 0x5e, 0x4f, 0x45, 0x9e,
  0x7f, 0x9b, 0x74, 0xca, 0x8d, 0x5c, 0x4e, 0xa5, 0x96, 0x89, 0x6d, 0x93,
  0x84, 0x40, 0x78, 0x75, 0xbe, 0xad, 0x7b, 0x9c, 0x79, 0x85, 0x28, 0x88,
  0x73, 0xa3, 0x75, 0x98, 0x7d, 0x4c, 0x25, 0x67, 0xb5, 0x96, 0xa8, 0xa0,
  0x6b, 0x59, 0x6f, 0x92, 0x89, 0x91, 0x98, 0x5e, 0x7c, 0x88, 0x90, 0x9d,
  0x8e, 0x8f, 0x80, 0x78, 0x60, 0x8e, 0x8e, 0x91, 0xa8, 0x7f, 0x8e, 0x71,
  0x95, 0x8d, 0xbb, 0x8e, 0xbb, 0x86, 0xa5, 0x7a, 0x7a, 0xba, 0xa0, 0x5c,
  0xc6, 0x8c, 0x8e, 0x9b, 0x7d, 0x7b, 0x44, 0x7b, 0xb6, 0x85, 0x87, 0x7f,
  0x8c, 0x9e, 0x7b, 0x7e, 0x9f, 0x9e, 0x7e, 0x88, 0x54, 0x90, 0x69, 0x94,
  0xa5, 0x8e, 0x67, 0x8d, 0x9c, 0xa0, 0x75, 0x8e, 0x7b, 0x75, 0x89, 0x93,
  0x84, 0x7e, 0x4c, 0x6f, 0x8f, 0x77, 0x78, 0x95, 0x95, 0x86, 0xbe, 0x9b,
  0x95, 0x72, 0x39, 0xaa, 0x9c, 0x85, 0x7a, 0x6e, 0x82, 0xa2, 0x43, 0xa3,
  0x6d, 0x6a, 0xa4, 0x56, 0x56, 0x98, 0x7c, 0xb6, 0x3d, 0x43, 0x64, 0x5d,
  0x95, 0x7b, 0x87, 0xd1, 0x6c, 0x52, 0x57, 0x6e, 0x84, 0x82, 0x35, 0xdb,
  0xa1, 0x38, 0x30, 0xa5, 0xa5, 0x9e, 0x42, 0xaf, 0x90, 0x5b, 0x4b, 0x52,
  0x8e, 0x77, 0x56, 0xa4, 0x8a, 0x75, 0x5e, 0x81, 0x93, 0xa1, 0x65, 0x96,
  0xa2, 0x8d, 0x43, 0x92, 0x9d, 0x88, 0x7e, 0x9b, 0xa7, 0x5d, 0x48, 0x90,
  0x86, 0x92, 0xb0, 0x93, 0x84, 0x87, 0x7e, 0x9e, 0xb7, 0xa1, 0x5c, 0x83,
  0xaa, 0x83, 0x89, 0x8a, 0x9d, 0x91, 0x7a, 0x76, 0x8c, 0x86, 0x93, 0x6f,
  0x97, 0x98, 0xad, 0x7a, 0x71, 0x68, 0x92, 0x73, 0x91, 0xc0, 0xa6, 0x81,
  0x88, 0x9f, 0x9d, 0x8f, 0xa7, 0x7a, 0xbd, 0xa7, 0x98, 0x8a, 0x69, 0x86,
  0xb1, 0x8d, 0xa5, 0x7b, 0x92, 0xaf, 0x5e, 0x89, 0xad, 0xb5, 0x70, 0x79,
  0x96, 0x99, 0x4c, 0x8d, 0xa8, 0xbb, 0x77, 0x77, 0x72, 0x88, 0x78, 0x94,
  0xcd, 0x7c, 0x9a, 0x8d, 0x8e, 0x72, 0x61, 0x8d, 0xa7, 0x74, 0xb4, 0x88,
  0x9e, 0x95, 0xa2, 0x92, 0x7f, 0xa1, 0x29, 0xed, 0x6f, 0x67, 0xa6, 0x97,
  0x55, 0x7b, 0x4a, 0xaf, 0x63, 0x56, 0x71, 0x7d, 0x82, 0xac, 0x32, 0xb0,
  0x63, 0x49, 0x2f, 0x57, 0x7c, 0x8d, 0x58, 0xe2, 0x86, 0x59, 0x35, 0x4b,
  0x62, 0x81, 0x67, 0xda, 0x79, 0x29, 0x34, 0xa2, 0xb9, 0x87, 0x73, 0xb3,
  0x71, 0x2f, 0x41, 0x99, 0xa0, 0x6f, 0x64, 0x9c, 0xa0, 0x55, 0x7b, 0x6c,
  0xa5, 0x81, 0x84, 0xb1, 0x5c, 0x5e, 0x4c, 0x97, 0x8c, 0xa2, 0x6b, 0x9b,
  0x5e, 0x6e, 0x29, 0x9b, 0x81, 0x75, 0x6c, 0xa1, 0x99, 0x6b, 0x83, 0xae,
  0x87, 0x98, 0x7a, 0x84, 0xb8, 0x89, 0x73, 0x6f, 0x97, 0xa5, 0x78, 0x7a,
  0x64, 0x62, 0x90, 0x89, 0xa0, 0x8c, 0x89, 0x7c, 0x7c, 0xbb, 0xc6, 0x8c,
  0x9e, 0xa1, 0xa8, 0x9f, 0xa5, 0xb1, 0x87, 0x73, 0xa1, 0xa7, 0x9b, 0x80,
  0x8d, 0x89, 0x93, 0x79, 0xb9, 0x80, 0x98, 0x95, 0x78, 0x89, 0x40, 0x79,
  0xa7, 0x8a, 0x87, 0x80, 0x94, 0x8d, 0x34, 0xa3, 0x87, 0xa6, 0x73, 0x84,
  0xa0, 0x70, 0x54, 0x7f, 0x9d, 0x80, 0x84, 0x8a, 0x94, 0x5c, 0x57, 0x84,
  0x92, 0xab, 0x97, 0xa0, 0x87, 0x83, 0x91, 0xb0, 0x70, 0x6e, 0x47, 0xba,
  0x5a, 0x7a, 0x80, 0x6e, 0x6d, 0x6a, 0x31, 0xbb, 0x7b, 0x5b, 0x6e, 0x88,
  0x5c, 0xab, 0x5f, 0xb7, 0x6d, 0x80, 0x38, 0x5b, 0x53, 0x6c, 0x76, 0xf0,
  0x88, 0x30, 0x4d, 0x5f, 0x8c, 0x74, 0x6b, 0xee, 0x91, 0x1a, 0x72, 0xba,
  0x6d, 0x77, 0x53, 0xba, 0x84, 0x4a, 0x4d, 0x88, 0x8b, 0x83, 0x54, 0xc2,
  0x6e, 0x6d, 0x7c, 0xb3, 0x75, 0x61, 0x53, 0xa1, 0x89, 0x68, 0x44, 0x5b,
  0xb4, 0xa0, 0x62, 0xa7, 0x81, 0x4c, 0x51, 0xa3, 0xa0, 0x82, 0xa5, 0xa9,
  0x5d, 0x74, 0x74, 0x75, 0xa0, 0x8c, 0x68, 0x7d, 0x93, 0x7a, 0x7c, 0x60,
  0x88, 0x6e, 0x71, 0x7e, 0x99, 0x9f, 0x9a, 0x61, 0x8d, 0x67, 0x97, 0x97,
  0x6c, 0xa5, 0xad, 0xa6, 0xa1, 0xc1, 0x90, 0x94, 0x85, 0x94, 0x7c, 0x83,
  0x8c, 0xbe, 0x6f, 0x8f, 0xa1, 0xa5, 0x71, 0x8d, 0x8e, 0x9d, 0x97, 0x77,
  0x7f, 0x7f, 0x54, 0x53, 0x94, 0xb0, 0x6e, 0x88, 0x95, 0x94, 0x55, 0x70,
  0x84, 0x96, 0x83, 0xa4, 0x68, 0x93, 0x4a, 0x88, 0xa3, 0x9a, 0x90, 0xa0,
  0x7e, 0x84, 0x47, 0x8e, 0xa9, 0x62, 0x83, 0x85, 0x9f, 0x6c, 0x94, 0x89,
  0x6c, 0x9b, 0x5f, 0xcb, 0x69, 0x85, 0x5a, 0x8a, 0x9b, 0x4d, 0x77, 0xbc,
  0xb1, 0x53, 0x63, 0x88, 0x72, 0x90, 0x6a, 0xa1, 0x73, 0x2d, 0x6a, 0x4d,
  0x5c, 0x8d, 0x76, 0xf5, 0x58, 0x44, 0x64, 0x58, 0x71, 0x7d, 0x6d, 0xd4,
  0x8f, 0x57, 0x7b, 0x70, 0x8a, 0x74, 0x67, 0xc5, 0x91, 0x42, 0x57, 0x8d,
  0xa3, 0x77, 0x4c, 0xa5, 0x78, 0x76, 0x53, 0x82, 0x9c, 0x9f, 0x85, 0xa9,
  0x6f, 0x63, 0x30, 0x75, 0x8d, 0x6e, 0x94, 0xa8, 0x83, 0x98, 0x4e, 0x61,
  0xb7, 0xaa, 0x85, 0x9c, 0x83, 0x84, 0x71, 0xbb, 0x92, 0xa1, 0x5d, 0x8c,
  0x9e, 0x52, 0x7c, 0x9b, 0xaa, 0xa8, 0x5b, 0x8b, 0x8f, 0x69, 0x8b, 0x8e,
  0x90, 0x97, 0x95, 0x72, 0x95, 0x6e, 0x8f, 0x87, 0xb5, 0x94, 0xa9, 0x8a,
  0x71, 0xb1, 0x87, 0x71, 0x81, 0xc1, 0x76, 0x8f, 0x78, 0xb3, 0x6f, 0x68,
  0x9b, 0xb2, 0xa7, 0x87, 0x8a, 0xab, 0x6e, 0x8c, 0x7c, 0x88, 0x99, 0x87,
  0x90, 0xa9, 0x72, 0x92, 0xa1, 0xa9, 0x98, 0x81, 0x9b, 0x72, 0x44, 0x9f,
  0x9c, 0xb5, 0xa0, 0x82, 0x81, 0x77, 0x5a, 0x95, 0x98, 0x9e, 0x73, 0x9d,
  0x90, 0xad, 0xa1, 0x99, 0x91, 0x89, 0x37, 0xbb, 0x89, 0x7a, 0x5b, 0x78,
  0x85, 0x81, 0x47, 0xb6, 0x89, 0x4f, 0x72, 0x79, 0x80, 0x89, 0x35, 0xd4,
  0x8a, 0x34, 0x43, 0x4b, 0x74, 0x60, 0x55, 0xef, 0x70, 0x5b, 0x55, 0x5e,
  0x7a, 0x89, 0x50, 0xea, 0x6d, 0x59, 0x3c, 0x97, 0xa0, 0x81, 0x5c, 0xad,
  0x9a, 0x50, 0x63, 0x84, 0x78, 0x9c, 0x9b, 0xc3, 0xa1, 0x59, 0x44, 0x72,
  0x94, 0x9e, 0x5d, 0xb4, 0xa0, 0x72, 0x1d, 0xa5, 0xc2, 0x89, 0x86, 0xb6,
  0x51, 0x68, 0x39, 0x70, 0x95, 0x98, 0x8d, 0xa4, 0x87, 0x87, 0x59, 0x85,
  0x98, 0x85, 0x77, 0x7f, 0x9a, 0x62, 0x8f, 0xa9, 0xb6, 0x77, 0x8b, 0x85,
  0x81, 0x78, 0x6e, 0x87, 0xb5, 0xa0, 0x82, 0x85, 0x68, 0xa1, 0xa9, 0xb6,
  0x92, 0x6f, 0x8e, 0x89, 0x79, 0x7b, 0xa1, 0x96, 0xa8, 0xc1, 0xaa, 0x79,
  0x76, 0xb9, 0x84, 0x93, 0x8b, 0xa9, 0x7c, 0x8e, 0x4f, 0xa4, 0x25, 0x6e,
  0x8b, 0xbe, 0xa8, 0x98, 0x71, 0x80, 0x89, 0x5e, 0xa0, 0xa2, 0x71, 0x9a,
  0x90, 0x79, 0x50, 0x77, 0xc0, 0x66, 0xa5, 0x83, 0x7a, 0x83, 0x42, 0x87,
  0x9d, 0x83, 0x64, 0x71, 0xac, 0xa4, 0xa1, 0x96, 0x8c, 0x89, 0x5f, 0xf1,
  0x7b, 0xc5, 0x92, 0xa9, 0x4d, 0x6a, 0x4b, 0xc1, 0x91, 0x70, 0x97, 0x7d,
  0x78, 0xb0, 0x55, 0xd7, 0x6e, 0x69, 0x37, 0x7a, 0x50, 0xa0, 0x2e, 0xf6,
  0x61, 0x57, 0x3c, 0x88, 0xa8, 0x80, 0x4d, 0xf5, 0xa2, 0x19, 0x53, 0x92,
  0xaa, 0x94, 0x4b, 0xb8, 0x84, 0x2a, 0x44, 0x82, 0x80, 0x99, 0x75, 0xb9,
  0x8b, 0x50, 0x5b, 0x93, 0x8f, 0x7f, 0x71, 0xbc, 0x95, 0x5f, 0x1f, 0x79,
  0x8d, 0x82, 0x83, 0xba, 0x87, 0x5d, 0x20, 0x8f, 0x79, 0x8a, 0x80, 0xa5,
  0xa8, 0x83, 0x4f, 0xa7, 0x73, 0xac, 0x76, 0x85, 0x7d, 0x72, 0x73, 0xb3,
  0x72, 0x9a, 0x6d, 0x9c, 0xae, 0x88, 0x8a, 0x92, 0x8a, 0x8d, 0x61, 0x8f,
  0xad, 0xb1, 0x8e, 0x84, 0x8a, 0x92, 0xa0, 0x8a, 0x71, 0x83, 0xaf, 0x9e,
  0x8b, 0x8e, 0x92, 0xa0, 0x85, 0xac, 0x42, 0x91, 0xc1, 0xae, 0xb1, 0xaa,
  0xa0, 0x83, 0x55, 0x68, 0x91, 0xb2, 0x7f, 0x94, 0x60, 0x73, 0x4c, 0x7e,
  0xa0, 0x74, 0x79, 0x99, 0x91, 0xa0, 0x6f, 0x80, 0x91, 0x83, 0x8b, 0x8b,
  0x7c, 0x7f, 0x79, 0x70, 0x7b, 0xa3, 0x68, 0x8d, 0x8a, 0x91, 0x9f, 0x92,
  0x59, 0x71, 0x85, 0xb6, 0x93, 0xa7, 0xa3, 0xa4, 0x5b, 0x94, 0x76, 0xf7,
  0x84, 0x86, 0x85, 0xb9, 0x38, 0x76, 0x93, 0xc5, 0x74, 0x93, 0x48, 0x6b,
  0x51, 0x8d, 0x6e, 0xe4, 0x8d, 0x93, 0x5e, 0x94, 0x4f, 0x82, 0x70, 0xe1,
  0xa7, 0x71, 0x46, 0xb1, 0x4b, 0x77, 0x83, 0xc5, 0xa3, 0x6e, 0x6d, 0xa6,
  0x68, 0x92, 0x69, 0xbc, 0x96, 0x75, 0x45, 0x69, 0x80, 0x7c, 0x7c, 0xc0,
  0x8e, 0x77, 0x16, 0x69, 0x6d, 0x97, 0x92, 0xb2, 0x64, 0x5e, 0x32, 0x89,
  0x5c, 0x97, 0x91, 0xba, 0x92, 0x98, 0x4e, 0x8d, 0x86, 0x76, 0x71, 0x7a,
  0xa4, 0x76, 0x7b, 0xac, 0x56, 0x8e, 0x7a, 0x7c, 0x95, 0x79, 0xa5, 0x71,
  0x8c, 0x9e, 0x7e, 0x8f, 0xbf, 0xaa, 0x68, 0xa9, 0x66, 0x84, 0xc2, 0xa4,
  0x81, 0xad, 0x76, 0x82, 0xaa, 0x8e, 0xab, 0x93, 0xb4, 0xb0, 0x4e, 0x92,
  0x77, 0x5a, 0x97, 0x87, 0x85, 0x97, 0x3c, 0x7e, 0x87, 0x70, 0x9f, 0xbb,
  0x81, 0x89, 0x52, 0x65, 0x99, 0x87, 0x89, 0x9f, 0x80, 0x91, 0x6f, 0x8c,
  0xa2, 0x99, 0x85, 0x8e, 0x89, 0x9a, 0x92, 0xaf, 0x84, 0x73, 0x79, 0x8a,
  0xa2, 0x6a, 0xac, 0xa0, 0x62, 0x9f, 0x77, 0xc6, 0x7c, 0xa9, 0x6d, 0x9b,
  0x4a, 0x94, 0x5b, 0xab, 0xd4, 0xa1, 0x6b, 0x71, 0x6f, 0xb4, 0x81, 0x9f,
  0xaa, 0xc6, 0x47, 0x7a, 0x77, 0x86, 0x8c, 0x93, 0x88, 0xa8, 0x48, 0x80,
  0x6b, 0x88, 0x87, 0x99, 0x8f, 0x92, 0x51, 0xbf, 0x74, 0x96, 0x71, 0x82,
  0xb9, 0x90, 0x54, 0x78, 0x65, 0xaf, 0x68, 0x98, 0xa8, 0xa5, 0x2c, 0xb5,
  0x67, 0xa5, 0x59, 0x88, 0xbe, 0x9e, 0x01, 0xa0, 0x5e, 0x82, 0x72, 0x95,
  0x9c, 0x83, 0x41, 0x90, 0x89, 0x77, 0x91, 0x8b, 0x7a, 0x83, 0x4c, 0x90,
  0x76, 0x5b, 0x8e, 0xa5, 0xa6, 0x8e, 0x6c, 0x84, 0x86, 0xa1, 0x5d, 0x7c,
  0x91, 0xaa, 0x61, 0x89, 0x7f, 0x9f, 0x78, 0x93, 0x70, 0x98, 0x83, 0x99,
  0x87, 0x68, 0x8c, 0x78, 0x90, 0xa2, 0x5d, 0x7e, 0x79, 0x70, 0xb6, 0x8d,
  0x83, 0xbb, 0x66, 0x73, 0x9b, 0x7a, 0x76, 0x88, 0x84, 0x96, 0x40, 0x7f,
  0x9e, 0x8c, 0x91, 0x9c, 0x9e, 0x93, 0x8c, 0x75, 0x9c, 0x82, 0x9c, 0x81,
  0xb4, 0x93, 0x7c, 0x7c, 0xb3, 0x8d, 0x81, 0x77, 0x9d, 0x9e, 0x9f, 0xa0,
  0x79, 0xac, 0x8d, 0x95, 0x9a, 0x9d, 0xa9, 0x95, 0x71, 0xa7, 0x8f, 0x98,
  0x8b, 0x7c, 0x88, 0x6f, 0x71, 0x98, 0xa2, 0x8c, 0x70, 0x77, 0x85, 0x9d,
  0x8e, 0xa4, 0x6c, 0x72, 0x97, 0x75, 0x86, 0xa2, 0x97, 0xa0, 0x8b, 0x6f,
  0x9a, 0x8a, 0x90, 0x72, 0x9a, 0xa4, 0xa4, 0x73, 0xa1, 0x82, 0x92, 0x9b,
  0x9c, 0x98, 0x70, 0x88, 0x79, 0xa2, 0xaf, 0x7d, 0x8a, 0x86, 0x91, 0x97,
  0x81, 0x72, 0x7f, 0xa3, 0x87, 0x84, 0x8e, 0xa4, 0x85, 0xa3, 0x71, 0xaa,
  0x85, 0xb4, 0xa2, 0x8d, 0x9c, 0x82, 0x5f, 0x7d, 0xa9, 0x8f, 0x75, 0x9c,
  0x7d, 0xaa, 0x7a, 0x97, 0x92, 0xa6, 0x7f, 0x99, 0x7c, 0x8b, 0x61, 0x75,
  0x93, 0x80, 0x73, 0x84, 0xb8, 0x92, 0x65, 0x8c, 0x9b, 0x90, 0x96, 0x66,
  0xb2, 0x8f, 0x7c, 0x76, 0xa2, 0x89, 0x8e, 0x70, 0x9e, 0x84, 0x8d, 0x8e,
  0x81, 0xa1, 0x73, 0x7d, 0x9a, 0x93, 0x7e, 0xb6, 0x88, 0x99, 0x94, 0x6f,
  0x7a, 0xb1, 0x7f, 0x77, 0x8d, 0x88, 0x76, 0x71, 0x62, 0x7d, 0x90, 0x60,
  0x8c, 0x98, 0x92, 0x9e, 0xa7, 0x7f, 0x65, 0x8a, 0x7b, 0x89, 0x92, 0x90,
  0x7f, 0xa9, 0x9c, 0x67, 0x88, 0x8e, 0x8e, 0x7d, 0x6a, 0xa8, 0xbd, 0x8f,
  0x7b, 0x58, 0xa4, 0x85, 0x73, 0x8d, 0x8a, 0x6a, 0x78, 0xab, 0x9e, 0xa5,
  0x67, 0x8f, 0x68, 0x81, 0x79, 0x96, 0xa9, 0x90, 0x92, 0xa5, 0x88, 0x82,
  0x86, 0xaa, 0x96, 0xa4, 0xa9, 0x8e, 0xa6, 0x62, 0x92, 0x92, 0x5a, 0x9b,
  0x9b, 0xa7, 0x9c, 0x8d, 0x6c, 0x80, 0x92, 0x94, 0x80, 0xaa, 0x8a, 0x7b,
  0x81, 0x91, 0x67, 0x89, 0x9a, 0x70, 0x92, 0x7c, 0x72, 0x88, 0x71, 0x93,
  0x74, 0x88, 0x84, 0x6b, 0x7d, 0x82, 0x67, 0xa1, 0xa3, 0x84, 0x73, 0x8b,
  0x81, 0x92, 0x66, 0x8c, 0xa6, 0xa9, 0x78, 0xa3, 0x5e, 0x9a, 0x82, 0x80,
  0x83, 0x70, 0xa1, 0xaf, 0x8b, 0x8d, 0x7b, 0x88, 0x87, 0x9d, 0x97, 0x8f,
  0x6d, 0x7f, 0x7f, 0x7d, 0x98, 0x73, 0x7a, 0x80, 0x66, 0xa5, 0xa1, 0x87,
  0x84, 0x8f, 0x92, 0x7c, 0x70, 0x82, 0x98, 0x92, 0x8d, 0x82, 0x71, 0x8a,
  0x6b, 0xa5, 0x87, 0x75, 0x93, 0x97, 0x85, 0x5d, 0x6a, 0x96, 0xb8, 0x7b,
  0x9a, 0x97, 0x7c, 0x92, 0x7f, 0x8f, 0x8d, 0x9c, 0x86, 0x8b, 0x81, 0x7f,
  0x86, 0xa5, 0x65, 0x89, 0xa1, 0xab, 0xa2, 0x80, 0x71, 0x9b, 0x8c, 0x8e,
  0x89, 0x7b, 0xd9, 0x89, 0x72, 0xb2, 0x84, 0x7f, 0x7c, 0x8c, 0xa2, 0x6a,
  0x85, 0x85, 0x8f, 0x9a, 0x67, 0x8e, 0x9b, 0x8e, 0xa4, 0x99, 0xa0, 0x63,
  0x84, 0x8e, 0x8d, 0xa3, 0x82, 0x7e, 0x81, 0x98, 0x96, 0xa0, 0x8f, 0x76,
  0x96, 0xa7, 0xa1, 0x8b, 0x75, 0x9a, 0xa9, 0x9c, 0x8e, 0xa3, 0x98, 0x8c,
  0x78, 0x9a, 0xaf, 0x6c, 0x92, 0x7d, 0x7b, 0x9e, 0x81, 0x8a, 0x8d, 0x96,
  0x86, 0x9e, 0xae, 0x84, 0x92, 0x90, 0x89, 0x9a, 0x8f, 0xb8, 0xba, 0x83,
  0xb1, 0x91, 0x77, 0xb3, 0x6f, 0xa6, 0x9a, 0x8d, 0xa8, 0x7f, 0x83, 0x79,
  0x7d, 0x67, 0xa0, 0x96, 0x9a, 0x73, 0x85, 0x92, 0x77, 0x7f, 0x5b, 0xa6,
  0x85, 0x64, 0x9a, 0x5c, 0x7d, 0xa4, 0x9e, 0x82, 0x5b, 0x86, 0x9a, 0x7f,
  0x7d, 0x72, 0x97, 0x88, 0x7f, 0x76, 0x98, 0xb1, 0x85, 0x95, 0x79, 0x83,
  0x79, 0xa1, 0x7f, 0xb4, 0x53, 0x6d, 0x98, 0x97, 0x6c, 0xa3, 0x9d, 0x6c,
  0x5b, 0x8b, 0x7f, 0x93, 0x8b, 0x9d, 0x7e, 0x95, 0x8a, 0x63, 0x7a, 0x9d,
  0x83, 0xa2, 0x92, 0x77, 0x97, 0x90, 0x80, 0xa5, 0x61, 0x8b, 0xb1, 0x7c,
  0x90, 0x8f, 0x7f, 0x84, 0x86, 0xae, 0xb2, 0x99, 0x77, 0x9f, 0xa1, 0x8a,
  0x92, 0x8b, 0x7f, 0x7a, 0x9e, 0x7f, 0xae, 0x79, 0x8c, 0xa2, 0x6c, 0x5b,
  0x96, 0x80, 0x94, 0x72, 0x89, 0x8b, 0x9e, 0x73, 0x7b, 0x7e, 0x9e, 0x78,
  0x67, 0x94, 0xa3, 0x68, 0x89, 0x73, 0x74, 0x5e, 0x50, 0xb1, 0x9d, 0x93,
  0x80, 0x9e, 0x91, 0x74, 0x95, 0x88, 0x96, 0x7d, 0x99, 0x90, 0x9e, 0xa2,
  0x7d, 0xa5, 0x90, 0x8d, 0xa4, 0xa0, 0xb9, 0x9b, 0x8c, 0x88, 0x91, 0xb2,
  0x74, 0x96, 0x9a, 0x76, 0x8b, 0x9e, 0x90, 0x83, 0x89, 0x86, 0x9b, 0xac,
  0x95, 0x8a, 0xa4, 0x99, 0x6b, 0x8e, 0xa1, 0x78, 0x82, 0x78, 0x9d, 0x63,
  0x67, 0x8b, 0x8e, 0x7e, 0x89, 0x8b, 0x91, 0x9e, 0x5e, 0x92, 0x73, 0x97,
  0x75, 0x7b, 0x8b, 0x61, 0x5d, 0x83, 0x91, 0x89, 0x77, 0x84, 0xa3, 0x73,
  0x82, 0xa0, 0x8c, 0x7d, 0x7b, 0x81, 0x92, 0x9a, 0x71, 0x7a, 0x7e, 0xa3,
  0x76, 0x97, 0x7d, 0x5e, 0x6f, 0x93, 0x92, 0x7d, 0x94, 0x87, 0x90, 0x84,
  0x8c, 0x93, 0x84, 0x6e, 0x98, 0x81, 0x82, 0x9a, 0x89, 0xaa, 0x8c, 0x8f,
  0x95, 0x76, 0x9f, 0x9b, 0x7b, 0xa1, 0x7f, 0x84, 0x94, 0xa6, 0xd4, 0x88,
  0x8d, 0x8e, 0x98, 0x85, 0xa9, 0x83, 0xa2, 0x74, 0x79, 0x90, 0x9f, 0x8c,
  0x7b, 0x7b, 0x89, 0x6d, 0x8d, 0x88, 0x98, 0x98, 0xa2, 0x9e, 0xb6, 0xa3,
  0x8c, 0x9c, 0xa9, 0x77, 0x77, 0x94, 0xc4, 0x72, 0x8f, 0xa5, 0x97, 0x61,
  0xa1, 0xaa, 0xbc, 0x8a, 0x71, 0x94, 0x6f, 0x70, 0x73, 0x75, 0x9d, 0x8b,
  0x8c, 0x92, 0xba, 0x92, 0x5c, 0x86, 0x94, 0xae, 0x97, 0x6a, 0xdf, 0xab,
  0x70, 0xd5, 0x8a, 0x8c, 0x8c, 0x6c, 0xae, 0x5e, 0x7c, 0x9a, 0x8d, 0x98,
  0x62, 0xab, 0xad, 0x9f, 0xac, 0xa0, 0xb5, 0x91, 0x67, 0x82, 0x9e, 0x83,
  0x7d, 0xa1, 0x98, 0x5a, 0x66, 0x90, 0xa7, 0x91, 0x82, 0xa8, 0x9f, 0x73,
  0x73, 0xa8, 0x6e, 0x83, 0x54, 0xab, 0xa4, 0xa6, 0x72, 0xa5, 0x7f, 0x95,
  0x8f, 0x7a, 0xa2, 0x76, 0x5e, 0x95, 0x78, 0x84, 0x73, 0x79, 0x94, 0xb4,
  0x60, 0x79, 0xa0, 0x60, 0x72, 0x9c, 0xa6, 0x8b, 0x5b, 0x92, 0x63, 0x88,
  0xa7, 0x66, 0x86, 0x75, 0x5b, 0x83, 0x9a, 0x86, 0x7c, 0x94, 0x98, 0x90,
  0x84, 0x94, 0x96, 0x60, 0x76, 0x9e, 0x9f, 0x7a, 0x6e, 0x92, 0x8d, 0x88,
  0x95, 0x7c, 0xce, 0x80, 0x88, 0x72, 0x9a, 0x68, 0x81, 0x88, 0xa6, 0x94,
  0xb1, 0x9b, 0xa8, 0x77, 0x8f, 0x85, 0x98, 0x7b, 0x79, 0x92, 0xbe, 0x84,
  0xa6, 0xaf, 0xba, 0x6f, 0x82, 0x72, 0x97, 0x76, 0x7d, 0x86, 0xdc, 0x83,
  0x6f, 0x7f, 0x74, 0x72, 0x67, 0x9a, 0xda, 0x88, 0x84, 0x8e, 0x99, 0x7e,
  0x89, 0x6e, 0xb8, 0x90, 0x79, 0x80, 0x9c, 0x93, 0x45, 0x93, 0x86, 0xa5,
  0xa1, 0xb5, 0xc0, 0x9f, 0x61, 0xaa, 0x7f, 0xa9, 0x8d, 0xa4, 0xb5, 0x72,
  0x88, 0xbf, 0xa6, 0x8e, 0x80, 0x8b, 0x9d, 0x7f, 0x9c, 0xac, 0xac, 0x96,
  0x7b, 0x70, 0x9d, 0x87, 0x87, 0x74, 0xaf, 0x85, 0x76, 0x9d, 0xac, 0x81,
  0x86, 0x98, 0xa5, 0x99, 0x69, 0x9e, 0x92, 0x73, 0x80, 0x95, 0x90, 0x94,
  0x5b, 0x7e, 0x7a, 0x81, 0x8f, 0x7e, 0xa1, 0x63, 0x85, 0x98, 0x50, 0x63,
  0x93, 0x54, 0xa4, 0xa3, 0x7c, 0x66, 0xaf, 0x86, 0x90, 0x4b, 0xa2, 0x69,
  0x68, 0x81, 0x8f, 0x71, 0x85, 0x59, 0xab, 0x7d, 0x63, 0x93, 0x97, 0x80,
  0x6e, 0x9c, 0x9b, 0x81, 0x74, 0xab, 0x6f, 0x67, 0x66, 0x8e, 0xa2, 0x90,
  0x6e, 0x78, 0x9b, 0x72, 0x74, 0x7c, 0xcf, 0x8a, 0x85, 0x60, 0xa9, 0x8e,
  0x5c, 0x86, 0x85, 0x86, 0x8d, 0x8e, 0x8a, 0x7f, 0x8d, 0x8e, 0x90, 0x5e,
  0x7d, 0xa5, 0xae, 0x69, 0x97, 0xa5, 0xc7, 0x56, 0x84, 0x88, 0xbd, 0x70,
  0x6e, 0x89, 0xd9, 0x52, 0x78, 0x9c, 0x6e, 0x83, 0x47, 0x9f, 0xf2, 0x51,
  0x7f, 0xb0, 0x7b, 0x7b, 0x4f, 0x9d, 0xc4, 0x82, 0x9b, 0x82, 0xad, 0x84,
  0x32, 0xbd, 0x8f, 0x73, 0x8d, 0x77, 0xe2, 0x88, 0x48, 0xbf, 0x80, 0xcb,
  0x90, 0x8e, 0xcc, 0x6b, 0x88, 0xa6, 0x8b, 0x96, 0x80, 0x82, 0xb4, 0x6f,
  0x8f, 0xa1, 0xb9, 0x9f, 0x71, 0x88, 0x95, 0x93, 0x72, 0x78, 0xae, 0x65,
  0x58, 0x72, 0x84, 0xa1, 0x8f, 0x86, 0xbc, 0x84, 0x53, 0x78, 0x74, 0x6d,
  0x6d, 0x94, 0x9d, 0x70, 0x72, 0xb2, 0x71, 0xa8, 0x68, 0x7e, 0xbd, 0xa5,
  0x72, 0x75, 0x7f, 0x81, 0x89, 0x7e, 0xa4, 0x7a, 0x70, 0x98, 0xa9, 0x5c,
  0x7a, 0x80, 0xa1, 0x79, 0x63, 0x86, 0x77, 0x6a, 0x85, 0x6c, 0x9f, 0x73,
  0x69, 0x93, 0x8f, 0x63, 0x8e, 0x79, 0x8c, 0x8f, 0x6c, 0x90, 0x9a, 0x68,
  0x76, 0xa1, 0x9d, 0x77, 0x71, 0x94, 0xa8, 0x6d, 0x9d, 0x9e, 0xaa, 0x88,
  0x83, 0x8d, 0xb1, 0x7c, 0xab, 0x93, 0xa8, 0x66, 0x8f, 0xa3, 0x80, 0x6c,
  0x84, 0xa2, 0xba, 0x6b, 0x88, 0x83, 0xa5, 0x79, 0x9f, 0x95, 0xce, 0x7e,
  0x87, 0x80, 0xa9, 0x8a, 0x8d, 0x82, 0xeb, 0x76, 0x4a, 0x6f, 0x84, 0x7f,
  0x5b, 0xa3, 0xc5, 0x8c, 0x89, 0x7a, 0x87, 0x9f, 0x53, 0x86, 0xc2, 0x6f,
  0x8d, 0x82, 0xcf, 0x7b, 0x22, 0xb1, 0xa3, 0x68, 0x85, 0x8b, 0xe8, 0x92,
  0x30, 0xb3, 0x9b, 0x91, 0x98, 0x80, 0xcd, 0xa3, 0x96, 0xa3, 0xaf, 0x95,
  0x95, 0x62, 0xa9, 0x8f, 0xa6, 0x85, 0xb1, 0x78, 0x72, 0x93, 0x9b, 0x8f,
  0x86, 0x8b, 0xaf, 0x84, 0x76, 0x7a, 0x8f, 0x93, 0x70, 0x86, 0xa5, 0x6d,
  0x5c, 0x78, 0x98, 0xac, 0x9e, 0x6f, 0x9e, 0x6b, 0x6a, 0xa5, 0x84, 0x92,
  0x85, 0x6d, 0x9a, 0x83, 0x74, 0x83, 0x97, 0x98, 0xab, 0x66, 0xb1, 0x9b,
  0x86, 0x97, 0xab, 0x63, 0x64, 0x67, 0xa7, 0x6a, 0x61, 0xa5, 0x92, 0x72,
  0x84, 0x7d, 0x94, 0x87, 0x95, 0x9c, 0x99, 0x83, 0x7b, 0x77, 0xad, 0x87,
  0x61, 0x99, 0xa7, 0x78, 0x7c, 0x98, 0x8b, 0x7e, 0x5f, 0x77, 0x6e, 0x8d,
  0x89, 0x85, 0xcb, 0x9c, 0x8d, 0x5e, 0xbb, 0x7e, 0x6c, 0x9e, 0x84, 0x78,
  0x75, 0x85, 0x7e, 0x7a, 0xaa, 0x76, 0xb9, 0x4f, 0x92, 0x95, 0xad, 0x7c,
  0x92, 0x9d, 0xc2, 0x9d, 0x6b, 0x5e, 0xb4, 0x8c, 0x95, 0x8d, 0xe4, 0x83,
  0x7f, 0x9a, 0x86, 0x86, 0x5f, 0x91, 0xd7, 0x7e, 0x85, 0x68, 0x82, 0xa5,
  0x4e, 0x93, 0xd0, 0x6d, 0x90, 0x63, 0xc9, 0x8a, 0x24, 0xa6, 0xb2, 0xa5,
  0x87, 0x7c, 0xfa, 0x9f, 0x5e, 0xa1, 0xb1, 0xa8, 0x7f, 0x8b, 0xf3, 0x89,
  0x8f, 0x9b, 0xa9, 0x7e, 0x7e, 0x93, 0xc0, 0x7b, 0xa6, 0x89, 0xb2, 0x90,
  0x77, 0xa6, 0x96, 0x70, 0x83, 0x96, 0xa5, 0x93, 0x70, 0x7c, 0x72, 0x96,
  0x60, 0x62, 0xc1, 0x58, 0x5f, 0x8a, 0x77, 0x97, 0xaa, 0x6f, 0xa0, 0x5d,
  0x70, 0x88, 0x8c, 0xcc, 0x74, 0x87, 0x8d, 0x85, 0x67, 0x67, 0xab, 0x8e,
  0x94, 0x88, 0x90, 0x96, 0x6c, 0x9c, 0xa5, 0x7e, 0x78, 0x7a, 0xb7, 0x88,
  0x70, 0x94, 0x90, 0x9c, 0x85, 0x75, 0xa3, 0x77, 0x78, 0x93, 0x8a, 0x6b,
  0x9b, 0x7d, 0x85, 0x69, 0x74, 0xbb, 0xbb, 0x8d, 0x64, 0xbd, 0x91, 0x5f,
  0x87, 0x8e, 0x88, 0x94, 0x81, 0x6c, 0xae, 0x90, 0xa4, 0x7d, 0xa6, 0x8e,
  0xad, 0xa5, 0x84, 0xa3, 0xa7, 0x7f, 0x62, 0x74, 0x8f, 0x76, 0x8e, 0x8f,
  0x8f, 0x9f, 0xc5, 0x8b, 0x9b, 0x9e, 0xc8, 0x8e, 0x77, 0x67, 0xb0, 0x62,
  0xab, 0x8e, 0xce, 0x6f, 0x6e, 0x7b, 0x79, 0x95, 0x42, 0x7b, 0xda, 0x58,
  0x6e, 0x6a, 0x6b, 0x91, 0x3f, 0x8f, 0xcc, 0xa7, 0x7e, 0x59, 0xaf, 0x87,
  0x09, 0xa2, 0x8e, 0xb9, 0x8a, 0x7f, 0xda, 0x97, 0x69, 0xa9, 0xc1, 0xb2,
  0x92, 0x9b, 0xd3, 0x8a, 0x73, 0xa0, 0xa7, 0xb5, 0x79, 0xa4, 0xc3, 0x8c,
  0xa4, 0x9d, 0xa9, 0x9c, 0x7d, 0xa7, 0xb6, 0x87, 0x92, 0x84, 0xb9, 0x8d,
  0x69, 0x98, 0x7e, 0x84, 0x6b, 0x7f, 0xa8, 0x8f, 0x65, 0x8c, 0x95, 0x92,
  0x92, 0x70, 0xa2, 0x71, 0x81, 0xb7, 0x97, 0x9f, 0x7d, 0x7f, 0x8e, 0x69,
  0x76, 0x79, 0xaf, 0x8d, 0x92, 0x77, 0xa7, 0x74, 0x6a, 0x8c, 0xbb, 0x8e,
  0x7e, 0xa2, 0xaa, 0x80, 0x48, 0x8d, 0x98, 0x94, 0x7c, 0x70, 0x94, 0x6a,
  0x75, 0xac, 0x6e, 0x7a, 0x7f, 0x6d, 0xa2, 0x82, 0x99, 0x95, 0xc8, 0x6b,
  0x8d, 0x96, 0xa4, 0x80, 0x83, 0x95, 0x65, 0x91, 0x84, 0x85, 0xbe, 0x8d,
  0x91, 0x80, 0xb3, 0x87, 0x75, 0xa9, 0x92, 0x6c, 0x89, 0x76, 0x7c, 0x8a,
  0xc4, 0x7a, 0xcb, 0x8f, 0x95, 0x9c, 0xcd, 0xa0, 0xa5, 0x96, 0xd6, 0x75,
  0x70, 0x88, 0xc4, 0x68, 0x9a, 0x9c, 0xdf, 0x92, 0x86, 0x8f, 0x70, 0x84,
  0x66, 0x97, 0xdc, 0x72, 0x8d, 0x8f, 0x89, 0x8d, 0x38, 0x86, 0xc3, 0x77,
  0x88, 0x81, 0xd5, 0xa1, 0x13, 0x7f, 0xa6, 0xd1, 0x97, 0x7e, 0xd4, 0x8d,
  0x8d, 0xa0, 0xc3, 0xdb, 0x7c, 0x72, 0xdc, 0x86, 0x87, 0x9b, 0xa2, 0xbd,
  0x99, 0x6d, 0xa5, 0x7f, 0x8f, 0x86, 0xb3, 0x84, 0x67, 0x71, 0x97, 0x8c,
  0xa0, 0x80, 0xce, 0x94, 0x62, 0x9d, 0x9c, 0x82, 0x8a, 0x7d, 0x9f, 0x6d,
  0x63, 0xb4, 0x93, 0x7b, 0x81, 0x66, 0x9c, 0x61, 0x6f, 0x8b, 0x8f, 0xa9,
  0x5c, 0x80, 0x8d, 0x86, 0x8c, 0x8b, 0xc1, 0x86, 0x98, 0x6b, 0x97, 0x95,
  0x66, 0x7c, 0xb0, 0x87, 0x79, 0x80, 0xb2, 0x8e, 0x69, 0x7b, 0x8c, 0x8d,
  0xa0, 0x76, 0x9a, 0x7f, 0x78, 0xa6, 0x93, 0x7c, 0x9a, 0x81, 0xb3, 0x68,
  0x84, 0x83, 0xaf, 0x8e, 0x5c, 0xbe, 0xb0, 0x83, 0x8b, 0x8d, 0x7e, 0x7d,
  0x90, 0x7a, 0xb4, 0x8f, 0x8c, 0x76, 0xa0, 0x78, 0x68, 0x9e, 0x89, 0x90,
  0x8a, 0x98, 0x5a, 0x95, 0x9a, 0x7f, 0xac, 0x84, 0x7d, 0x6f, 0xd5, 0x84,
  0x9c, 0x7f, 0xad, 0x72, 0x95, 0x73, 0xb2, 0x60, 0x7a, 0xa3, 0xd2, 0xa3,
  0x7d, 0x6b, 0x98, 0x7c, 0x3c, 0x7d, 0xe1, 0xa4, 0x91, 0x74, 0x64, 0x8b,
  0x3e, 0x9b, 0xbb, 0x81, 0x96, 0x5b, 0xba, 0xc2, 0x22, 0x85, 0x89, 0xa6,
  0x8a, 0x97, 0xea, 0x86, 0x7b, 0x9e, 0xa6, 0xf3, 0x8a, 0x6c, 0xed, 0x85,
  0x85, 0x9a, 0xa5, 0xbc, 0x87, 0x8d, 0xbf, 0x6b, 0x75, 0x88, 0xa3, 0xa1,
  0x81, 0x92, 0x85, 0x81, 0x7d, 0x7f, 0xaa, 0x78, 0x6c, 0x88, 0x7f, 0x7e,
  0x91, 0x82, 0xb8, 0x68, 0x7b, 0x9f, 0x94, 0x9d, 0x74, 0x66, 0x88, 0x74,
  0x74, 0x94, 0xa5, 0x8a, 0x5a, 0x88, 0x95, 0x78, 0x62, 0x9f, 0xc5, 0x84,
  0x8a, 0x91, 0x9c, 0x9b, 0x67, 0x7e, 0xb6, 0x9d, 0x73, 0x96, 0xa7, 0x81,
  0x7e, 0x98, 0x9c, 0x8c, 0xb4, 0x86, 0xa0, 0x9d, 0x74, 0x84, 0x89, 0x88,
  0xac, 0x7f, 0x98, 0x93, 0x6e, 0x8d, 0xa6, 0x7d, 0x6b, 0xc0, 0xb3, 0x6f,
  0x8b, 0x77, 0x60, 0x7d, 0x96, 0xa6, 0xb9, 0x8c, 0x8a, 0xa2, 0xaf, 0x5d,
  0x7b, 0x88, 0xb2, 0xa0, 0x64, 0x8a, 0x7a, 0x8e, 0xba, 0x75, 0xc1, 0x70,
  0x80, 0x6f, 0xca, 0x91, 0xb4, 0x77, 0xbb, 0xa5, 0x68, 0x93, 0xc3, 0x81,
  0x73, 0xa0, 0xc4, 0x9f, 0x8a, 0x7f, 0x90, 0x68, 0x8b, 0x84, 0xe7, 0x80,
  0x8c, 0x5f, 0x7d, 0x87, 0x7c, 0x77, 0xad, 0x9a, 0x99, 0x97, 0xbd, 0xa8,
  0x20, 0x8f, 0xa0, 0xc6, 0x9f, 0x99, 0xdc, 0xaa, 0x7d, 0xb6, 0x84, 0xca,
  0x90, 0x71, 0xc8, 0x98, 0x8f, 0xa1, 0x9b, 0xd4, 0x96, 0x91, 0xc6, 0x6b,
  0x7d, 0x9d, 0xb6, 0xca, 0x7d, 0x8b, 0xa7, 0x9b, 0xc5, 0x9a, 0xac, 0x79,
  0x5e, 0x96, 0x94, 0x84, 0x9a, 0x72, 0xbc, 0x90, 0x77, 0x99, 0x9a, 0x8e,
  0x9e, 0x83, 0x89, 0x81, 0x74, 0xbd, 0xa7, 0x97, 0x68, 0x84, 0x95, 0x9e,
  0x7c, 0xb3, 0xa0, 0x73, 0xa1, 0x90, 0xa3, 0x91, 0x75, 0x9a, 0xaf, 0x6f,
  0x7a, 0x8a, 0xac, 0x97, 0x7f, 0x7e, 0x8b, 0x7a, 0xa7, 0x90, 0x8e, 0x70,
  0x72, 0xab, 0x93, 0x73, 0x92, 0x8e, 0x8b, 0x8e, 0x79, 0x92, 0xa1, 0x93,
  0x66, 0x8d, 0xbc, 0x6f, 0x79, 0x79, 0x98, 0x87, 0x96, 0x67, 0xbd, 0x9a,
  0x8a, 0xb4, 0xa2, 0x5c, 0xb1, 0x91, 0x79, 0x82, 0x94, 0x86, 0x65, 0x78,
  0xb8, 0x83, 0xd9, 0xac, 0x86, 0x8e, 0xca, 0x82, 0xa9, 0x76, 0xc6, 0x79,
  0x7b, 0x83, 0xd4, 0x77, 0x81, 0x9b, 0xbd, 0x85, 0x8b, 0x7e, 0x7d, 0x74,
  0x84, 0x96, 0xf0, 0x94, 0x72, 0x73, 0x73, 0x6e, 0x77, 0x7e, 0xa9, 0x80,
  0x94, 0x79, 0xad, 0x94, 0x58, 0xb1, 0xac, 0xb9, 0x93, 0x65, 0xf2, 0x9e,
  0x71, 0x9e, 0xa7, 0xf1, 0x95, 0x69, 0xda, 0xa3, 0x7c, 0x97, 0x9e, 0xd1,
  0x84, 0x68, 0xc2, 0x75, 0x9a, 0x79, 0xc5, 0xce, 0x78, 0x62, 0x89, 0x7c,
  0xa0, 0x9e, 0xc0, 0x91, 0x6b, 0x7e, 0x90, 0x88, 0x8c, 0x7c, 0xa4, 0x77,
  0x51, 0x9f, 0x86, 0x74, 0xa9, 0x69, 0x98, 0x9a, 0x66, 0xb9, 0xb3, 0x9b,
  0x6e, 0x65, 0x95, 0x7b, 0x6f, 0xa0, 0x9c, 0x87, 0x9a, 0x92, 0x80, 0x8c,
  0x70, 0x6d, 0xcd, 0x87, 0x74, 0x8e, 0x92, 0x79, 0x7e, 0x8c, 0x9a, 0x90,
  0x99, 0x90, 0xa1, 0x7e, 0x92, 0x7c, 0x8a, 0x74, 0x97, 0x8b, 0xa1, 0x90,
  0x88, 0x89, 0xb2, 0x9a, 0x66, 0xa1, 0xbe, 0x94, 0xa0, 0xa4, 0x87, 0x88,
  0x95, 0x97, 0xb4, 0x80, 0x74, 0x6e, 0xa5, 0x63, 0xa5, 0xa1, 0xbb, 0x97,
  0x92, 0x87, 0x71, 0x73, 0xb3, 0x72, 0xaf, 0x96, 0x74, 0x98, 0xd4, 0x86,
  0xa8, 0x79, 0xb7, 0x7a, 0x7f, 0x8a, 0xc5, 0x70, 0xa6, 0x9e, 0xd1, 0xb5,
  0x7f, 0x8a, 0x87, 0x7a, 0x90, 0x74, 0xc7, 0xb6, 0x91, 0x85, 0x75, 0x82,
  0x59, 0x83, 0xbc, 0x8c, 0x8a, 0x7b, 0x96, 0x91, 0x3b, 0x9b, 0x9a, 0xd0,
  0x83, 0x6d, 0xee, 0xa7, 0x8c, 0xb2, 0xb2, 0xe6, 0x8b, 0x51, 0xd5, 0x90,
  0x85, 0xa6, 0xb7, 0xd1, 0x8d, 0x80, 0xbd, 0x83, 0xac, 0x89, 0x9d, 0x9f,
  0x65, 0x90, 0x88, 0x79, 0xb8, 0xa2, 0xce, 0x8b, 0x6f, 0x7c, 0xbd, 0x6d,
  0x70, 0x8a, 0x8f, 0x8b, 0x5d, 0x9d, 0x9d, 0x91, 0x6b, 0x6f, 0x98, 0x84,
  0x8b, 0xb0, 0xa5, 0x79, 0x69, 0x87, 0x74, 0x88, 0x7a, 0x72, 0xae, 0x72,
  0x82, 0xb5, 0x95, 0xac, 0x80, 0x9b, 0xd2, 0x8e, 0x75, 0x94, 0x82, 0x8f,
  0x73, 0x84, 0xa8, 0x85, 0xa6, 0x9c, 0x9d, 0xae, 0x7f, 0x83, 0xa7, 0x82,
  0x8a, 0x79, 0xa2, 0x91, 0x74, 0x89, 0xb1, 0x97, 0x52, 0xa0, 0xa7, 0x9a,
  0x93, 0xa3, 0x6f, 0x99, 0x88, 0xa0, 0xb9, 0x96, 0x80, 0x74, 0xb4, 0x5f,
  0x9f, 0x93, 0x81, 0x87, 0x6b, 0x9c, 0x6f, 0x88, 0xd2, 0x8c, 0xb1, 0x86,
  0x84, 0x79, 0xc8, 0x5b, 0xbf, 0x92, 0xbe, 0x7b, 0x71, 0x88, 0xb3, 0x88,
  0xbf, 0xb5, 0xd3, 0x90, 0x7f, 0x8c, 0xa0, 0x68, 0xa0, 0x91, 0xdd, 0x8c,
  0x8a, 0x80, 0x81, 0x78, 0x55, 0x65, 0xa5, 0x70, 0x91, 0x64, 0xad, 0xa2,
  0x3d, 0xa0, 0x90, 0xd2, 0x99, 0x4d, 0xd5, 0xaf, 0x97, 0xa4, 0xb1, 0xf2,
  0xa0, 0x90, 0xcb, 0x9e, 0x67, 0x8e, 0xb6, 0xbb, 0x73, 0x56, 0xba, 0x68,
  0x96, 0x83, 0xcc, 0xa2, 0x7a, 0x61, 0x85, 0x7d, 0x89, 0x92, 0xb2, 0x98,
  0x7f, 0x50, 0x7e, 0x8e, 0x6b, 0x85, 0xa1, 0x6b, 0x81, 0x99, 0x95, 0x7d,
  0x8e, 0x76, 0xab, 0x86, 0x6e, 0x93, 0xa3, 0x84, 0x86, 0x9a, 0x80, 0x90,
  0x74, 0x84, 0xb6, 0x8b, 0x7f, 0x87, 0xa7, 0x7f, 0x83, 0x7b, 0xbe, 0x84,
  0x99, 0xa1, 0x9e, 0x8a, 0x84, 0x6a, 0xb2, 0x85, 0x8b, 0xa1, 0x8e, 0x90,
  0x86, 0x9b, 0x9f, 0x8e, 0x88, 0x7f, 0x8a, 0x69, 0x9b, 0x9c, 0x7f, 0x9c,
  0x6a, 0xa1, 0xa6, 0x69, 0xa0, 0x79, 0x93, 0xab, 0x82, 0xa8, 0xb0, 0x97,
  0x7e, 0x77, 0xa9, 0x86, 0x5e, 0x8a, 0x69, 0x85, 0x73, 0x79, 0x6e, 0x81,
  0xa8, 0x84, 0xcc, 0x9d, 0x7d, 0xa3, 0xdd, 0x6a, 0x97, 0x8f, 0xa4, 0x8d,
  0x74, 0x7e, 0xab, 0x73, 0xae, 0xa9, 0xd7, 0xb1, 0x7c, 0x85, 0x9d, 0x57,
  0xc8, 0xa2, 0xdc, 0xa6, 0x84, 0x69, 0x76, 0x98, 0x57, 0x78, 0xb9, 0x9b,
  0x9b, 0x7d, 0x9a, 0xa0, 0x3e, 0xac, 0xa6, 0x9f, 0x9a, 0x5f, 0xd6, 0xa8,
  0x96, 0x9d, 0xa7, 0xf0, 0x88, 0x74, 0xda, 0x75, 0x83, 0x98, 0xaf, 0xca,
  0x87, 0x6e, 0xb6, 0x7b, 0x7e, 0x91, 0xb9, 0xb2, 0x6f, 0x69, 0x95, 0x69,
  0x89, 0x9b, 0xb2, 0x7d, 0x7a, 0x8a, 0x98, 0x7d, 0x76, 0x73, 0x9f, 0x71,
  0x71, 0x99, 0x9b, 0x84, 0x76, 0x6e, 0x89, 0xaf, 0x7b, 0xaf, 0xb1, 0x7a,
  0x8e, 0x9a, 0x90, 0x71, 0x89, 0x70, 0xc5, 0x91, 0x9e, 0x78, 0xa7, 0x70,
  0x8a, 0x91, 0xd5, 0x73, 0x93, 0xa5, 0xa6, 0x9d, 0x87, 0x87, 0xa4, 0x91,
  0x93, 0x91, 0x9e, 0x8f, 0x6e, 0x86, 0xa4, 0x9e, 0xa8, 0x8e, 0x95, 0x68,
  0x6e, 0x97, 0x7a, 0x97, 0x5e, 0xb1, 0x93, 0x6d, 0xa2, 0x78, 0x88, 0x95,
  0x84, 0x7e, 0xba, 0x99, 0x5e, 0x4d, 0x93, 0x68, 0x90, 0xae, 0x84, 0xb7,
  0x7c, 0x96, 0x78, 0x6b, 0xd4, 0x86, 0xbd, 0x82, 0x7b, 0x76, 0xe7, 0x5e,
  0x9a, 0x88, 0xc5, 0x77, 0x89, 0x6e, 0xa4, 0x79, 0xb9, 0x9f, 0xc8, 0x98,
  0x9e, 0x5b, 0x9a, 0x68, 0xbe, 0x91, 0xcd, 0xac, 0x97, 0x62, 0x7e, 0x8a,
  0x64, 0x9c, 0xa3, 0xb7, 0x8a, 0x92, 0x98, 0xab, 0x54, 0x85, 0xa2, 0xa5,
  0x99, 0x89, 0xc4, 0xab, 0x86, 0xa6, 0xa2, 0xdb, 0x85, 0x69, 0xdf, 0x79,
  0x92, 0xac, 0x9b, 0xce, 0x81, 0x6c, 0xcf, 0x6c, 0x80, 0xa2, 0x86, 0xcd,
  0x6b, 0x6a, 0x87, 0x76, 0x99, 0x9e, 0xbb, 0xbc, 0x7e, 0x75, 0x97, 0x7f,
  0x7e, 0x89, 0x92, 0x8f, 0x7f, 0x86, 0x7e, 0x86, 0x92, 0x83, 0x7f, 0xad,
  0x8a, 0x7c, 0xa9, 0x7d, 0x90, 0xa7, 0x8a, 0x5c, 0x98, 0x7c, 0xb3, 0x8c,
  0x91, 0x9b, 0xab, 0x94, 0x8f, 0x87, 0xc8, 0x74, 0x91, 0xa7, 0xa9, 0xa1,
  0x8d, 0x8e, 0x97, 0x85, 0x93, 0x95, 0x8b, 0x9f, 0x67, 0x7e, 0x82, 0x81,
  0x91, 0x97, 0xa5, 0x82, 0x8d, 0xae, 0xa2, 0x8a, 0x7d, 0x9f, 0x9d, 0x9f,
  0x8d, 0x90, 0x5f, 0x97, 0x87, 0xa9, 0xa9, 0x93, 0x79, 0x9d, 0x89, 0x87,
  0x5f, 0x8c, 0x93, 0x91, 0x57, 0x55, 0x88, 0x81, 0x8e, 0x76, 0xa8, 0x7c,
  0x94, 0x5f, 0xcd, 0x6d, 0xb6, 0x95, 0x9e, 0x89, 0x8c, 0x7b, 0x96, 0x83,
  0xbf, 0xa9, 0xe2, 0x8d, 0x8a, 0x89, 0x8c, 0x7e, 0x94, 0xa0, 0xcc, 0xc5,
  0x9b, 0x89, 0x7e, 0x73, 0x88, 0x91, 0xaf, 0x92, 0x96, 0x72, 0x7c, 0xa0,
  0x74, 0x8d, 0x8d, 0x90, 0x99, 0x8e, 0xcb, 0xb8, 0x83, 0xa7, 0xb3, 0xda,
  0x74, 0x75, 0xcd, 0x7d, 0x88, 0xa3, 0x90, 0xe7, 0x88, 0x51, 0xad, 0x78,
  0x83, 0x7e, 0x8e, 0xb3, 0x78, 0x6d, 0x81, 0x6c, 0x70, 0x90, 0xb1, 0xa0,
  0x7d, 0x59, 0x8f, 0x81, 0x7b, 0x69, 0x92, 0x67, 0x63, 0x5e, 0xac, 0x90,
  0x9e, 0x8c, 0x88, 0xad, 0x80, 0xa8, 0xa3, 0x96, 0x72, 0x89, 0x7b, 0x9c,
  0x7f, 0x96, 0xa1, 0x6f, 0x9c, 0x92, 0xa0, 0x84, 0xa4, 0x78, 0xdc, 0x8f,
  0x79, 0x91, 0xb7, 0x85, 0x96, 0x88, 0x93, 0x87, 0x9c, 0x8c, 0x96, 0xa5,
  0x76, 0x96, 0x8b, 0x95, 0x7e, 0x98, 0xad, 0x73, 0x9c, 0x77, 0x87, 0x95,
  0x75, 0xa7, 0x9d, 0x7d, 0x74, 0xb5, 0xa6, 0xab, 0x88, 0x8c, 0xa0, 0xb0,
  0x62, 0x99, 0x8e, 0x76, 0x8a, 0x94, 0x8c, 0x5e, 0x49, 0x67, 0x70, 0x82,
  0xcb, 0x90, 0x88, 0x9e, 0x84, 0xb9, 0xc4, 0x5d, 0xaf, 0xac, 0xb7, 0x89,
  0x84, 0x9b, 0x96, 0x85, 0xc0, 0xa7, 0xcf, 0x96, 0x8a, 0x9c, 0x92, 0x73,
  0x9f, 0xa2, 0xe3, 0xa4, 0x74, 0x7c, 0x9f, 0x7e, 0x78, 0x91, 0xc1, 0xab,
  0x84, 0x66, 0x8e, 0xad, 0x6e, 0x83, 0xa4, 0x9e, 0xa7, 0xa5, 0x9b, 0xb4,
  0x8b, 0xa9, 0x9e, 0xc4, 0xad, 0x69, 0xca, 0x84, 0x76, 0x9f, 0xa8, 0xc6,
  0x7b, 0x80, 0xd1, 0x8d, 0x83, 0xa0, 0xa7, 0xbd, 0x79, 0x69, 0x96, 0x6f,
  0x84, 0x87, 0xb0, 0xa0, 0x78, 0x70, 0x96, 0x84, 0x8d, 0x6d, 0x9d, 0xac,
  0x71, 0x78, 0x95, 0x9f, 0x93, 0x72, 0x82, 0x80, 0x6f, 0x6f, 0x96, 0x84,
  0xa2, 0xa8, 0x90, 0x8b, 0x7d, 0xa3, 0xa7, 0x82, 0x6f, 0x8c, 0xb6, 0x92,
  0x78, 0x6b, 0xd4, 0x72, 0xa1, 0xa9, 0x97, 0x82, 0x75, 0x88, 0xb4, 0x82,
  0x90, 0x95, 0x7f, 0xa4, 0x80, 0x80, 0xa9, 0xa2, 0x80, 0x8a, 0x75, 0x7f,
  0xa2, 0x76, 0x97, 0x97, 0x5d, 0x85, 0x95, 0x94, 0x89, 0x79, 0x77, 0x8d,
  0x7f, 0xa0, 0xa7, 0x8f, 0x7a, 0x98, 0x97, 0x6c, 0x7e, 0x84, 0xb2, 0x88,
  0x96, 0x99, 0x9d, 0x93, 0xad, 0x97, 0x97, 0x71, 0x73, 0x7c, 0xc1, 0x60,
  0x86, 0x87, 0xb0, 0x82, 0x7b, 0x99, 0xa2, 0x65, 0xae, 0x9d, 0xd4, 0xbd,
  0x93, 0x8c, 0x95, 0x6f, 0x99, 0xb7, 0xd7, 0x9f, 0x84, 0x8e, 0x8c, 0x89,
  0x93, 0x88, 0xa0, 0xb7, 0x83, 0x88, 0x83, 0xb3, 0x82, 0xa6, 0x83, 0xc8,
  0xa5, 0x7f, 0xc0, 0xa9, 0x86, 0xa5, 0x97, 0xeb, 0x90, 0x58, 0xc4, 0x99,
  0x71, 0xc0, 0x94, 0xe1, 0x9c, 0x65, 0xa9, 0x82, 0x96, 0xb0, 0xaf, 0xab,
  0x7b, 0x57, 0x9f, 0x87, 0x80, 0x7a, 0xbf, 0xb7, 0x4e, 0x75, 0x7a, 0x8c,
  0x8d, 0x84, 0x9a, 0x83, 0x76, 0x7e, 0x8e, 0x7b, 0x98, 0x74, 0x68, 0x7b,
  0x75, 0xa6, 0xb3, 0x89, 0xa0, 0x8d, 0x7f, 0x67, 0x66, 0x6a, 0xae, 0x89,
  0x66, 0x97, 0x99, 0x76, 0x74, 0x7f, 0x9c, 0x7b, 0x83, 0xa0, 0xc4, 0x75,
  0x85, 0x83, 0x9f, 0x83, 0x8b, 0x99, 0x8c, 0x9d, 0x85, 0x95, 0xae, 0x8f,
  0x8d, 0xa4, 0x7f, 0x77, 0x8c, 0x7c, 0x92, 0x9b, 0x83, 0x8a, 0x9d, 0x94,
  0xa7, 0x91, 0x9a, 0xa3, 0x8a, 0x8a, 0xa6, 0x98, 0x83, 0x64, 0x88, 0x57,
  0xa0, 0xa6, 0x9c, 0x86, 0x67, 0x7e, 0x7c, 0x7b, 0xc4, 0x74, 0x91, 0x7c,
  0x68, 0x81, 0xd2, 0x89, 0x94, 0xa2, 0xc0, 0x7b, 0x63, 0xa7, 0xb8, 0x72,
  0xbd, 0xae, 0xcb, 0xc5, 0x84, 0x5d, 0x8a, 0x87, 0x96, 0xa7, 0xe2, 0xc3,
  0x6d, 0x5f, 0x96, 0x5d, 0xa7, 0x92, 0xa7, 0x8d, 0x7c, 0x6a, 0xa2, 0xb7,
  0x4f, 0xab, 0x9d, 0xca, 0x8c, 0x82, 0xbd, 0xa8, 0x7e, 0xd3, 0xa5, 0xe2,
  0x70, 0x7d, 0xb8, 0x82, 0x8e, 0xbb, 0x92, 0xc4, 0x87, 0x76, 0xa4, 0x8a,
  0x9a, 0xa2, 0x92, 0xc1, 0x66, 0x8e, 0xbb, 0x75, 0x8a, 0x93, 0xbb, 0x89,
  0x71, 0x75, 0x89, 0x94, 0x59, 0x77, 0xaa, 0x84, 0x62, 0x93, 0x85, 0x7f,
  0x8c, 0x7d, 0x79, 0x8e, 0x74, 0x8d, 0xb2, 0x77, 0x93, 0x79, 0x75, 0x5b,
  0x95, 0x87, 0xc1, 0x6c, 0x78, 0x80, 0xc2, 0x80, 0x71, 0x7b, 0xab, 0x9b,
  0x6d, 0x9d, 0xb7, 0x73, 0x65, 0xa3, 0xbc, 0xa6, 0x93, 0xa9, 0x99, 0x7d,
  0x79, 0x87, 0x86, 0x92, 0x90, 0xaa, 0x7f, 0x8b, 0xa3, 0x7e, 0x99, 0x85,
  0x8c, 0x8c, 0x9c, 0x83, 0x9b, 0x7e, 0x81, 0x76, 0x96, 0x90, 0xaf, 0x9d,
  0x6a, 0x81, 0x9e, 0x2d, 0x92, 0x93, 0x7e, 0xa0, 0x72, 0x81, 0x87, 0x6b,
  0xa8, 0x76, 0x88, 0x6b, 0x82, 0x82, 0xba, 0x61, 0x88, 0xa1, 0xc1, 0x9e,
  0x6d, 0x7a, 0x9b, 0x4b, 0x7e, 0xc2, 0xbb, 0x8e, 0x6f, 0xa8, 0xaf, 0x6a,
  0xb6, 0xaf, 0xe4, 0xc6, 0x98, 0x93, 0xb0, 0x53, 0x7e, 0xa3, 0x88, 0x82,
  0x9b, 0x7d, 0xa1, 0x99, 0x4e, 0xbc, 0x93, 0xbf, 0x82, 0x97, 0xac, 0xba,
  0x8e, 0xa8, 0x8f, 0xa4, 0xa6, 0x92, 0xc0, 0x91, 0x85, 0xb7, 0x75, 0xca,
  0x6b, 0x6d, 0xc3, 0x5c, 0xa6, 0xaf, 0xa8, 0xa1, 0x72, 0x73, 0xac, 0x66,
  0xa1, 0x99, 0xb4, 0x9a, 0x60, 0x9d, 0x97, 0x88, 0x92, 0x92, 0x93, 0x8a,
  0x67, 0x7b, 0x82, 0x78, 0x9d, 0x76, 0x81, 0xae, 0x75, 0x89, 0xac, 0x6e,
  0x9c, 0x93, 0x77, 0x59, 0x6f, 0x82, 0xab, 0x93, 0x7a, 0xb3, 0x92, 0x96,
  0x8e, 0x81, 0xae, 0x9f, 0x90, 0xaa, 0xc3, 0x8b, 0x89, 0x83, 0xaf, 0x98,
  0xb8, 0x8a, 0x9e, 0xb4, 0x97, 0x58, 0xb7, 0x97, 0xa2, 0xb8, 0x8a, 0x64,
  0x87, 0x90, 0x84, 0x8a, 0x6c, 0xa1, 0xb3, 0x7c, 0x86, 0x83, 0x61, 0x86,
  0x95, 0x93, 0x8e, 0x9c, 0x67, 0x9a, 0x8d, 0x42, 0x7e, 0x70, 0x76, 0x8d,
  0xa8, 0x85, 0x82, 0x55, 0x94, 0x5f, 0x77, 0x82, 0x6a, 0x8d, 0xae, 0x48,
  0x76, 0x91, 0x9d, 0x78, 0x86, 0x82, 0xd1, 0x5e, 0xbb, 0xb1, 0xc0, 0xa8,
  0x91, 0x89, 0xb7, 0x55, 0x9c, 0x9d, 0xc3, 0xa6, 0xa2, 0x75, 0xae, 0x71,
  0x7e, 0x7d, 0x97, 0x7f, 0xae, 0x79, 0x96, 0x9b, 0x80, 0xad, 0x8a, 0x88,
  0x83, 0x61, 0x98, 0xbc, 0x83, 0x94, 0x90, 0xbd, 0x7c, 0x67, 0xa0, 0x93,
  0x91, 0x9a, 0x99, 0xca, 0x75, 0x95, 0xae, 0x93, 0x97, 0x97, 0x90, 0x9f,
  0x82, 0x91, 0x9a, 0x5b, 0x6a, 0x7a, 0x94, 0x97, 0x8f, 0x75, 0x8b, 0x7a,
  0x89, 0x8c, 0x98, 0x8f, 0x89, 0x9e, 0x69, 0x61, 0xb1, 0x95, 0x7d, 0x7d,
  0x83, 0x92, 0xae, 0x69, 0x63, 0x93, 0x8b, 0x73, 0x8e, 0xaa, 0xa6, 0x67,
  0x82, 0xa9, 0x9c, 0x83, 0x89, 0x9c, 0xa7, 0x8d, 0xa8, 0x90, 0xc4, 0x70,
  0x6f, 0x77, 0x99, 0xac, 0xb5, 0x9b, 0xb5, 0xb6, 0x67, 0x70, 0xa6, 0x7a,
  0xa7, 0xa6, 0x6c, 0x86, 0xa3, 0x72, 0xae, 0x92, 0x9b, 0xa6, 0x9f, 0xa3,
  0xae, 0xa0, 0x7f, 0x97, 0x97, 0x93, 0xa1, 0x99, 0x81, 0xaa, 0x7d, 0x8f,
  0x8b, 0x7f, 0x8e, 0x7d, 0xa1, 0x5e, 0x74, 0x63, 0x84, 0x61, 0x70, 0x87,
  0x96, 0x7e, 0xa1, 0x52, 0x5c, 0x6f, 0x82, 0xa0, 0xa5, 0xa5, 0x9f, 0x93,
  0x6d, 0x94, 0xa0, 0x8d, 0x98, 0x92, 0x9a, 0x5e, 0x83, 0x8e, 0xa1, 0x8c,
  0x93, 0x94, 0xab, 0x8e, 0x8a, 0x86, 0x8b, 0x80, 0x8e, 0x8a, 0x8e, 0xaf,
  0x68, 0x9c, 0x87, 0x6e, 0x83, 0xb5, 0x99, 0xb5, 0x72, 0xa1, 0x79, 0x86,
  0x74, 0xbb, 0x8d, 0xb6, 0xa2, 0x87, 0xaf, 0xc8, 0x8c, 0xa6, 0xa6, 0xa5,
  0x96, 0x81, 0xa8, 0x99, 0x97, 0x86, 0x91, 0x80, 0x92, 0x83, 0xb2, 0x7b,
  0x91, 0x6e, 0x89, 0x6d, 0x78, 0x85, 0x91, 0xb9, 0x80, 0x84, 0x91, 0x79,
  0xa5, 0x83, 0x86, 0x89, 0x9b, 0x71, 0xa5, 0x8f, 0x90, 0x94, 0x8c, 0x7c,
  0x9a, 0x87, 0x96, 0x66, 0x76, 0xb9, 0x8d, 0x91, 0x8c, 0x90, 0x9d, 0x92,
  0x8d, 0xa2, 0xc9, 0x79, 0xa5, 0xa2, 0x92, 0xa3, 0xa4, 0xa5, 0x86, 0x8e,
  0x9b, 0x73, 0xc5, 0x7d, 0x97, 0xa4, 0x99, 0x8a, 0x86, 0xab, 0xbd, 0x7c,
  0x90, 0xc5, 0x86, 0x90, 0xba, 0x83, 0xa5, 0x9d, 0x90, 0x87, 0x99, 0x85,
  0x8a, 0xa0, 0x67, 0x86, 0x7f, 0x97, 0x7f, 0x93, 0x7d, 0x81, 0x93, 0x89,
  0x8f, 0xaa, 0x6d, 0x89, 0xa1, 0x94, 0x87, 0x5d, 0x57, 0x86, 0x38, 0x97,
  0x96, 0x96, 0xa7, 0x9c, 0x9b, 0x91, 0x6e, 0x6e, 0xa1, 0x99, 0x9f, 0xa6,
  0x5e, 0x76, 0x69, 0x61, 0xaa, 0x8e, 0x98, 0x99, 0x71, 0xa2, 0x7f, 0x9b,
  0x8b, 0x89, 0x6f, 0x98, 0x8f, 0x9a, 0x7f, 0x7f, 0x98, 0x8c, 0x97, 0x84,
  0x82, 0x82, 0x83, 0x90, 0x9c, 0xa6, 0x8f, 0x73, 0x7f, 0x75, 0x68, 0x57,
  0xb1, 0x89, 0x99, 0x89, 0x78, 0x9c, 0x6c, 0xba, 0xab, 0x9a, 0xb6, 0x81,
  0x85, 0x9d, 0x65, 0x8a, 0xad, 0x82, 0xae, 0x8a, 0x6d, 0x80, 0x50, 0x56,
  0x9c, 0x8b, 0x72, 0xaa, 0x88, 0xbb, 0x63, 0x8c, 0xa4, 0x7f, 0x8d, 0x7c,
  0x7b, 0x6e, 0x62, 0x80, 0x8f, 0x9c, 0x71, 0xa8, 0x7e, 0xb0, 0x8d, 0x82,
  0x8d, 0x96, 0xa4, 0xa1, 0x8a, 0x79, 0x79, 0x6a, 0xa0, 0x91, 0x9f, 0x6c,
  0xa7, 0x90, 0x6c, 0x69, 0x9d, 0xab, 0xac, 0xa3, 0x84, 0x8b, 0x7a, 0x58,
  0x7c, 0xa7, 0x8e, 0xad, 0x75, 0x96, 0xa3, 0x7f, 0xa5, 0x98, 0x98, 0x8d,
  0x56, 0x8d, 0xbb, 0x91, 0x86, 0x89, 0x7d, 0x87, 0x70, 0x74, 0x9d, 0x81,
  0x82, 0x8f, 0x96, 0xa9, 0x70, 0x98, 0x7d, 0x88, 0x49, 0x78, 0x9b, 0x94,
  0xa2, 0x62, 0x83, 0x7a, 0x70, 0x83, 0x91, 0x9d, 0x93, 0xa9, 0xa5, 0x87,
  0x94, 0xa7, 0x99, 0xa5, 0xb6, 0x6e, 0x96, 0x7f, 0x75, 0x7e, 0xa5, 0x9e,
  0x95, 0x8e, 0x86, 0x6e, 0x79, 0x73, 0xa5, 0x96, 0x96, 0x9c, 0x9b, 0xa2,
  0x94, 0x8b, 0x8e, 0x9b, 0x6c, 0x77, 0x9b, 0x6d, 0x87, 0x82, 0x6e, 0xad,
  0xa2, 0x74, 0x78, 0xae, 0x87, 0x86, 0x81, 0x94, 0x72, 0x69, 0x83, 0x7e,
  0x72, 0x6e, 0x82, 0x84, 0x91, 0x83, 0x9c, 0x70, 0x91, 0x95, 0xab, 0x98,
  0x75, 0x92, 0x96, 0xab, 0x89, 0x7e, 0x70, 0x8d, 0xb4, 0x90, 0x8a, 0x62,
  0x9d, 0x9a, 0xab, 0xa1, 0x81, 0x6d, 0x8f, 0x76, 0x9f, 0x74, 0x5a, 0x94,
  0x86, 0x5b, 0x89, 0x8c, 0x98, 0xa7, 0x92, 0x8b, 0x6a, 0x84, 0x9b, 0xa2,
  0x93, 0xaf, 0x73, 0x7b, 0x87, 0x85, 0x84, 0x80, 0x9f, 0x96, 0xa2, 0xa6,
  0x87, 0x95, 0x92, 0x5f, 0x88, 0xa1, 0x88, 0x91, 0xa5, 0xbc, 0xa0, 0x73,
  0x6f, 0x9a, 0x7f, 0x9d, 0x9a, 0x8a, 0xda, 0x87, 0x70, 0x62, 0x98, 0x86,
  0x8a, 0x9d, 0x86, 0x5e, 0x79, 0x96, 0x83, 0x86, 0x9d, 0x8b, 0x61, 0x93,
  0x68, 0x73, 0x8f, 0x94, 0x75, 0x67, 0x7e, 0x77, 0x93, 0x77, 0x8e, 0xbb,
  0x8d, 0x93, 0x8e, 0x65, 0xa1, 0x83, 0x93, 0x9b, 0xab, 0x67, 0x9e, 0xac,
  0x8b, 0x72, 0xbc, 0x86, 0xb2, 0xa0, 0x9c, 0x9c, 0x87, 0x62, 0xa5, 0xa4,
  0x8e, 0xbf, 0xa5, 0x8a, 0x83, 0x7a, 0x86, 0x7a, 0x96, 0x94, 0x96, 0x74,
  0xb1, 0x83, 0x72, 0x8a, 0x75, 0x97, 0x90, 0xa8, 0x8f, 0x71, 0x6b, 0x7f,
  0x7f, 0x8e, 0x9a, 0x89, 0xa1, 0x98, 0x9d, 0xb3, 0x9a, 0x9c, 0x90, 0x92,
  0xa0, 0x83, 0x85, 0xa1, 0xab, 0x7a, 0xad, 0x76, 0x9d, 0x91, 0x9c, 0x69,
  0x77, 0x7b, 0xa3, 0x90, 0xbe, 0x7f, 0x8a, 0x8d, 0x8c, 0x7a, 0xa3, 0x84,
  0xb6, 0x8e, 0x8a, 0x9e, 0x9a, 0x76, 0xa3, 0x8c, 0x86, 0x82, 0x78, 0x7f,
  0x87, 0x81, 0xaa, 0x80, 0x97, 0xa9, 0x82, 0x88, 0x6a, 0x7b, 0x82, 0x5c,
  0x9c, 0x92, 0xa5, 0x9b, 0x76, 0xa2, 0xa2, 0x8c, 0x9a, 0x61, 0x8b, 0x95,
  0x82, 0x93, 0xb4, 0x6a, 0x7e, 0x80, 0x8b, 0x6e, 0x9f, 0x84, 0xb4, 0x94,
  0x45, 0x82, 0x93, 0x82, 0xa1, 0x89, 0xa5, 0x9b, 0x84, 0x73, 0x9c, 0x66,
  0x74, 0x72, 0x7f, 0x75, 0x86, 0x91, 0x9e, 0x8c, 0x84, 0x68, 0x72, 0x90,
  0x71, 0x82, 0x99, 0x9b, 0x6c, 0x97, 0x8a, 0x82, 0xa0, 0x64, 0x8e, 0x76,
  0x9d, 0x83, 0x7a, 0x87, 0x94, 0x84, 0xb0, 0x82, 0xb2, 0xab, 0x7d, 0x89,
  0x9a, 0x7d, 0xae, 0x97, 0x6d, 0xb0, 0x95, 0x68, 0xa3, 0x73, 0x77, 0x59,
  0x78, 0xce, 0xa9, 0x5e, 0x88, 0x63, 0x7e, 0x9e, 0x80, 0x8e, 0xa4, 0x5f,
  0xa7, 0x7b, 0x89, 0x83, 0x6e, 0x75, 0x9b, 0x72, 0x8d, 0x6a, 0xa4, 0xa6,
  0x79, 0x71, 0x93, 0x7d, 0xa7, 0x6f, 0x88, 0x89, 0x87, 0x72, 0xa0, 0x78,
  0xa4, 0x89, 0x55, 0xa9, 0x81, 0x64, 0x9e, 0x8b, 0x99, 0x50, 0x74, 0x80,
  0x94, 0x79, 0xad, 0x9b, 0xb9, 0x8e, 0x6d, 0x88, 0x94, 0x81, 0x97, 0x83,
  0xab, 0x8b, 0x76, 0x92, 0x73, 0x60, 0x93, 0xa1, 0xa3, 0x7c, 0x9b, 0x99,
  0x98, 0x8b, 0x9e, 0xb5, 0x9e, 0x77, 0xa5, 0x7f, 0x97, 0x8d, 0xac, 0x86,
  0x90, 0x93, 0x8b, 0x86, 0x7a, 0x7f, 0x9d, 0x73, 0x7f, 0x88, 0x77, 0x6d,
  0x94, 0x79, 0xd5, 0x85, 0x55, 0x68, 0x94, 0x67, 0x74, 0x7d, 0x81, 0x79,
  0x6a, 0x7e, 0x9e, 0x6e, 0x6a, 0x64, 0x5c, 0x73, 0x6f, 0x99, 0x58, 0x7f,
  0x84, 0x79, 0x6a, 0x84, 0x92, 0x94, 0x9a, 0x5e, 0x95, 0x93, 0x83, 0x80,
  0xac, 0x61, 0x9c, 0x81, 0xab, 0xa7, 0x78, 0x9d, 0x81, 0x6c, 0xb2, 0x80,
  0x98, 0x80, 0x64, 0xa9, 0x97, 0x79, 0xb0, 0x82, 0x95, 0x9d, 0x8e, 0x99,
  0x9a, 0x7d, 0x8e, 0x82, 0x81, 0xb1, 0x9b, 0xae, 0xa2, 0x89, 0x6d, 0x5c,
  0x48, 0x97, 0xa5, 0x82, 0x93, 0x9e, 0x8c, 0x7b, 0x75, 0x9d, 0x8f, 0x8e,
  0x9e, 0x72, 0x7a, 0x8b, 0x79, 0xb2, 0x7f, 0x77, 0x9b, 0x7d, 0x77, 0xa4,
  0x8e, 0x7b, 0x88, 0x83, 0xa6, 0x73, 0x5e, 0x7a, 0x68, 0x91, 0xa5, 0x6b,
  0xc2, 0x4e, 0x7f, 0x98, 0x7d, 0x7d, 0xa2, 0x91, 0xa9, 0x81, 0x54, 0xa1,
  0xb1, 0x67, 0x9e, 0x9b, 0x97, 0x7c, 0x7f, 0xa2, 0xa0, 0x71, 0xab, 0x81,
  0x97, 0x98, 0x7e, 0xab, 0xa0, 0x95, 0x87, 0x93, 0x8a, 0xb4, 0xa6, 0xb5,
  0x92, 0x69, 0xab, 0x91, 0xa3, 0x89, 0x6e, 0x86, 0x62, 0x8b, 0x9d, 0x72,
  0x7d, 0x76, 0x69, 0x88, 0x99, 0x6a, 0xce, 0x80, 0x68, 0x75, 0x89, 0x4a,
  0x73, 0x80, 0x8f, 0x92, 0xb7, 0x68, 0xb6, 0x72, 0x9b, 0x7a, 0x7c, 0x8d,
  0x7a, 0x5b, 0xaa, 0x7b, 0x75, 0x8a, 0x71, 0xab, 0x92, 0x73, 0x94, 0x6f,
  0x97, 0x87, 0x7a, 0x7f, 0x95, 0x70, 0xbb, 0x99, 0xa9, 0xa9, 0x77, 0xb2,
  0xb3, 0x96, 0xd4, 0x6f, 0xa4, 0x9e, 0x75, 0xb4, 0x9c, 0x69, 0xbf, 0x91,
  0x75, 0xba, 0x80, 0x9a, 0xbb, 0x7a, 0x8e, 0x85, 0x69, 0xa0, 0xa6, 0xa2,
  0x9e, 0x8e, 0x75, 0x85, 0x9e, 0xba, 0xa0, 0x95, 0x98, 0x62, 0x7e, 0xa6,
  0x87, 0xb3, 0x95, 0x9c, 0xaa, 0x71, 0x80, 0x87, 0x95, 0x6b, 0x7c, 0x98,
  0xab, 0x7e, 0x79, 0x6d, 0xb4, 0x8d, 0x7d, 0x7e, 0x9f, 0x54, 0x90, 0x60,
  0x7c, 0x7e, 0x8d, 0x83, 0xa2, 0x81, 0x7b, 0x83, 0x80, 0x93, 0x9e, 0x8a,
  0xc3, 0x6c, 0x6a, 0x87, 0xa7, 0x66, 0xa8, 0xa3, 0xc0, 0x60, 0x5e, 0x9d,
  0xbf, 0x4a, 0xb3, 0x83, 0xa7, 0x62, 0x82, 0xa9, 0x99, 0x73, 0xac, 0x8a,
  0x88, 0x8e, 0x71, 0xa8, 0x81, 0x87, 0xa1, 0xae, 0x88, 0x8d, 0x69, 0x90,
  0x82, 0x72, 0x9c, 0x8d, 0x92, 0x6b, 0xaa, 0x72, 0x77, 0x95, 0xd3, 0x88,
  0x99, 0x8e, 0x9b, 0x63, 0x8d, 0x7a, 0x58, 0xa1, 0xab, 0x95, 0xaf, 0x84,
  0x68, 0x99, 0x9e, 0x65, 0x96, 0x5f, 0x90, 0x65, 0x5b, 0x83, 0x7d, 0x83,
  0xa7, 0x5f, 0xc1, 0x74, 0x99, 0x85, 0x75, 0xae, 0xa5, 0x7b, 0xc5, 0x91,
  0xaf, 0xad, 0x84, 0xa4, 0x9c, 0x9b, 0xc4, 0x72, 0x93, 0xbd, 0x7b, 0xdc,
  0xa7, 0x6f, 0xc6, 0x78, 0x83, 0xd9, 0xa1, 0x95, 0x90, 0x73, 0x66, 0x66,
  0x69, 0x8e, 0xa5, 0xaf, 0x93, 0x8b, 0x7a, 0x64, 0x5e, 0x98, 0x91, 0x8d,
  0xa4, 0x70, 0xa9, 0x69, 0x94, 0xa7, 0x9b, 0xa0, 0x9b, 0x5f, 0x7c, 0x75,
  0x8a, 0x85, 0x64, 0x95, 0x85, 0x8a, 0x6a, 0x7d, 0xb6, 0x59, 0xa5, 0x52,
  0x84, 0x5c, 0x6d, 0x74, 0xaf, 0x8d, 0x88, 0x82, 0xb1, 0x95, 0x4a, 0xa4,
  0xa1, 0x6d, 0xbc, 0xa2, 0xaa, 0x63, 0x6d, 0x73, 0x8a, 0x64, 0x98, 0xb0,
  0xa3, 0x7c, 0x7a, 0x77, 0x98, 0x64, 0xb1, 0x99, 0x97, 0x5f, 0x69, 0x8c,
  0x83, 0x7a, 0x8c, 0x8c, 0x90, 0x96, 0x79, 0x9a, 0x7d, 0x56, 0xa1, 0xa6,
  0x85, 0x8c, 0x6a, 0x87, 0x90, 0x75, 0xa3, 0x82, 0x83, 0x6d, 0xa5, 0x7d,
  0xa2, 0x88, 0xab, 0x7d, 0x9c, 0x96, 0x9c, 0x62, 0x83, 0x84, 0xa6, 0x79,
  0xad, 0x9c, 0xad, 0x7c, 0x61, 0xb1, 0x7c, 0x74, 0xa5, 0x67, 0x95, 0x94,
  0x84, 0x9a, 0x8c, 0x95, 0xae, 0x4f, 0xaf, 0x90, 0x6d, 0x8e, 0x78, 0x9b,
  0x90, 0x4d, 0xd6, 0x7b, 0xb1, 0xb8, 0x56, 0xcf, 0xb4, 0x78, 0xc9, 0x81,
  0xbb, 0xa0, 0x75, 0xc8, 0xab, 0x96, 0xae, 0x66, 0x6b, 0xbd, 0xa6, 0x8f,
  0x9a, 0x86, 0x6f, 0x74, 0x7b, 0x9b, 0xc2, 0x9c, 0xa4, 0x76, 0x70, 0x82,
  0x75, 0x8d, 0xa2, 0x51, 0xb5, 0x7a, 0x74, 0x8f, 0x5c, 0x92, 0x91, 0x86,
  0xa2, 0x7b, 0x6f, 0x81, 0x65, 0x8f, 0x71, 0x8d, 0x9c, 0x5e, 0x82, 0x6e,
  0xb8, 0x83, 0x94, 0x70, 0x9c, 0x5a, 0x85, 0x7b, 0x84, 0x6a, 0x91, 0xa1,
  0xb0, 0x7c, 0x77, 0x6a, 0x90, 0x60, 0xa4, 0x94, 0xb2, 0x5a, 0x5f, 0x8d,
  0xb1, 0x68, 0xb0, 0xb9, 0xbc, 0x76, 0x75, 0x67, 0xb3, 0x5a, 0xb0, 0x8d,
  0x9a, 0x66, 0x73, 0xa2, 0x91, 0x5e, 0x90, 0x93, 0xb8, 0x6c, 0x73, 0xa2,
  0x7a, 0x54, 0xc4, 0x7e, 0x7a, 0x64, 0x68, 0x9b, 0xb1, 0x88, 0x92, 0x87,
  0x78, 0x70, 0x73, 0x90, 0x8e, 0x93, 0xc8, 0xa3, 0x8e, 0x61, 0xb3, 0x74,
  0x78, 0x88, 0x6f, 0x5a, 0xb4, 0x6d, 0xbb, 0x94, 0x67, 0x9d, 0x84, 0x95,
  0xbc, 0x7c, 0x97, 0x94, 0x78, 0x9a, 0x91, 0xc5, 0x9d, 0x80, 0xae, 0x9a,
  0x8a, 0x93, 0x72, 0x8a, 0xba, 0x85, 0xc6, 0x98, 0xbf, 0xa8, 0x4e, 0xba,
  0xb6, 0x73, 0xd3, 0x81, 0x88, 0xa4, 0x66, 0xb0, 0xc0, 0x68, 0xa9, 0x6c,
  0x6d, 0xc4, 0xcd, 0x96, 0x96, 0x8a, 0x74, 0x84, 0x63, 0x71, 0xca, 0x69,
  0x90, 0x73, 0x62, 0x68, 0x62, 0x7d, 0x9c, 0x87, 0xa6, 0x80, 0x6b, 0x71,
  0x85, 0x8a, 0xa1, 0x71, 0x9a, 0x5b, 0x6f, 0x74, 0x82, 0x83, 0x65, 0x7b,
  0x90, 0x4a, 0x6b, 0x7f, 0x8b, 0x62, 0x84, 0x5f, 0x8d, 0x5f, 0x5a, 0x70,
  0xac, 0x7b, 0x8f, 0x7a, 0xb6, 0x48, 0x6f, 0x8f, 0xad, 0x69, 0x95, 0xb0,
  0xa3, 0x73, 0x69, 0x87, 0xb5, 0x73, 0xa4, 0xb3, 0xb1, 0x8b, 0x6c, 0x85,
  0xbb, 0x43, 0xc3, 0xa9, 0xa6, 0x79, 0x72, 0x9d, 0x91, 0x53, 0x9b, 0x8a,
  0x93, 0x81, 0x6b, 0x8b, 0x9c, 0x54, 0x98, 0x97, 0x7c, 0x94, 0x8e, 0x9d,
  0x8b, 0x8a, 0x98, 0x7b, 0x9e, 0x72, 0x69, 0x87, 0x86, 0x65, 0xa7, 0x89,
  0xa9, 0x48, 0xaa, 0x73, 0x88, 0x9d, 0x71, 0x8d, 0xd6, 0x52, 0xad, 0x83,
  0x48, 0xac, 0x5d, 0x80, 0xab, 0x55, 0x97, 0xb4, 0x7e, 0xac, 0x9f, 0xb4,
  0xb2, 0xa3, 0xa2, 0x79, 0x66, 0x90, 0x5a, 0x98, 0xa5, 0x88, 0xcc, 0xa7,
  0xbc, 0xa1, 0x47, 0xd1, 0xa9, 0x91, 0xbe, 0x89, 0x8c, 0xad, 0x75, 0xbd,
  0x9f, 0x65, 0x8d, 0x66, 0x60, 0xb9, 0xa1, 0x92, 0x9f, 0x60, 0x51, 0x84,
  0x87, 0x9f, 0xd4, 0x65, 0x99, 0x73, 0x35, 0x64, 0x76, 0x92, 0xa1, 0x87,
  0x9a, 0x91, 0x87, 0x91, 0x7e, 0xa4, 0x8d, 0x9f, 0xaf, 0x8c, 0x78, 0x96,
  0x55, 0x80, 0x5f, 0x9d, 0x8a, 0x44, 0x5c, 0x72, 0x9e, 0x81, 0x7d, 0x72,
  0x96, 0x7a, 0x73, 0x69, 0x96, 0x76, 0x86, 0xab, 0xb2, 0x73, 0x6a, 0x81,
  0xb4, 0x5a, 0xa1, 0x9d, 0xaa, 0x6c, 0x80, 0x7c, 0xab, 0x60, 0xb6, 0x92,
  0x98, 0x6c, 0x75, 0x90, 0xae, 0x6e, 0xa4, 0x9e, 0x78, 0xa1, 0x6b, 0xa6,
  0xb0, 0x59, 0x87, 0x82, 0x97, 0x63, 0x65, 0x90, 0x83, 0x58, 0xb3, 0x81,
  0xaf, 0x5d, 0x68, 0x82, 0xa0, 0x57, 0xb3, 0x8e, 0x98, 0x92, 0x7d, 0x8e,
  0x7d, 0x52, 0xbc, 0x90, 0xad, 0x76, 0xb9, 0x89, 0x94, 0x9e, 0x7e, 0x9d,
  0xab, 0x9f, 0xc4, 0x85, 0x5c, 0xb5, 0x74, 0xa4, 0xaa, 0x7e, 0x8c, 0xb2,
  0x70, 0xac, 0xb6, 0xa9, 0xa1, 0x7b, 0xa0, 0x8b, 0x91, 0x9f, 0x67, 0xa4,
  0xb9, 0x86, 0xac, 0xa1, 0xb1, 0xcc, 0x3a, 0x8c, 0xc0, 0x90, 0xcc, 0x87,
  0x7a, 0xba, 0x6f, 0xba, 0xa7, 0x94, 0x9d, 0x71, 0x7b, 0xa6, 0xc9, 0x81,
  0x9f, 0x7f, 0x48, 0x7b, 0x82, 0x9b, 0xd3, 0x63, 0x96, 0x87, 0x3f, 0x77,
  0x71, 0x82, 0xbb, 0x8f, 0xab, 0x8e, 0x5b, 0x80, 0x6d, 0x7e, 0x95, 0x64,
  0x88, 0x62, 0x5e, 0x93, 0x86, 0x80, 0x8c, 0x85, 0x93, 0x4f, 0x68, 0x83,
  0xbb, 0x74, 0x7f, 0x9b, 0x8a, 0x63, 0x6c, 0x77, 0x97, 0x6d, 0x8f, 0xc0,
  0x9e, 0x42, 0x7f, 0x92, 0xa6, 0x5e, 0x8e, 0xba, 0xc3, 0x4e, 0x7e, 0x89,
  0xb8, 0x54, 0xa9, 0xc7, 0xa7, 0x56, 0x62, 0x9a, 0xb9, 0x33, 0xbf, 0xa9,
  0x90, 0x5c, 0x56, 0x8c, 0x9f, 0x48, 0x94, 0x9d, 0x98, 0x7e, 0x62, 0x8b,
  0xa8, 0x5c, 0xbb, 0xaa, 0x97, 0x65, 0x8e, 0x9d, 0x85, 0x8b, 0xc4, 0x8b,
  0xaf, 0x83, 0x73, 0x83, 0x80, 0x86, 0xb2, 0x8b, 0x92, 0x8f, 0xa1, 0x8a,
  0x81, 0x99, 0x80, 0x6a, 0xac, 0x69, 0xb1, 0x97, 0x75, 0xc1, 0x4b, 0xa2,
  0x98, 0x81, 0x9f, 0xae, 0x65, 0x9a, 0x84, 0x7a, 0xbb, 0x61, 0x98, 0x9b,
  0x77, 0xad, 0x65, 0xc7, 0xa4, 0x6a, 0xcf, 0x87, 0xb2, 0xba, 0x3a, 0xc4,
  0xb6, 0x64, 0xaa, 0x93, 0x96, 0xd3, 0x6f, 0x8b, 0xb4, 0x8c, 0x93, 0x8c,
  0x4f, 0x9b, 0x9d, 0x72, 0x9d, 0x84, 0x38, 0x5b, 0x6f, 0x96, 0xbc, 0x5a,
  0x92, 0x7e, 0x52, 0x71, 0x76, 0x89, 0xb8, 0x8a, 0x9f, 0x8a, 0x5a, 0x84,
  0x63, 0x85, 0x83, 0x5d, 0x9f, 0x7c, 0x5e, 0xa1, 0x69, 0x7c, 0x52, 0x71,
  0x98, 0x60, 0x4c, 0x86, 0xa7, 0x88, 0x8d, 0x87, 0xa3, 0x72, 0x55, 0x97,
  0xad, 0x6b, 0x86, 0x96, 0xa5, 0x76, 0x76, 0x88, 0xca, 0x5d, 0x9e, 0xa8,
  0xa1, 0x4b, 0x67, 0x99, 0x98, 0x7e, 0xb5, 0x92, 0x9f, 0x5c, 0x5d, 0xa8,
  0x93, 0x47, 0xa0, 0x93, 0xbc, 0x6a, 0x71, 0x98, 0xaa, 0x41, 0x8e, 0xc1,
  0x93, 0x78, 0x6b, 0x91, 0x92, 0x5e, 0xac, 0xb6, 0x8a, 0x7f, 0x84, 0x90,
  0xaa, 0x90, 0xbf, 0x80, 0x95, 0x7b, 0x73, 0x80, 0x94, 0x5c, 0xb7, 0x84,
  0xa5, 0x65, 0xb8, 0x7f, 0x6b, 0x86, 0x6a, 0x99, 0x99, 0x89, 0xc1, 0xa2,
  0x69, 0xb3, 0x83, 0xaa, 0xab, 0x97, 0x8a, 0xae, 0x7a, 0xa1, 0x8d, 0xa5,
  0x94, 0x8f, 0xa4, 0xaa, 0x7b, 0xab, 0x53, 0x90, 0xb3, 0x7d, 0xc4, 0x7b,
  0x9f, 0xc4, 0x41, 0xbd, 0xb2, 0x97, 0xc0, 0x97, 0x73, 0xa5, 0x6e, 0xaf,
  0xb7, 0x97, 0x9f, 0x71, 0x54, 0x9e, 0xad, 0x61, 0xad, 0xb2, 0x51, 0x72,
  0x6e, 0xa1, 0xa4, 0x34, 0x9a, 0x8d, 0x2d, 0x7d, 0x75, 0x92, 0xaf, 0x75,
  0xa3, 0xa4, 0x59, 0x8e, 0x58, 0x94, 0xa4, 0x7f, 0xa1, 0x89, 0x76, 0xb5,
  0x8e, 0x92, 0x59, 0x9e, 0x7e, 0x3a, 0x66, 0x99, 0x9f, 0x75, 0x82, 0xb9,
  0xa0, 0x4c, 0x6d, 0x8e, 0xce, 0x86, 0x7d, 0x90, 0x9d, 0x5f, 0x5c, 0x7d,
  0xc3, 0x79, 0x9d, 0xab, 0xae, 0x6f, 0x56, 0x75, 0x9a, 0x71, 0xac, 0xc0,
  0xb6, 0x5b, 0x33, 0x82, 0xa9, 0x3d, 0xb9, 0xc6, 0xaf, 0x66, 0x58, 0x7f,
  0xab, 0x32, 0x8f, 0xbd, 0x90, 0x83, 0x77, 0x7d, 0x78, 0x6d, 0x99, 0x9f,
  0x8e, 0x7e, 0x85, 0xa4, 0x78, 0x59, 0xc8, 0x80, 0x81, 0x5f, 0x84, 0x8f,
  0x91, 0x74, 0xb8, 0x88, 0xb2, 0x6e, 0xaf, 0x78, 0x86, 0x88, 0x6e, 0x7f,
  0xaf, 0x9d, 0xb8, 0x93, 0x33, 0xcf, 0x8b, 0xbd, 0x9d, 0x83, 0x88, 0xcd,
  0x5d, 0x9c, 0x89, 0xb7, 0x9e, 0x77, 0xac, 0xb0, 0x62, 0xaa, 0x43, 0xbc,
  0xa2, 0x7f, 0xb2, 0x8f, 0x9f, 0xca, 0x4d, 0x88, 0x98, 0x8e, 0xbb, 0x80,
  0x70, 0xb1, 0x63, 0x8b, 0xb3, 0x7d, 0x81, 0x6e, 0x71, 0xbc, 0xc9, 0x99,
  0xa3, 0xa0, 0x74, 0x78, 0x4d, 0x82, 0xba, 0x4b, 0xa3, 0x68, 0x44, 0x86,
  0x54, 0x85, 0xb6, 0x59, 0x99, 0x86, 0x4f, 0x9f, 0x75, 0x5f, 0xaf, 0x8f,
  0x9b, 0x80, 0x60, 0x9f, 0x60, 0xab, 0x7a, 0x6d, 0x8f, 0x38, 0x54, 0x86,
  0x9d, 0x73, 0x7c, 0xb3, 0x7b, 0x51, 0x47, 0x74, 0xa7, 0x68, 0x8a, 0xa6,
  0x90, 0x5f, 0x65, 0x92, 0xc4, 0x45, 0x96, 0x8c, 0xa6, 0x47, 0x53, 0x93,
  0x9d, 0x63, 0x90, 0xbc, 0xb1, 0x69, 0x66, 0x81, 0x9f, 0x3e, 0x9b, 0x8e,
  0xb0, 0x65, 0x71, 0x8f, 0x8c, 0x39, 0x97, 0xd8, 0xac, 0x87, 0x64, 0x7d,
  0x93, 0x74, 0xb0, 0xaa, 0x97, 0x82, 0xa3, 0xa6, 0x81, 0x61, 0xd8, 0xa7,
  0xb2, 0x89, 0x9c, 0x89, 0x84, 0xa5, 0xb0, 0x89, 0x9e, 0x7b, 0xb6, 0x83,
  0x8a, 0x9d, 0x89, 0x81, 0xbe, 0x88, 0xb7, 0x96, 0x5a, 0xb4, 0x66, 0xaf,
  0x9b, 0xba, 0x91, 0xbf, 0x67, 0xa1, 0x8a, 0xaa, 0x98, 0x8d, 0xb0, 0xaa,
  0x7c, 0xbe, 0x4f, 0xbe, 0x95, 0x64, 0xca, 0x95, 0xaf, 0xa8, 0x2c, 0x75,
  0xa7, 0x7a, 0xc0, 0x8d, 0x6c, 0xae, 0x75, 0x9b, 0xb0, 0x78, 0x7d, 0x5f,
  0x63, 0xb2, 0xa5, 0x7c, 0x88, 0x79, 0x71, 0x6b, 0x68, 0xa8, 0xcb, 0x57,
  0x94, 0x94, 0x47, 0x70, 0x4b, 0x92, 0xd6, 0x64, 0xa5, 0xa8, 0x56, 0xa8,
  0x7f, 0x7b, 0x8d, 0x80, 0x94, 0x7f, 0x60, 0xab, 0x52, 0x94, 0x7e, 0x80,
  0x99, 0x56, 0x86, 0x7e, 0xa7, 0x8d, 0x74, 0x94, 0x93, 0x65, 0x5e, 0xa1,
  0xae, 0x6f, 0x8a, 0x80, 0xac, 0x3e, 0x6e, 0x7d, 0xb8, 0x4f, 0x87, 0x8a,
  0x9b, 0x31, 0x52, 0x74, 0x89, 0x80, 0xa1, 0xbb, 0xac, 0x70, 0x6f, 0x8d,
  0x86, 0x52, 0x82, 0xb1, 0xb3, 0x4e, 0x4a, 0x88, 0xa1, 0x46, 0xa1, 0xd1,
  0xad, 0x65, 0x88, 0x89, 0x91, 0x60, 0xaf, 0xb9, 0x8f, 0x5a, 0x96, 0x9a,
  0x6c, 0x6a, 0xc0, 0x97, 0x92, 0x8d, 0x93, 0x9f, 0x80, 0x6b, 0xaf, 0x93,
  0xb4, 0x89, 0xc1, 0x91, 0x88, 0x8c, 0x89, 0x66, 0xaa, 0x98, 0xbd, 0x8f,
  0x6c, 0xd5, 0x88, 0x9a, 0xa6, 0x97, 0x8d, 0xc0, 0x77, 0xa9, 0x82, 0xac,
  0x96, 0x98, 0x9e, 0xba, 0x84, 0xd6, 0x3a, 0x9a, 0xaa, 0x71, 0xce, 0x85,
  0x8d, 0xbd, 0x34, 0xc0, 0x9f, 0x80, 0xc6, 0x76, 0x99, 0xa4, 0x65, 0x74,
  0xa5, 0x6f, 0xa3, 0x59, 0x6a, 0xaa, 0x9c, 0x87, 0xa1, 0x7c, 0x77, 0x69,
  0x72, 0x8f, 0xcf, 0x5a, 0xab, 0xa5, 0x41, 0x93, 0x59, 0x8c, 0xc7, 0x70,
  0x90, 0x73, 0x51, 0x94, 0x82, 0x70, 0xb2, 0x81, 0xa1, 0x98, 0x60, 0xa6,
  0x73, 0x93, 0x65, 0x8e, 0x9b, 0x5e, 0x51, 0x96, 0x84, 0x80, 0x75, 0xa6,
  0x99, 0x57, 0x59, 0x89, 0xb9, 0x65, 0xa8, 0x9e, 0x98, 0x5f, 0x52, 0x80,
  0xab, 0x60, 0x86, 0xb4, 0xa5, 0x2a, 0x4a, 0x8e, 0x7c, 0x4d, 0xb8, 0xbb,
  0xa3, 0x5d, 0x4c, 0x84, 0xae, 0x40, 0x9f, 0xc2, 0x9b, 0x6e, 0x6f, 0x89,
  0x8c, 0x46, 0x8c, 0xa5, 0xab, 0x45, 0x88, 0x92, 0x88, 0x52, 0x9b, 0xaf,
  0xb7, 0x6a, 0x82, 0x9b, 0x83, 0x67, 0xb2, 0x74, 0xa6, 0x7e, 0x9a, 0xa7,
  0x82, 0x9e, 0xb0, 0x91, 0xc0, 0x9d, 0xba, 0x9b, 0x8a, 0x86, 0x92, 0xbb,
  0xae, 0xa9, 0xaf, 0x8f, 0x76, 0xcc, 0xa4, 0x8b, 0xa3, 0xa9, 0x82, 0xc0,
  0x6c, 0xaf, 0x6c, 0xd3, 0x99, 0x82, 0x87, 0xb0, 0x72, 0xbb, 0x39, 0xab,
  0x92, 0x89, 0xc3, 0x72, 0x9a, 0xdd, 0x40, 0xae, 0xa0, 0x86, 0xba, 0x90,
  0x6e, 0xb7, 0x6f, 0xb2, 0xb1, 0x82, 0x9b, 0x6e, 0x55, 0xc0, 0xa5, 0x5e,
  0x8d, 0x8a, 0x68, 0x51, 0x51, 0x99, 0xc7, 0x41, 0x8f, 0x91, 0x6e, 0x63,
  0x69, 0x81, 0xd4, 0x83, 0x92, 0x9d, 0x5f, 0xab, 0x61, 0x77, 0x9b, 0x6b,
  0x91, 0xa6, 0x6a, 0x88, 0x77, 0x9a, 0x58, 0x8d, 0x9b, 0x80, 0x6e, 0x89,
  0xa1, 0x6f, 0x89, 0xa5, 0x91, 0x6e, 0x6a, 0x6c, 0x7e, 0x55, 0x8a, 0xc2,
  0x97, 0x52, 0x65, 0x79, 0xa5, 0x5e, 0x90, 0x9f, 0xa5, 0x43, 0x65, 0x8d,
  0x99, 0x44, 0xb9, 0x90, 0xad, 0x65, 0x55, 0x7e, 0x98, 0x64, 0xa1, 0xbc,
  0xa6, 0x56, 0x66, 0x88, 0xa1, 0x5f, 0xa5, 0xb8, 0x9f, 0x6c, 0x79, 0x98,
  0x9f, 0x63, 0xa8, 0xa6, 0x7e, 0x75, 0x5b, 0xa1, 0x92, 0x75, 0xa9, 0x6e,
  0x9b, 0x5d, 0x8d, 0x8f, 0x98, 0xa1, 0xb3, 0x98, 0xa8, 0x76, 0xa2, 0x96,
  0x8e, 0xb6, 0x8c, 0x91, 0xb8, 0xa8, 0xb1, 0x7e, 0x70, 0xcd, 0xa5, 0xc9,
  0xa6, 0x94, 0x99, 0xd2, 0x53, 0x91, 0x8c, 0xc2, 0xb1, 0x9d, 0x9c, 0xa1,
  0x7b, 0xc2, 0x30, 0x96, 0xb6, 0x66, 0xc8, 0x92, 0x76, 0xca, 0x39, 0x90,
  0xa4, 0x87, 0xb8, 0x6e, 0x74, 0xc9, 0x6e, 0x86, 0x9e, 0x57, 0x8d, 0x59,
  0x62, 0xa5, 0xb9, 0x81, 0x8c, 0x8e, 0x64, 0x41, 0x5d, 0x8f, 0xc0, 0x47,
  0x77, 0x84, 0x68, 0x60, 0x60, 0x97, 0xc6, 0x62, 0x9e, 0xa8, 0x72, 0xa2,
  0x6e, 0x96, 0x89, 0x76, 0x96, 0x94, 0x67, 0x9d, 0x64, 0xa6, 0x5f, 0x89,
  0x9d, 0x96, 0x5f, 0x90, 0x7e, 0x82, 0x89, 0x7f, 0xa0, 0x64, 0x62, 0x83,
  0x99, 0x6f, 0x99, 0x93, 0xa4, 0x58, 0x65, 0x86, 0x92, 0x65, 0x96, 0xa0,
  0xa8, 0x5c, 0x53, 0x96, 0x89, 0x6f, 0xa3, 0xb3, 0xb6, 0x6a, 0x4d, 0x78,
  0xb1, 0x4a, 0xb0, 0xb4, 0xba, 0x7b, 0x6d, 0x7f, 0x92, 0x53, 0xa1, 0xc4,
  0x9a, 0x7c, 0x6e, 0x87, 0x80, 0x86, 0xa8, 0xa3, 0xa1, 0x79, 0x8c, 0x90,
  0x90, 0x69, 0xc3, 0x94, 0x95, 0x86, 0x9a, 0x93, 0x93, 0xa0, 0x9b, 0x81,
  0xb0, 0xbc, 0xab, 0xb6, 0x95, 0x8c, 0xa6, 0xb0, 0x88, 0xa6, 0xc8, 0x8d,
  0x67, 0xbd, 0xa9, 0x7b, 0xc2, 0xa4, 0x8a, 0xcb, 0x79, 0xa2, 0x69, 0x98,
  0xc0, 0x96, 0x97, 0x9e, 0x7d, 0xd3, 0x5c, 0x9f, 0x9b, 0x7e, 0xb4, 0x88,
  0x8d, 0xcc, 0x52, 0xa6, 0xa3, 0x83, 0x9d, 0x68, 0x85, 0xc1, 0x68, 0x77,
  0x9f, 0x6c, 0x79, 0x27, 0x6a, 0xab, 0x99, 0x64, 0x89, 0x92, 0x75, 0x51,
  0x59, 0xa0, 0xd1, 0x35, 0x6b, 0x78, 0x45, 0x65, 0x67, 0x89, 0xb2, 0x5f,
  0xa7, 0xa0, 0x64, 0x9e, 0x67, 0x72, 0x89, 0x80, 0x91, 0x9f, 0x55, 0x9e,
  0x5e, 0x8c, 0x56, 0x7d, 0x9d, 0xa9, 0x62, 0x90, 0xa2, 0x62, 0x82, 0xb3,
  0x82, 0x67, 0x7b, 0x8f, 0x97, 0x78, 0xab, 0xb1, 0x99, 0x92, 0x68, 0x90,
  0x9b, 0x62, 0x74, 0xcc, 0x9b, 0x68, 0x40, 0x71, 0x8b, 0x64, 0x9c, 0xb3,
  0xa7, 0x7b, 0x55, 0x8f, 0x7d, 0x30, 0xa8, 0xbe, 0xb1, 0x7b, 0x5b, 0x8e,
  0x9f, 0x5f, 0xa0, 0xb9, 0x92, 0x66, 0x66, 0x88, 0x85, 0x7a, 0xc5, 0x95,
  0xb4, 0x96, 0x63, 0x8a, 0x8c, 0x7f, 0xb6, 0x8b, 0x82, 0x95, 0x9d, 0x9d,
  0x86, 0x70, 0x8d, 0x9f, 0x9b, 0xb7, 0xaa, 0xae, 0xa7, 0x8e, 0x91, 0x8d,
  0x90, 0xdd, 0xa9, 0x94, 0x54, 0xc8, 0xa1, 0x8a, 0xa0, 0xa7, 0x7d, 0xb7,
  0x6f, 0xb2, 0x78, 0xa7, 0xc8, 0xa2, 0xa1, 0xb4, 0x78, 0xd7, 0x54, 0xb6,
  0xb0, 0x95, 0xb9, 0x81, 0x7b, 0xcc, 0x66, 0xa2, 0x96, 0x80, 0xb1, 0x5f,
  0x9b, 0xaf, 0x78, 0x90, 0x82, 0x9d, 0x96, 0x36, 0x4c, 0x93, 0xaa, 0x35,
  0x84, 0x9a, 0x58, 0x2f, 0x51, 0x91, 0xc3, 0x49, 0x95, 0x9d, 0x4f, 0x63,
  0x6b, 0x86, 0xcc, 0x6b, 0x8f, 0xb5, 0x71, 0x99, 0x73, 0x81, 0xa7, 0x93,
  0x81, 0xa0, 0x6b, 0x94, 0x85, 0x88, 0x53, 0x96, 0x98, 0xa9, 0x76, 0x9b,
  0x9c, 0x70, 0x94, 0x95, 0x95, 0x66, 0x6a, 0x9e, 0x88, 0x65, 0xa2, 0x9f,
  0x91, 0x5d, 0x5a, 0x95, 0x93, 0x66, 0x94, 0x90, 0x92, 0x61, 0x5e, 0x78,
  0x87, 0x54, 0xb7, 0x8b, 0x97, 0x51, 0x45, 0x6e, 0x8d, 0x51, 0x95, 0x9f,
  0x84, 0x6a, 0x75, 0x82, 0xb2, 0x59, 0xa0, 0xaa, 0x9e, 0x75, 0x86, 0xa0,
  0x81, 0x60, 0x8b, 0xa3, 0xa7, 0x82, 0x63, 0x96, 0x78, 0x51, 0x9e, 0x94,
  0x89, 0x5f, 0x6c, 0x84, 0x7e, 0x8f, 0x8e, 0x84, 0xa4, 0x96, 0xc1, 0xa2,
  0x64, 0x84, 0x72, 0x78, 0xb2, 0xa7, 0xc7, 0xaf, 0x66, 0xdb, 0x9a, 0x9a,
  0xb3, 0xc7, 0x71, 0xb1, 0x6b, 0x96, 0x9b, 0xc7, 0xbb, 0x81, 0xa3, 0xb9,
  0x72, 0xc6, 0x66, 0xa4, 0xbf, 0x8e, 0xc4, 0x65, 0x77, 0xd7, 0x6f, 0x8b,
  0xad, 0x9b, 0x96, 0x65, 0x4f, 0xb0, 0x5e, 0x8b, 0x94, 0x7f, 0x90, 0x3d,
  0x6d, 0xae, 0x9b, 0x51, 0x91, 0x9d, 0x7b, 0x38, 0x4d, 0x97, 0xc2, 0x26,
  0x86, 0x7e, 0x6a, 0x4d, 0x69, 0xa3, 0xbb, 0x64, 0x9e, 0xaa, 0x69, 0x95,
  0x87, 0x7d, 0xad, 0x5c, 0xa0, 0x83, 0x6a, 0xb3, 0x4b, 0x7c, 0x78, 0x98,
  0x96, 0x8a, 0x5e, 0x9e, 0x8a, 0x8d, 0x8e, 0x8e, 0x9d, 0x81, 0x89, 0x87,
  0x9c, 0x5d, 0x7b, 0x96, 0xa1, 0x56, 0x67, 0x94, 0x8e, 0x49, 0x8d, 0xa4,
  0x89, 0x81, 0x61, 0x8a, 0x93, 0x60, 0x95, 0x99, 0x83, 0x5d, 0x67, 0x82,
  0xb4, 0x44, 0xcd, 0xa2, 0x9a, 0x5c, 0x66, 0x8c, 0xad, 0x68, 0xbb, 0xaa,
  0x9e, 0x60, 0x78, 0x86, 0x91, 0x76, 0x92, 0x8b, 0x88, 0x9f, 0x67, 0x8b,
  0x97, 0x6e, 0xb9, 0x80, 0xa5, 0x7b, 0x62, 0x9f, 0x78, 0x93, 0x88, 0x87,
  0xb8, 0xba, 0xa9, 0xae, 0x9b, 0x9b, 0xa4, 0x98, 0xaf, 0xab, 0xbb, 0x9e,
  0x8f, 0xbb, 0xb3, 0xa6, 0x9e, 0xb7, 0x92, 0xdb, 0x65, 0xa3, 0x9a, 0xb8,
  0xc6, 0x9b, 0xd3, 0xae, 0x93, 0xdd, 0x7a, 0xd3, 0xad, 0x93, 0xbe, 0x78,
  0x82, 0xc8, 0x61, 0x7c, 0x96, 0x8d, 0xa2, 0x43, 0x87, 0xb2, 0x51, 0x8c,
  0x89, 0x93, 0x7e, 0x36, 0x43, 0xb4, 0xa7, 0x74, 0x8f, 0x8e, 0x83, 0x2e,
  0x66, 0xa6, 0xd2, 0x69, 0x85, 0x7f, 0x5d, 0x6c, 0x6e, 0x96, 0xcc, 0x72,
  0x90, 0x7a, 0x5d, 0x9d, 0x8a, 0x7f, 0xa5, 0xab, 0x93, 0x98, 0x72, 0x9b,
  0x4f, 0x80, 0x86, 0x9a, 0xa4, 0x97, 0x66, 0xa8, 0x82, 0x88, 0x8e, 0xbb,
  0xa5, 0x96, 0x6c, 0x8f, 0xaf, 0x5e, 0x9b, 0xbb, 0xa1, 0x9c, 0x8b, 0x85,
  0x9b, 0x4a, 0x8e, 0xb2, 0x93, 0x8b, 0x62, 0x71, 0x8e, 0x57, 0xc2, 0xb3,
  0x97, 0x86, 0x57, 0x91, 0x95, 0x4a, 0xb0, 0x8e, 0x7b, 0x8a, 0x7d, 0x99,
  0x90, 0x6b, 0x9f, 0xa8, 0x84, 0x8d, 0x5a, 0x99, 0x8f, 0x6e, 0x98, 0xb2,
  0xa0, 0x71, 0x59, 0x88, 0x7d, 0x56, 0xb3, 0x7c, 0x7e, 0x78, 0x75, 0x70,
  0x7f, 0x7c, 0x7d, 0x86, 0xa5, 0x65, 0xb3, 0xac, 0x7f, 0x8f, 0x99, 0x81,
  0xb7, 0x72, 0xb4, 0x89, 0x86, 0xbb, 0xb5, 0x9d, 0xb7, 0x9e, 0x81, 0xc7,
  0x4e, 0xa0, 0xac, 0xac, 0xad, 0x8f, 0xa0, 0xbc, 0x5f, 0xd1, 0x65, 0x9c,
  0xb4, 0x80, 0xc4, 0x80, 0x51, 0xcd, 0x89, 0xa0, 0xaa, 0x81, 0xc1, 0x38,
  0x88, 0xc7, 0x62, 0x52, 0xbc, 0xa9, 0x86, 0x23, 0x79, 0xa4, 0x8f, 0x4b,
  0x83, 0x77, 0x78, 0x40, 0x70, 0x83, 0xbb, 0x4b, 0xa1, 0xac, 0x60, 0x69,
  0x63, 0xa5, 0xb1, 0x43, 0xaa, 0x95, 0x8b, 0xa2, 0x86, 0x92, 0x99, 0x6e,
  0xa3, 0x91, 0x5c, 0x99, 0x78, 0x85, 0x7a, 0x8a, 0x9d, 0x8c, 0x82, 0x9e,
  0x72, 0x94, 0x79, 0xb7, 0x88, 0xa4, 0x64, 0x8a, 0x96, 0x66, 0xac, 0xa0,
  0x87, 0x59, 0x6b, 0x8c, 0x91, 0x66, 0x9e, 0x9e, 0x8e, 0x81, 0x4b, 0x8d,
  0x90, 0x7f, 0xa8, 0xc2, 0x8c, 0xa2, 0x5c, 0x96, 0x9e, 0x4f, 0xcd, 0xc0,
  0x81, 0x7f, 0x60, 0x8d, 0x95, 0x62, 0xb0, 0x8f, 0x8b, 0x87, 0x87, 0x88,
  0x9a, 0x84, 0xb2, 0x80, 0x86, 0xa2, 0x6b, 0x84, 0x87, 0x5e, 0xac, 0x8b,
  0xa0, 0x88, 0x93, 0x80, 0x70, 0x7a, 0x75, 0x7f, 0xc0, 0x96, 0xa2, 0xbb,
  0x8d, 0x76, 0xa9, 0x66, 0xd3, 0x7d, 0xa1, 0x9f, 0x76, 0x6e, 0xa0, 0x6e,
  0xbe, 0x96, 0x83, 0xb2, 0x76, 0x76, 0x8e, 0x8e, 0xd3, 0x89, 0xc9, 0xae,
  0x98, 0xa7, 0x94, 0x94, 0xaf, 0x71, 0xab, 0x6f, 0x7c, 0x8d, 0x97, 0x9b,
  0xaa, 0x6f, 0xa2, 0x42, 0x6c, 0x7a, 0x86, 0x81, 0xa1, 0x76, 0x5f, 0x32,
  0x4e, 0x8e, 0x89, 0x82, 0x9e, 0xa4, 0x71, 0x36, 0x52, 0x7c, 0xb6, 0x5d,
  0x9d, 0x9c, 0x89, 0x5e, 0x6d, 0x9d, 0xcb, 0x94, 0xa8, 0x8f, 0x86, 0x8f,
  0x74, 0x96, 0x9e, 0x87, 0x9b, 0x9b, 0x51, 0xa2, 0x9a, 0x87, 0x8f, 0x8b,
  0x93, 0x82, 0x6d, 0xae, 0x71, 0x83, 0x86, 0xa2, 0x87, 0xac, 0x61, 0x92,
  0x90, 0x74, 0xad, 0xa6, 0xae, 0x73, 0x8f, 0x85, 0x8f, 0x70, 0x8b, 0xbf,
  0x8a, 0x7c, 0x71, 0x80, 0x9f, 0x68, 0xb3, 0xa1, 0xaf, 0x73, 0x87, 0x77,
  0xab, 0x5f, 0xc0, 0x90, 0x9b, 0x80, 0x84, 0x85, 0x9c, 0x6c, 0xa5, 0x9c,
  0x8d, 0xb8, 0x6f, 0x79, 0x99, 0x6f, 0x95, 0x6f, 0x8c, 0x8c, 0x76, 0x6e,
  0x70, 0x61, 0x7c, 0xa5, 0x90, 0x94, 0x6e, 0x6d, 0x7d, 0x84, 0x77, 0x84,
  0xa4, 0x9d, 0x7f, 0xb0, 0xa1, 0x8b, 0x8f, 0xb4, 0xbe, 0xa9, 0x86, 0x8f,
  0x86, 0x8b, 0x96, 0xaf, 0xb2, 0x96, 0x76, 0x7b, 0x94, 0x78, 0x8d, 0x7f,
  0xc2, 0xa8, 0xa4, 0x97, 0x95, 0x8c, 0x72, 0xa7, 0xab, 0x93, 0xb5, 0x7e,
  0x61, 0x8d, 0xa6, 0xa5, 0xb2, 0x6d, 0x9d, 0x8f, 0x73, 0x88, 0x81, 0x8b,
  0x9b, 0xa3, 0x6c, 0x5d, 0x76, 0x88, 0x83, 0x6f, 0x97, 0x7f, 0x97, 0x73,
  0x74, 0xa9, 0x99, 0x54, 0x82, 0x91, 0x86, 0x6c, 0x6f, 0x97, 0xba, 0x78,
  0x93, 0x75, 0x94, 0x9f, 0x61, 0x88, 0xa0, 0x4e, 0x72, 0x8c, 0x6a, 0x77,
  0x91, 0x87, 0x79, 0x90, 0x9c, 0x91, 0x62, 0xa8, 0xa3, 0x8a, 0x99, 0x98,
  0x7c, 0x58, 0x84, 0xa1, 0xa2, 0x77, 0xbf, 0x8b, 0x90, 0x9f, 0x89, 0x9b,
  0x83, 0x6e, 0xbd, 0x78, 0x80, 0x7e, 0x69, 0x7f, 0x8b, 0x70, 0xc2, 0xc0,
  0x70, 0x7b, 0x76, 0x8d, 0x8c, 0x7f, 0xaf, 0xa9, 0x72, 0x94, 0x7f, 0x81,
  0xae, 0x7c, 0x90, 0x79, 0x55, 0x83, 0x72, 0x88, 0x72, 0x5d, 0x83, 0x7b,
  0x65, 0x96, 0x8f, 0x6d, 0x91, 0x8c, 0x5a, 0x5d, 0x85, 0xa5, 0xbc, 0x82,
  0x70, 0x83, 0x41, 0x6c, 0xb2, 0x96, 0x6d, 0x9f, 0x76, 0x5c, 0x60, 0x8d,
  0x74, 0x97, 0x80, 0x93, 0x82, 0x98, 0x82, 0x7a, 0xa9, 0xbb, 0x78, 0x74,
  0x69, 0x90, 0xa3, 0x61, 0xa2, 0xb3, 0x8d, 0xa2, 0x99, 0x7a, 0xaa, 0x7b,
  0x93, 0xb7, 0x88, 0x99, 0x97, 0x6a, 0x8d, 0x75, 0xaa, 0x96, 0xa3, 0x8d,
  0x78, 0x91, 0xa2, 0x8d, 0x98, 0x8b, 0x84, 0x8b, 0x70, 0x91, 0x9d, 0x74,
  0x90, 0x8f, 0x85, 0x8a, 0x99, 0x65, 0xcf, 0x86, 0xa2, 0xab, 0x89, 0x7c,
  0x8c, 0x8c, 0xbf, 0x90, 0xa4, 0x9a, 0x82, 0x83, 0x9a, 0x9c, 0xc8, 0x8d,
  0x9d, 0xa2, 0x74, 0x92, 0x83, 0x7a, 0xaa, 0x87, 0x95, 0x87, 0xb3, 0x7e,
  0x74, 0x72, 0x91, 0x88, 0x94, 0x91, 0xa5, 0x60, 0x8c, 0x78, 0xa2, 0x97,
  0xad, 0x84, 0x8d, 0x75, 0x98, 0x89, 0x89, 0xbb, 0x8e, 0x9d, 0x80, 0x64,
  0x83, 0x8a, 0xbb, 0x7e, 0x90, 0x9b, 0x89, 0x87, 0x5e, 0x5c, 0xa6, 0x88,
  0x87, 0x85, 0x9a, 0x6a, 0x89, 0x90, 0xa9, 0x92, 0x7c, 0x8e, 0x92, 0x87,
  0x9a, 0x84, 0x6f, 0x97, 0x7a, 0x88, 0x8e, 0x7b, 0x7b, 0x95, 0xa3, 0x82,
  0x96, 0x9a, 0x93, 0x82, 0xa3, 0x80, 0xba, 0x87, 0x8f, 0xae, 0xc9, 0x91,
  0x83, 0x7b, 0x82, 0xaf, 0xa7, 0xaa, 0x94, 0xa5, 0x71, 0x95, 0xba, 0x72,
  0x8c, 0xaa, 0x73, 0x98, 0x9a, 0x66, 0x83, 0x81, 0x97, 0xb7, 0x80, 0xa3,
  0xbf, 0x68, 0xad, 0x86, 0x92, 0xba, 0xbc, 0x98, 0x8f, 0x95, 0x9a, 0x88,
  0x68, 0x8f, 0x81, 0xa0, 0x82, 0x9e, 0x91, 0x73, 0x7c, 0x84, 0x75, 0x9b,
  0x82, 0x61, 0x91, 0x6b, 0x6f, 0x9d, 0x97, 0x9d, 0x78, 0xb4, 0x99, 0x60,
  0x74, 0x7b, 0x7b, 0xb4, 0x7a, 0x94, 0x84, 0x68, 0x73, 0x93, 0xaa, 0x96,
  0x7c, 0x94, 0x89, 0x86, 0x7e, 0x91, 0x7e, 0x87, 0x97, 0xaf, 0x9a, 0xa6,
  0xa3, 0x95, 0xab, 0x96, 0x6a, 0x9b, 0x93, 0x90, 0x7e, 0x94, 0x69, 0x80,
  0x91, 0x9d, 0x7a, 0x91, 0x75, 0xaa, 0x74, 0x87, 0x72, 0xad, 0x8e, 0x74,
  0x72, 0x6d, 0x95, 0x8e, 0x81, 0x60, 0x70, 0x86, 0x5b, 0x8d, 0xa8, 0x81,
  0x8b, 0x71, 0x8b, 0x88, 0x76, 0x93, 0xb2, 0x76, 0x7c, 0x95, 0x79, 0x8e,
  0x89, 0x91, 0x60, 0x99, 0x78, 0x7f, 0x6d, 0x83, 0x87, 0x94, 0x59, 0x90,
  0xa2, 0x7c, 0xa1, 0x89, 0x72, 0x8d, 0x90, 0x90, 0x75, 0xb3, 0xd8, 0x8b,
  0xa0, 0x7f, 0x8c, 0x97, 0x73, 0x8a, 0x65, 0x95, 0xb5, 0x8e, 0xab, 0xaa,
  0x99, 0xbd, 0x72, 0x98, 0xa9, 0x7d, 0x92, 0x72, 0x96, 0x8c, 0x8c, 0x97,
  0x99, 0x79, 0x86, 0x9d, 0xa9, 0xb0, 0x9a, 0x75, 0xa5, 0x7c, 0x78, 0x97,
  0x84, 0x90, 0x9f, 0xb3, 0x83, 0x8e, 0x8b, 0xa6, 0x7c, 0x6a, 0xb5, 0x87,
  0x7d, 0x9a, 0x46, 0xaf, 0x75, 0x7d, 0xac, 0x78, 0x7b, 0x9f, 0x5b, 0x95,
  0xa3, 0x6b, 0x9d, 0xa1, 0x91, 0x88, 0x8d, 0xa5, 0x5d, 0x7d, 0x93, 0x86,
  0x6d, 0x68, 0x93, 0x80, 0x85, 0x57, 0x98, 0x92, 0x8a, 0x8c, 0x8a, 0x7b,
  0x65, 0x9b, 0x95, 0x7b, 0x8e, 0x94, 0x80, 0xae, 0x83, 0x83, 0x90, 0x7a,
  0x90, 0xb6, 0x90, 0x82, 0x8e, 0x8e, 0x84, 0x9d, 0x86, 0x9a, 0xa0, 0x83,
  0x9d, 0x7a, 0x8f, 0x7c, 0x78, 0x8c, 0xbe, 0x99, 0x7f, 0x98, 0x7a, 0x7a,
  0x54, 0x80, 0x8c, 0xa0, 0x96, 0xba, 0x8b, 0x77, 0x69, 0xa1, 0x89, 0x9d,
  0x8b, 0x83, 0x78, 0xac, 0x85, 0x8c, 0x74, 0xbc, 0x9d, 0x8a, 0x78, 0x87,
  0x99, 0x61, 0x80, 0x9b, 0xa3, 0x94, 0xb2, 0x9f, 0x99, 0x78, 0x62, 0x98,
  0x89, 0x7d, 0xb4, 0x9b, 0x8a, 0x7d, 0x99, 0xaa, 0x97, 0x76, 0x75, 0x5d,
  0x9d, 0x9f, 0xa6, 0x95, 0x90, 0xa0, 0x8b, 0xc1, 0xad, 0x70, 0xb6, 0x96,
  0xb8, 0xc4, 0xa6, 0x7a, 0x79, 0xa4, 0x75, 0x98, 0x88, 0x8a, 0xb8, 0x91,
  0x88, 0x7b, 0x7b, 0x8c, 0x8b, 0x74, 0x9a, 0x82, 0x7e, 0xa9, 0x97, 0x7d,
  0x8e, 0x7a, 0xa8, 0x6f, 0x8e, 0x76, 0x6e, 0x95, 0xa2, 0x75, 0xb9, 0x9e,
  0x7c, 0xc3, 0x5b, 0x76, 0xc0, 0x60, 0xbd, 0x96, 0x6c, 0xa4, 0x7e, 0x80,
  0x96, 0x87, 0xb6, 0x8f, 0x8a, 0x7f, 0x84, 0xa1, 0x91, 0x76, 0xb3, 0x94,
  0x7b, 0x8c, 0x7b, 0x66, 0x67, 0x72, 0x7e, 0x8e, 0x88, 0x76, 0xbd, 0x89,
  0x86, 0x6d, 0x83, 0x79, 0x7d, 0x74, 0x92, 0x86, 0x74, 0x8c, 0x83, 0xb0,
  0x64, 0x9f, 0x97, 0xab, 0xb7, 0x91, 0x87, 0x72, 0x69, 0xb0, 0xa5, 0x89,
  0x99, 0xac, 0x70, 0x9c, 0x7a, 0x74, 0x8f, 0x9d, 0x7c, 0xa3, 0x75, 0x76,
  0x76, 0x6e, 0x8a, 0x8b, 0x80, 0x95, 0x86, 0x89, 0x7e, 0x84, 0x7f, 0x97,
  0x93, 0x7f, 0x5e, 0x64, 0x81, 0x61, 0x8f, 0x86, 0xad, 0x8c, 0x99, 0x91,
  0x89, 0x90, 0x8f, 0x89, 0x88, 0x77, 0xd5, 0x87, 0x80, 0xa4, 0x9c, 0xa1,
  0x99, 0x73, 0x9a, 0x8b, 0x83, 0x95, 0xa9, 0xa1, 0x80, 0x92, 0x8e, 0x8a,
  0x97, 0x83, 0x6c, 0x84, 0x6a, 0xaf, 0xb6, 0x8d, 0x90, 0x7a, 0x99, 0x7e,
  0xba, 0x93, 0xde, 0x5b, 0xa5, 0x8e, 0x9b, 0x76, 0x7d, 0x9b, 0xb9, 0x81,
  0x59, 0x71, 0x66, 0x7b, 0xaf, 0x74, 0xb2, 0x7a, 0x6a, 0x9b, 0x81, 0x71,
  0xa9, 0x58, 0xce, 0x96, 0x75, 0xa3, 0x55, 0x97, 0xb6, 0x58, 0xa7, 0x9e,
  0x6d, 0x7a, 0x61, 0x87, 0xb4, 0x88, 0xb3, 0x57, 0x70, 0x87, 0x86, 0x94,
  0xa2, 0x93, 0xb1, 0x93, 0x83, 0x84, 0x8d, 0xa7, 0x8b, 0xaa, 0x80, 0x9f,
  0x92, 0xa7, 0x9d, 0x8e, 0x99, 0x91, 0x6f, 0x6f, 0x88, 0x85, 0xad, 0xa3,
  0x99, 0xc1, 0x8e, 0xc7, 0x74, 0xa6, 0xaf, 0x94, 0x88, 0xa6, 0x79, 0x97,
  0x55, 0x99, 0xb3, 0x79, 0x6b, 0xa4, 0x79, 0x7f, 0x51, 0x8e, 0x6d, 0x6d,
  0x98, 0xa2, 0x97, 0x87, 0x65, 0x9a, 0xa8, 0x90, 0x7e, 0xae, 0x78, 0x82,
  0x59, 0x98, 0x83, 0x84, 0x8c, 0x5f, 0x63, 0x8c, 0x81, 0x7c, 0x89, 0x5f,
  0x67, 0x94, 0x9b, 0x85, 0x7a, 0x8a, 0x88, 0x8b, 0x87, 0x85, 0xce, 0x7e,
  0x8f, 0x8d, 0x97, 0x76, 0x7c, 0x88, 0x95, 0x93, 0x9a, 0xa6, 0xa4, 0x84,
  0x84, 0x94, 0x9c, 0x9e, 0x7a, 0x79, 0xac, 0x99, 0x9b, 0xc1, 0xb9, 0x8c,
  0x83, 0xa9, 0x7e, 0x9c, 0x78, 0x94, 0xe4, 0x7b, 0x6f, 0x72, 0x81, 0x6c,
  0x96, 0xa8, 0xd0, 0x74, 0x77, 0x71, 0x6b, 0x74, 0xcc, 0x7f, 0xd0, 0x84,
  0x4f, 0xa7, 0x56, 0x84, 0xd0, 0x43, 0xad, 0x8f, 0x7f, 0x99, 0x38, 0x8a,
  0xae, 0x4a, 0xb3, 0x68, 0x74, 0xb6, 0x66, 0x80, 0xb2, 0x80, 0xbe, 0x79,
  0x7a, 0x97, 0x7e, 0xaf, 0x9e, 0x9b, 0x9b, 0x98, 0x8c, 0xa2, 0x96, 0x8e,
  0x63, 0x81, 0x8f, 0x73, 0x8f, 0xb7, 0xb5, 0x9a, 0xa4, 0xad, 0x5e, 0xa3,
  0x76, 0x71, 0xa4, 0x91, 0x71, 0x98, 0x76, 0xa8, 0x64, 0x96, 0x92, 0x6c,
  0x7b, 0x9a, 0x60, 0x8a, 0x7a, 0xa3, 0x94, 0x88, 0x8b, 0x7c, 0x85, 0x73,
  0x77, 0x83, 0xa2, 0x96, 0x78, 0x73, 0x9b, 0x94, 0x65, 0x85, 0x93, 0xa4,
  0x98, 0xa5, 0x9c, 0xa7, 0x4e, 0x90, 0x76, 0x81, 0x90, 0x82, 0x5d, 0x91,
  0x52, 0x96, 0x7b, 0x57, 0x8f, 0x6a, 0x97, 0xb6, 0x64, 0x95, 0x5d, 0x6f,
  0x68, 0x93, 0xce, 0x8e, 0x71, 0xa0, 0x9f, 0x8d, 0x81, 0x7b, 0x5e, 0xa3,
  0x75, 0xa0, 0xa6, 0x85, 0x7f, 0x99, 0x6e, 0x96, 0x88, 0xb6, 0x77, 0x80,
  0x78, 0xb8, 0xb0, 0x8d, 0x82, 0x84, 0x83, 0x77, 0x8a, 0x9a, 0xda, 0x6a,
  0x82, 0x85, 0x7d, 0x8e, 0x90, 0xb7, 0xe2, 0x71, 0x5c, 0xac, 0x51, 0x87,
  0xb2, 0x95, 0xec, 0x6e, 0x59, 0xc0, 0x4c, 0x6f, 0xe3, 0x59, 0xbd, 0x7e,
  0x56, 0xa1, 0x3e, 0x81, 0xaf, 0x3c, 0xa9, 0x9e, 0x75, 0xa9, 0x6b, 0x88,
  0xa6, 0x5e, 0xa9, 0x71, 0x70, 0x9f, 0x82, 0x8c, 0xa5, 0x87, 0x99, 0x7b,
  0x89, 0x72, 0xa9, 0xa3, 0x91, 0x82, 0x7e, 0x89, 0x75, 0x74, 0xa8, 0xb5,
  0x61, 0x86, 0x78, 0x97, 0x6a, 0x89, 0x93, 0x9f, 0x7e, 0xab, 0x6b, 0x9c,
  0x72, 0x84, 0x8d, 0xa8, 0x92, 0xab, 0x88, 0x75, 0x62, 0x7c, 0xa4, 0x66,
  0x51, 0xa2, 0x81, 0x7d, 0x62, 0x96, 0xa3, 0x71, 0x5f, 0xa1, 0x91, 0x87,
  0x58, 0x77, 0x8f, 0x91, 0x7c, 0xa9, 0x87, 0x8f, 0x51, 0x84, 0xa9, 0x76,
  0x88, 0x93, 0x4d, 0x8b, 0x4f, 0x77, 0x87, 0x51, 0x83, 0x83, 0x9a, 0x8f,
  0x61, 0x78, 0xb0, 0x78, 0x92, 0x77, 0xac, 0x85, 0x74, 0x9a, 0xa4, 0x87,
  0xb2, 0x8b, 0xa5, 0xa3, 0x83, 0x98, 0x9a, 0x79, 0x9f, 0xb4, 0xa5, 0x8d,
  0x84, 0x81, 0x7d, 0x79, 0x9a, 0xbd, 0xb1, 0x60, 0x84, 0x9d, 0x76, 0x8d,
  0xa4, 0x9c, 0xec, 0x94, 0x48, 0x86, 0x83, 0x6a, 0x69, 0xb6, 0xc6, 0x6b,
  0x67, 0x79, 0x76, 0x8e, 0xd5, 0x88, 0xe0, 0x7e, 0x4d, 0x96, 0x5d, 0x80,
  0xe9, 0x55, 0xd4, 0x81, 0x67, 0x9b, 0x40, 0x84, 0xb8, 0x55, 0xce, 0x6d,
  0x80, 0xa0, 0x76, 0xad, 0xaf, 0x71, 0xba, 0x64, 0x91, 0xa3, 0x86, 0xb9,
  0x93, 0x7d, 0x8c, 0x87, 0x78, 0x9e, 0x91, 0xab, 0x87, 0x89, 0x83, 0x9f,
  0x85, 0x95, 0xc5, 0x93, 0x8a, 0xa0, 0x7f, 0xbb, 0x75, 0x88, 0xc5, 0xbc,
  0x9f, 0x86, 0x74, 0xa0, 0x60, 0x8f, 0xae, 0x84, 0x89, 0x89, 0x72, 0x79,
  0x5e, 0x84, 0xa0, 0x7f, 0x71, 0x9e, 0x96, 0x6f, 0x74, 0x8f, 0xa2, 0x6d,
  0x6d, 0x8f, 0x8f, 0x84, 0x54, 0x98, 0xbc, 0x97, 0x81, 0xaf, 0x7d, 0x83,
  0x6c, 0x89, 0x93, 0x7f, 0x76, 0x94, 0x80, 0x9a, 0x49, 0x96, 0x72, 0x79,
  0xaa, 0x86, 0x84, 0x9d, 0x4b, 0x76, 0x84, 0x91, 0x85, 0x81, 0xca, 0xa5,
  0x7c, 0x74, 0xb3, 0x7b, 0x97, 0x97, 0x8b, 0x5d, 0x7f, 0x9e, 0xa7, 0x81,
  0xbc, 0x8e, 0x91, 0xa8, 0x91, 0x8b, 0x77, 0x77, 0x87, 0xa7, 0xbc, 0x5f,
  0x6e, 0x9a, 0x73, 0x93, 0xb2, 0xa8, 0xe5, 0x84, 0x6d, 0xa0, 0x71, 0x7c,
  0x87, 0x90, 0xc8, 0x60, 0x65, 0x94, 0x6c, 0x86, 0xb1, 0x93, 0xdd, 0x4b,
  0x69, 0x9c, 0x58, 0x8b, 0xed, 0x4f, 0xea, 0x62, 0x62, 0xa8, 0x68, 0x92,
  0xbe, 0x4a, 0xd7, 0x64, 0x6a, 0xa5, 0x84, 0x93, 0x9a, 0x72, 0xbf, 0x89,
  0x72, 0xa5, 0x6d, 0x94, 0x94, 0x77, 0x9f, 0x8a, 0x6f, 0x8e, 0x9a, 0x93,
  0xae, 0x95, 0x8a, 0x5a, 0x98, 0x87, 0xb1, 0x9b, 0x71, 0x7d, 0x7d, 0xb9,
  0x65, 0x85, 0x9d, 0x97, 0xb0, 0x9a, 0x7b, 0x90, 0x68, 0x75, 0xb7, 0xaa,
  0x9e, 0x9b, 0x60, 0x8a, 0x50, 0x76, 0x93, 0x7e, 0x77, 0xac, 0x84, 0x7b,
  0x53, 0xb8, 0x9c, 0x93, 0x7f, 0x9a, 0x9f, 0x93, 0x5d, 0x73, 0xc9, 0x98,
  0x6c, 0xab, 0x8f, 0x8f, 0x48, 0x7d, 0xaf, 0x6e, 0x7f, 0xb1, 0x53, 0x69,
  0x4a, 0xa7, 0xae, 0x84, 0xb2, 0x9b, 0x78, 0x77, 0x71, 0x83, 0x79, 0x95,
  0x83, 0x61, 0xaf, 0x85, 0x80, 0x70, 0xa9, 0x83, 0x82, 0x9e, 0x90, 0xa4,
  0x9a, 0x7e, 0x92, 0x6a, 0x8f, 0x93, 0x95, 0x92, 0x8b, 0xb8, 0x7d, 0x7d,
  0xa8, 0xab, 0xb7, 0x70, 0x7e, 0xab, 0x74, 0x5e, 0xbb, 0x98, 0xc3, 0x6a,
  0x7b, 0x92, 0x68, 0x6b, 0x75, 0x7d, 0xc6, 0x59, 0x55, 0x8f, 0x66, 0x7c,
  0xde, 0x87, 0xe9, 0x7d, 0x48, 0x90, 0x5c, 0x82, 0xeb, 0x53, 0xc1, 0x87,
  0x58, 0x9a, 0x50, 0x7e, 0xd0, 0x69, 0xe4, 0x78, 0x65, 0xb8, 0x61, 0x9d,
  0xaf, 0x7f, 0xb7, 0x95, 0x70, 0xa9, 0x73, 0x9f, 0xa3, 0x93, 0xac, 0x74,
  0x98, 0xab, 0x9e, 0x9f, 0x63, 0x99, 0x80, 0x72, 0x75, 0xcc, 0x9e, 0x8b,
  0x74, 0x9e, 0x71, 0xa9, 0x75, 0x9b, 0xa9, 0x8d, 0x8d, 0x96, 0x71, 0x95,
  0x61, 0x9e, 0x94, 0xa2, 0x85, 0x9b, 0x6f, 0x7a, 0x5d, 0xba, 0x90, 0x87,
  0x53, 0x8e, 0x92, 0x5f, 0x50, 0x93, 0xc4, 0x9f, 0x90, 0xbe, 0x8c, 0x67,
  0x32, 0x9a, 0xa4, 0x94, 0x8e, 0xb2, 0x8c, 0x75, 0x52, 0x84, 0xa5, 0x72,
  0x7e, 0xb4, 0x7d, 0x78, 0x6d, 0x5e, 0x73, 0x7c, 0xac, 0x77, 0x8e, 0x90,
  0x6b, 0x91, 0x7a, 0x93, 0x87, 0x61, 0xc1, 0x92, 0x7b, 0x9b, 0xbc, 0x8f,
  0x68, 0xa3, 0x66, 0x9b, 0x66, 0x7f, 0xa3, 0x8a, 0x9b, 0x9e, 0x87, 0x8d,
  0x8e, 0xaa, 0x6c, 0x6d, 0xab, 0xa6, 0xd5, 0x73, 0x6c, 0x88, 0x7f, 0x61,
  0xb1, 0x8f, 0xdb, 0x8d, 0x7c, 0x90, 0x50, 0x71, 0x79, 0xa8, 0xc7, 0x75,
  0x68, 0xb5, 0x83, 0x76, 0xcf, 0x9a, 0xde, 0x8a, 0x6a, 0xaf, 0x7b, 0x78,
  0xfc, 0x59, 0xdf, 0x8b, 0x65, 0x89, 0x59, 0x7f, 0xd0, 0x75, 0xdc, 0x95,
  0x60, 0x93, 0x70, 0x9e, 0xb7, 0x7e, 0xd2, 0x73, 0x7e, 0x9d, 0x59, 0x92,
  0x78, 0x7a, 0xc2, 0x53, 0x74, 0x8f, 0x85, 0x97, 0x99, 0x8e, 0xa7, 0x67,
  0x83, 0xa0, 0xb7, 0x83, 0xa0, 0x9b, 0x70, 0xb8, 0x77, 0xb7, 0x97, 0x82,
  0x62, 0xa9, 0x6e, 0x93, 0x5e, 0x8a, 0xa4, 0xa4, 0x6c, 0xa4, 0x65, 0x64,
  0x73, 0xa3, 0x97, 0x88, 0x85, 0x8e, 0x86, 0x57, 0x53, 0x8a, 0x88, 0x90,
  0x84, 0x9b, 0xa6, 0x7f, 0x3e, 0xa3, 0xae, 0x87, 0x85, 0xa5, 0x92, 0x73,
  0x42, 0x91, 0xb6, 0x88, 0x9a, 0xd4, 0x8e, 0x67, 0x58, 0x69, 0x8d, 0x9d,
  0xa1, 0x8a, 0x9d, 0x8f, 0x70, 0x77, 0x79, 0x81, 0x80, 0x9e, 0xb5, 0x89,
  0x5a, 0xa4, 0xa0, 0x78, 0x65, 0xa3, 0x92, 0x82, 0x70, 0x96, 0x90, 0x85,
  0x9f, 0x9c, 0x87, 0x99, 0x74, 0xa8, 0x7b, 0x46, 0x92, 0x8c, 0xa6, 0x6c,
  0x94, 0x82, 0x76, 0x56, 0xa1, 0xa1, 0xda, 0x74, 0x62, 0x92, 0x88, 0x5a,
  0x63, 0x8e, 0xb9, 0x60, 0x74, 0x86, 0x6a, 0x85, 0xc1, 0xb2, 0xdd, 0x5c,
  0x68, 0x71, 0x73, 0x88, 0xec, 0x5f, 0xc8, 0x8b, 0x62, 0x99, 0x75, 0x71,
  0xd0, 0x79, 0xd2, 0x77, 0x66, 0xa4, 0x8d, 0x95, 0xd3, 0x8c, 0xbe, 0x74,
  0x75, 0xbb, 0x5d, 0x8f, 0x68, 0x84, 0x9b, 0x89, 0x7e, 0xa6, 0x7a, 0x91,
  0x7d, 0x8c, 0x76, 0x63, 0x79, 0xae, 0xa9, 0x93, 0x91, 0xa9, 0x86, 0x91,
  0x7d, 0xa8, 0xaf, 0x9c, 0x6c, 0xbe, 0x53, 0x78, 0x70, 0xa6, 0xa3, 0x9e,
  0x70, 0xa9, 0x75, 0x8d, 0x57, 0xa1, 0x88, 0xa0, 0x6d, 0xa8, 0x8a, 0x50,
  0x4f, 0xad, 0xb5, 0xaf, 0x8e, 0xbb, 0x96, 0x66, 0x56, 0xa4, 0x99, 0x8d,
  0x88, 0xb6, 0xa3, 0x75, 0x46, 0x7f, 0xbe, 0x80, 0x96, 0xc3, 0x8f, 0x77,
  0x48, 0x66, 0x74, 0x88, 0xa9, 0x92, 0x9e, 0x8a, 0x5e, 0x6b, 0x94, 0x8c,
  0x93, 0x74, 0xbd, 0x91, 0x67, 0x67, 0xb6, 0x6b, 0x7d, 0x8c, 0x95, 0x8d,
  0x5c, 0xa3, 0xa3, 0x8c, 0x8d, 0x89, 0x86, 0x5d, 0x87, 0x92, 0x73, 0x46,
  0x99, 0x90, 0xb3, 0x5e, 0x70, 0xa1, 0x78, 0x58, 0x89, 0x87, 0xc3, 0x87,
  0x71, 0xae, 0x6f, 0x50, 0x8e, 0x91, 0xce, 0x5f, 0x60, 0x7a, 0x7d, 0x6a,
  0xdc, 0x9d, 0xdb, 0xa0, 0x5e, 0x83, 0x80, 0x78, 0xfc, 0x65, 0xce, 0x75,
  0x61, 0xa9, 0x61, 0x80, 0xc4, 0x88, 0xb1, 0x7d, 0x6f, 0xae, 0x55, 0x9c,
  0xd1, 0x7f, 0xb9, 0x79, 0x80, 0xb3, 0x69, 0x8f, 0x66, 0x98, 0xbd, 0x88,
  0x8c, 0x9f, 0x9b, 0xb0, 0x96, 0xaf, 0x7c, 0x75, 0x76, 0xc0, 0xad, 0x9b,
  0x88, 0xa1, 0x75, 0xbf, 0x91, 0xaf, 0xb7, 0x93, 0x6c, 0xd5, 0x66, 0x5e,
  0x71, 0xc1, 0x9d, 0xa0, 0x8b, 0xb5, 0x72, 0x6a, 0x6b, 0xbe, 0x76, 0x87,
  0x6f, 0xa6, 0x89, 0x7b, 0x5a, 0x8d, 0x8f, 0x7e, 0x7a, 0xbf, 0xa1, 0x70,
  0x60, 0xa5, 0x82, 0x70, 0x80, 0xb9, 0x90, 0x44, 0x32, 0xa9, 0xb7, 0x78,
  0x90, 0xc4, 0x83, 0x6b, 0x4f, 0x94, 0x9c, 0x9a, 0xae, 0x85, 0xac, 0x87,
  0x51, 0x75, 0x9a, 0x8f, 0x92, 0x9d, 0xba, 0x90, 0x88, 0x88, 0xa8, 0x64,
  0x94, 0x92, 0xb0, 0x97, 0x62, 0x94, 0x92, 0x6e, 0x63, 0x9e, 0x81, 0x8a,
  0x8a, 0x99, 0x65, 0x4f, 0xa4, 0x87, 0xba, 0x56, 0x74, 0x9d, 0x75, 0x4e,
  0x9b, 0x80, 0xc2, 0xaa, 0x6a, 0xc5, 0x71, 0x67, 0x94, 0xa5, 0xd4, 0x59,
  0x54, 0xa9, 0x7f, 0x73, 0xd5, 0x99, 0xc5, 0x6e, 0x57, 0x83, 0x7a, 0x74,
  0xff, 0x86, 0xd9, 0x73, 0x5b, 0x7b, 0x9b, 0x85, 0xb6, 0x4b, 0xbf, 0x83,
  0x73, 0xa8, 0x66, 0xab, 0xb9, 0x66, 0xc3, 0x63, 0x7e, 0x9f, 0x67, 0x91,
  0x90, 0x78, 0xd0, 0x7a, 0x8f, 0xa4, 0x93, 0x93, 0x77, 0xad, 0x99, 0x9f,
  0x95, 0x8d, 0xaa, 0x8d, 0x87, 0xaa, 0x7d, 0xa2, 0x6d, 0xb2, 0x99, 0x75,
  0x57, 0xc4, 0x7e, 0x8d, 0x66, 0xa1, 0x96, 0xaa, 0x7c, 0x8b, 0x75, 0x95,
  0x4e, 0xaf, 0x66, 0x9f, 0x88, 0x96, 0x74, 0x4f, 0x53, 0x81, 0xbb, 0x80,
  0x89, 0xc6, 0x85, 0x4d, 0x59, 0x84, 0x9a, 0x85, 0x9d, 0xbf, 0xa3, 0x62,
  0x55, 0xa7, 0xa3, 0x7e, 0x80, 0xce, 0xa1, 0x86, 0x45, 0x84, 0xb3, 0xab,
  0x93, 0x77, 0xb0, 0xa3, 0x7a, 0x78, 0xbd, 0x86, 0x96, 0x80, 0xae, 0x8b,
  0x5c, 0x81, 0xa9, 0x76, 0x64, 0xa8, 0x87, 0x61, 0x82, 0x81, 0x9a, 0x78,
  0x80, 0x92, 0x90, 0x7a, 0x79, 0xa9, 0x63, 0x53, 0x9c, 0x8d, 0xb9, 0x76,
  0x81, 0x9d, 0x71, 0x39, 0xaf, 0x7f, 0xd1, 0x6b, 0x61, 0xb1, 0x7a, 0x65,
  0x80, 0x80, 0xaa, 0x55, 0x61, 0x97, 0x81, 0x7c, 0xbb, 0xbc, 0xd4, 0xa6,
  0x53, 0x86, 0x6d, 0x68, 0xf1, 0x78, 0xc5, 0x77, 0x4f, 0x7c, 0xa1, 0x87,
  0xd0, 0x77, 0xc8, 0x9f, 0x5e, 0x91, 0x62, 0x9b, 0xbf, 0x75, 0xe0, 0x6c,
  0x90, 0xab, 0x66, 0xa7, 0xb2, 0x8d, 0xab, 0x8a, 0x6d, 0x99, 0x8a, 0x8b,
  0x85, 0xaf, 0xaa, 0x8c, 0x86, 0xbb, 0xe3, 0x81, 0x78, 0xc8, 0x71, 0x98,
  0x6b, 0x96, 0xbc, 0x9d, 0x63, 0xc2, 0x73, 0x7f, 0x7c, 0xa0, 0x95, 0x95,
  0x8e, 0x9d, 0x70, 0x69, 0x68, 0xb6, 0x81, 0x83, 0x76, 0xc3, 0x8f, 0x6d,
  0x53, 0xba, 0xab, 0x8a, 0x73, 0xcc, 0x74, 0x57, 0x47, 0x9c, 0x97, 0x86,
  0x8a, 0xca, 0x96, 0x6a, 0x50, 0x7c, 0xb3, 0x89, 0xad, 0xb9, 0x9c, 0x8d,
  0x46, 0x8a, 0x9d, 0xa0, 0x9c, 0x7a, 0x93, 0x9e, 0x70, 0x7a, 0x92, 0x9e,
  0x8e, 0x8a, 0xb3, 0x9b, 0x68, 0x7d, 0xb7, 0x78, 0x6a, 0x96, 0x87, 0x8b,
  0x72, 0x9b, 0xaa, 0x84, 0x85, 0xb4, 0x86, 0x4b, 0x7f, 0x86, 0x60, 0x2b,
  0xb2, 0xa6, 0xb0, 0x8b, 0x74, 0x81, 0x55, 0x41, 0xb8, 0x95, 0xcb, 0x67,
  0x6f, 0xbd, 0x7e, 0x59, 0x90, 0x8f, 0xdf, 0x5e, 0x45, 0xb2, 0x99, 0x78,
  0xae, 0x94, 0xc9, 0x68, 0x49, 0x89, 0x84, 0x7b, 0xff, 0x71, 0xb2, 0x86,
  0x5a, 0x84, 0x7b, 0x89, 0xd4, 0x6c, 0xcc, 0x7c, 0x7f, 0xcc, 0x6c, 0xa7,
  0xba, 0x6b, 0xd1, 0x66, 0x74, 0x9d, 0x74, 0x88, 0x9a, 0x82, 0xd6, 0x62,
  0x81, 0xaa, 0x87, 0x91, 0x73, 0xab, 0x94, 0x92, 0x86, 0x9c, 0xb1, 0x93,
  0xa0, 0xc4, 0x80, 0xb0, 0x79, 0xab, 0xb4, 0x85, 0x61, 0xc3, 0x77, 0x85,
  0x68, 0x8a, 0xa2, 0x93, 0x86, 0xab, 0x75, 0x91, 0x54, 0x8e, 0x95, 0xa3,
  0x83, 0x94, 0x97, 0x6c, 0x57, 0x86, 0xb2, 0x8b, 0x8a, 0xc6, 0x8e, 0x62,
  0x55, 0xb0, 0x95, 0x8c, 0x7e, 0xc4, 0x93, 0x47, 0x58, 0x90, 0xa8, 0x9a,
  0x82, 0xac, 0x94, 0x6f, 0x6d, 0xa1, 0x85, 0xa5, 0xa5, 0x8c, 0x99, 0x73,
  0x7a, 0x67, 0x8d, 0xa0, 0x86, 0x90, 0xaa, 0xa3, 0x88, 0x86, 0xaa, 0x7b,
  0x9d, 0x95, 0x96, 0x99, 0x7e, 0x79, 0x9c, 0x78, 0x6e, 0xa4, 0x5f, 0x92,
  0x76, 0x8b, 0x81, 0x58, 0x9d, 0x9a, 0x8a, 0x97, 0x75, 0x8b, 0x47, 0x2a,
  0x9e, 0x89, 0xc2, 0x85, 0x5e, 0xa6, 0x65, 0x4e, 0x8b, 0xa7, 0xd1, 0x5c,
  0x50, 0x97, 0x85, 0x9d, 0xdd, 0xac, 0xd6, 0x7f, 0x5e, 0x83, 0x7c, 0x86,
  0xdc, 0x86, 0xcb, 0x8b, 0x63, 0x88, 0x80, 0x8e, 0xd4, 0x5a, 0xc0, 0x93,
  0x71, 0x81, 0x98, 0x82, 0xcc, 0x68, 0xd1, 0x60, 0x72, 0x96, 0x70, 0x99,
  0xaf, 0x90, 0xb2, 0x76, 0x79, 0xba, 0x8f, 0x69, 0x92, 0xb2, 0x93, 0x62,
  0x80, 0xaa, 0xc7, 0x82, 0x94, 0xb4, 0x97, 0xa9, 0x6c, 0xb8, 0xad, 0x85,
  0x63, 0xab, 0x57, 0x82, 0x74, 0x7e, 0x8d, 0x8d, 0x8b, 0xaa, 0x90, 0xa6,
  0x5a, 0x9d, 0x8c, 0x97, 0x99, 0x88, 0xa2, 0x4e, 0x5d, 0xb1, 0xbe, 0x83,
  0x72, 0xc1, 0x98, 0x67, 0x5c, 0x8f, 0x81, 0x96, 0x76, 0xc3, 0xa3, 0x53,
  0x41, 0x8d, 0x9e, 0x9a, 0xac, 0xcc, 0x93, 0x6e, 0x3d, 0xad, 0x66, 0x97,
  0x97, 0xab, 0x78, 0x77, 0x75, 0x60, 0x85, 0x99, 0x98, 0xb2, 0xb0, 0x9b,
  0x7b, 0x67, 0xa1, 0x66, 0x94, 0xaf, 0x93, 0x93, 0x98, 0x60, 0xa6, 0x75,
  0x7c, 0xa0, 0x88, 0xa6, 0x8e, 0x56, 0xa1, 0x4f, 0xaa, 0x86, 0xb6, 0x8c,
  0x8d, 0x7a, 0x67, 0x21, 0xb8, 0x85, 0xc8, 0x62, 0x81, 0x8d, 0x70, 0x75,
  0xa3, 0x94, 0xbd, 0x4b, 0x63, 0xa0, 0x92, 0x8e, 0xc7, 0xbe, 0xbc, 0x89,
  0x52, 0x86, 0x8f, 0x8c, 0xec, 0x6b, 0xd0, 0xa4, 0x67, 0xb1, 0x76, 0x81,
  0xd2, 0x68, 0xac, 0x5b, 0x59, 0x92, 0x87, 0x8d, 0xd3, 0x81, 0xbf, 0x78,
  0x83, 0x9f, 0x7f, 0x92, 0x9e, 0xae, 0x9f, 0x5a, 0x7d, 0xac, 0x89, 0x7f,
  0x8f, 0xb1, 0xab, 0x79, 0x87, 0xaa, 0xc5, 0x82, 0xad, 0xc1, 0x89, 0x8f,
  0x82, 0xbc, 0x83, 0x8b, 0x61, 0xb9, 0x58, 0x9d, 0x76, 0x93, 0xa0, 0x95,
  0x6f, 0xbb, 0x85, 0x7e, 0x66, 0xae, 0x93, 0xaf, 0x94, 0xad, 0x8d, 0x5a,
  0x6d, 0x90, 0xaf, 0x70, 0xa8, 0xc0, 0xa8, 0x5a, 0x6f, 0x92, 0x8e, 0x7c,
  0x60, 0xb9, 0x95, 0x48, 0x46, 0xac, 0x8c, 0x85, 0x95, 0xc7, 0x98, 0x7e,
  0x69, 0xa3, 0x7d, 0x9a, 0x9b, 0x75, 0x9d, 0x8f, 0x7c, 0x74, 0x6c, 0x91,
  0x9a, 0xc5, 0xa0, 0x93, 0x6e, 0x97, 0x9f, 0x7f, 0x93, 0x8f, 0x92, 0x63,
  0x74, 0x7b, 0xb9, 0x78, 0x65, 0x99, 0x73, 0x83, 0x88, 0x7b, 0x7f, 0x52,
  0xaf, 0x89, 0x8c, 0x82, 0x87, 0x73, 0x6c, 0x31, 0xc4, 0xa1, 0xe1, 0x74,
  0x5c, 0xa4, 0x61, 0x62, 0x88, 0x98, 0xb7, 0x63, 0x6b, 0x90, 0x89, 0x9a,
  0xc2, 0xb2, 0xc2, 0x84, 0x6b, 0x80, 0x87, 0x7b, 0xf0, 0x7b, 0xb6, 0x89,
  0x76, 0x7c, 0x91, 0xa4, 0xbc, 0x6d, 0xcb, 0x8e, 0x5f, 0x76, 0x9c, 0x8e,
  0xc6, 0x6b, 0xac, 0x69, 0x8a, 0x90, 0x4d, 0x98, 0xa6, 0x70, 0x9b, 0x61,
  0x7f, 0xa9, 0x83, 0x87, 0x70, 0x97, 0xa0, 0x69, 0x88, 0x99, 0xc1, 0x8d,
  0x8d, 0xa3, 0x83, 0xb2, 0x6d, 0xb7, 0xaf, 0x95, 0x69, 0xc5, 0x72, 0x82,
  0x6b, 0xa8, 0x9f, 0xab, 0x74, 0xa1, 0x54, 0xab, 0x6d, 0xd3, 0x99, 0x87,
  0x7f, 0xa2, 0x86, 0x68, 0x83, 0x89, 0xb5, 0x8b, 0x5c, 0xa1, 0xb7, 0x4b,
  0x65, 0xb2, 0x92, 0x87, 0x7b, 0xb7, 0x9e, 0x68, 0x49, 0x7b, 0x80, 0x92,
  0x99, 0xb6, 0xb6, 0x87, 0x88, 0x8a, 0x9f, 0x9a, 0xb0, 0x9f, 0x86, 0x88,
  0x7c, 0x86, 0x7b, 0xa2, 0x90, 0x77, 0x91, 0xaa, 0x83, 0x98, 0x9f, 0x51,
  0xa2, 0x9c, 0x7d, 0xae, 0x75, 0x7a, 0x99, 0x7b, 0x80, 0xad, 0x63, 0xac,
  0x6a, 0x5d, 0x87, 0x3d, 0xa5, 0xa2, 0x93, 0xa2, 0x83, 0x90, 0x5f, 0x21,
  0x99, 0x86, 0xd9, 0x8a, 0x73, 0x9e, 0x67, 0x7e, 0x75, 0x94, 0xb7, 0x3e,
  0x4d, 0x71, 0x91, 0x96, 0xaa, 0xa3, 0xe0, 0x7b, 0x60, 0x87, 0x97, 0xa1,
  0xe8, 0x7c, 0xcb, 0x94, 0x7b, 0x87, 0x64, 0xa1, 0xd9, 0x61, 0xba, 0x65,
  0xa4, 0x90, 0x78, 0x87, 0xb3, 0x6b, 0xcb, 0x60, 0x75, 0xbb, 0x64, 0x9b,
  0x92, 0x84, 0xb5, 0x82, 0x82, 0x9a, 0x93, 0x83, 0x88, 0x89, 0x88, 0x7c,
  0x79, 0xa3, 0xc4, 0x96, 0xb6, 0xa3, 0x89, 0xb7, 0x76, 0xc7, 0xa5, 0xa2,
  0x51, 0xb3, 0x62, 0x73, 0x76, 0xc7, 0x91, 0xa1, 0x7a, 0x9f, 0x6b, 0x92,
  0x75, 0x9e, 0xb0, 0x92, 0x79, 0x89, 0x8b, 0x69, 0x6d, 0x7b, 0xb8, 0x6d,
  0x8b, 0xb0, 0x93, 0x5c, 0x75, 0x83, 0xac, 0x81, 0x51, 0xac, 0x90, 0x76,
  0x5d, 0xb6, 0x9b, 0xa4, 0x7e, 0x97, 0x87, 0x90, 0x76, 0x69, 0x96, 0xa8,
  0x9f, 0x8d, 0x8b, 0x94, 0x7a, 0x4c, 0xaa, 0x89, 0x91, 0x9f, 0x9e, 0x8a,
  0xa0, 0x6a, 0xa5, 0x37, 0x8a, 0x92, 0xab, 0x8e, 0xaa, 0x84, 0xc0, 0x77,
  0x74, 0xb6, 0x5b, 0xa8, 0x86, 0x68, 0x86, 0x35, 0x92, 0x93, 0xa0, 0x91,
  0x78, 0x7c, 0x66, 0x3a, 0xa6, 0x97, 0xe0, 0x7e, 0x98, 0x97, 0x6f, 0x67,
  0x66, 0xa8, 0xc9, 0x39, 0x7c, 0x91, 0x74, 0xa3, 0xbe, 0x8f, 0xc9, 0x9a,
  0x6a, 0x82, 0x8b, 0x97, 0xdf, 0x94, 0xbe, 0xbd, 0x7c, 0x8e, 0x76, 0x9e,
  0xd6, 0x65, 0xbf, 0x9c, 0x99, 0x80, 0x7e, 0x7e, 0xb1, 0x78, 0xc3, 0x6e,
  0xa4, 0x7a, 0x51, 0x95, 0xad, 0x84, 0xbd, 0x5e, 0x85, 0x80, 0x93, 0x94,
  0x76, 0x8c, 0x97, 0x95, 0x6a, 0x87, 0xb2, 0x82, 0x9b, 0xcb, 0x80, 0xa6,
  0x8e, 0xc2, 0xb0, 0x7d, 0x5b, 0xba, 0x4c, 0x72, 0x78, 0xab, 0x9c, 0x8f,
  0x97, 0x96, 0x56, 0x50, 0x66, 0x8c, 0x92, 0x8d, 0x74, 0x95, 0x80, 0x57,
  0x59, 0x9c, 0x78, 0x88, 0x81, 0x87, 0xc0, 0x7b, 0x6b, 0x9a, 0xa0, 0x76,
  0x6e, 0xa7, 0xa3, 0x78, 0x65, 0x7c, 0x9c, 0x87, 0x92, 0xb9, 0x8a, 0x8e,
  0x7b, 0xb4, 0x95, 0x98, 0x9a, 0x99, 0x96, 0x81, 0x92, 0x65, 0xa3, 0x9e,
  0x91, 0x83, 0x95, 0x98, 0x9c, 0x8e, 0xa8, 0x50, 0x9c, 0xa7, 0x73, 0x82,
  0x8d, 0x73, 0xb2, 0x67, 0x91, 0x94, 0x6c, 0x8b, 0x6c, 0x88, 0xab, 0x3a,
  0xa8, 0x8c, 0x9d, 0x96, 0x74, 0x90, 0x6e, 0x29, 0xa1, 0x8a, 0xc1, 0x70,
  0x84, 0x88, 0x72, 0x5c, 0x60, 0x98, 0xb3, 0x80, 0x72, 0x89, 0x93, 0x87,
  0xb7, 0x9e, 0xce, 0x82, 0x75, 0x84, 0x85, 0xbe, 0xd5, 0x94, 0xb4, 0x9c,
  0x6f, 0x86, 0x91, 0x81, 0xc7, 0x80, 0xcf, 0x80, 0x91, 0x97, 0x81, 0x7f,
  0xbe, 0x74, 0xcc, 0x46, 0x97, 0xaa, 0x54, 0x9a, 0xb5, 0x7b, 0xaa, 0x59,
  0x6c, 0x8b, 0xa5, 0x82, 0x8b, 0xa5, 0xb1, 0x67, 0x89, 0x84, 0xb7, 0x8d,
  0x6d, 0xba, 0x90, 0x8a, 0x88, 0xb9, 0xa3, 0x7a, 0x6d, 0xb0, 0x7f, 0x72,
  0x79, 0x8a, 0x9e, 0x8a, 0x6f, 0x91, 0x64, 0x61, 0x7b, 0xc3, 0x98, 0x7e,
  0x91, 0x7d, 0xa2, 0x55, 0x68, 0x8b, 0xab, 0x90, 0x99, 0x90, 0x95, 0x73,
  0x61, 0xa8, 0xb5, 0x98, 0x8c, 0xb3, 0x99, 0x61, 0x61, 0x78, 0x88, 0x93,
  0x88, 0xba, 0x7d, 0x79, 0x89, 0x93, 0x90, 0x8c, 0xa7, 0x8b, 0xa5, 0x87,
  0x85, 0x6c, 0x89, 0x7c, 0xa5, 0x8a, 0x99, 0x9e, 0x8a, 0x51, 0xc2, 0x4b,
  0x62, 0xaa, 0xa2, 0x79, 0x6d, 0x80, 0xb2, 0x77, 0x91, 0x94, 0x7a, 0x9c,
  0x90, 0x76, 0x82, 0x47, 0xc7, 0x9a, 0xaa, 0xa3, 0x5e, 0x64, 0x4e, 0x26,
  0xa0, 0x96, 0xa7, 0x7c, 0x7e, 0x8d, 0x85, 0x6e, 0x7a, 0xb7, 0x9d, 0x7c,
  0x60, 0x9e, 0x92, 0x83, 0xb8, 0xb7, 0xc6, 0x9b, 0x8f, 0x78, 0x99, 0x8a,
  0xcf, 0xae, 0xb4, 0x94, 0x6f, 0x8c, 0xa4, 0x94, 0xdb, 0x6b, 0xbd, 0x8d,
