/* Copyright 2018 The TensorFlow Authors. All Rights Reserved.

Licensed under the Apache License, Version 2.0 (the "License");
you may not use this file except in compliance with the License.
You may obtain a copy of the License at

    http://www.apache.org/licenses/LICENSE-2.0

Unless required by applicable law or agreed to in writing, software
distributed under the License is distributed on an "AS IS" BASIS,
WITHOUT WARRANTIES OR CONDITIONS OF ANY KIND, either express or implied.
See the License for the specific language governing permissions and
limitations under the License.
==============================================================================*/

// Automatically created from a TensorFlow Lite flatbuffer using the command:
// xxd -i tiny_conv.tflite > tiny_conv_simple_features_model_data.cc
// See the README for a full description of the creation process.

#include "micro_features_tiny_conv_micro_features_model_data.h"

// We need to keep the data array aligned on some architectures.
#ifdef __has_attribute
#define HAVE_ATTRIBUTE(x) __has_attribute(x)
#else
#define HAVE_ATTRIBUTE(x) 0
#endif
#if HAVE_ATTRIBUTE(aligned) || (defined(__GNUC__) && !defined(__clang__))
#define DATA_ALIGN_ATTRIBUTE __attribute__((aligned(4)))
#else
#define DATA_ALIGN_ATTRIBUTE
#endif

const unsigned char
    g_tiny_conv_micro_features_model_data[] DATA_ALIGN_ATTRIBUTE = {
        0x1c, 0x00, 0x00, 0x00, 0x54, 0x46, 0x4c, 0x33, 0x00, 0x00, 0x00, 0x00,
  0x00, 0x00, 0x0e, 0x00, 0x18, 0x00, 0x04, 0x00, 0x08, 0x00, 0x0c, 0x00,
  0x10, 0x00, 0x14, 0x00, 0x0e, 0x00, 0x00, 0x00, 0x03, 0x00, 0x00, 0x00,
  0x14, 0x66, 0x00, 0x00, 0x0c, 0x00, 0x00, 0x00, 0x10, 0x00, 0x00, 0x00,
  0x20, 0x00, 0x00, 0x00, 0x01, 0x00, 0x00, 0x00, 0x74, 0x00, 0x00, 0x00,
  0x0f, 0x00, 0x00, 0x00, 0x54, 0x4f, 0x43, 0x4f, 0x20, 0x43, 0x6f, 0x6e,
  0x76, 0x65, 0x72, 0x74, 0x65, 0x64, 0x2e, 0x00, 0x09, 0x00, 0x00, 0x00,
  0x54, 0x00, 0x00, 0x00, 0x48, 0x00, 0x00, 0x00, 0x3c, 0x00, 0x00, 0x00,
  0x34, 0x00, 0x00, 0x00, 0x2c, 0x00, 0x00, 0x00, 0x24, 0x00, 0x00, 0x00,
  0x18, 0x00, 0x00, 0x00, 0x10, 0x00, 0x00, 0x00, 0x04, 0x00, 0x00, 0x00,
  0x06, 0x9b, 0xff, 0xff, 0x10, 0x01, 0x00, 0x00, 0xb4, 0x9a, 0xff, 0xff,
  0x12, 0x9b, 0xff, 0xff, 0xc8, 0x5f, 0x00, 0x00, 0xc0, 0x9a, 0xff, 0xff,
  0xc4, 0x9a, 0xff, 0xff, 0xc8, 0x9a, 0xff, 0xff, 0x26, 0x9b, 0xff, 0xff,
  0xe4, 0x63, 0x00, 0x00, 0x2e, 0x9b, 0xff, 0xff, 0x70, 0x64, 0x00, 0x00,
  0xdc, 0x9a, 0xff, 0xff, 0xc0, 0x9c, 0xff, 0xff, 0x20, 0x00, 0x00, 0x00,
  0x14, 0x00, 0x00, 0x00, 0x08, 0x00, 0x00, 0x00, 0x74, 0x64, 0x00, 0x00,
  0x01, 0x00, 0x00, 0x00, 0x05, 0x00, 0x00, 0x00, 0x01, 0x00, 0x00, 0x00,
  0x03, 0x00, 0x00, 0x00, 0x08, 0x00, 0x00, 0x00, 0x5c, 0x63, 0x00, 0x00,
  0xdc, 0x63, 0x00, 0x00, 0x74, 0x5e, 0x00, 0x00, 0xf4, 0x61, 0x00, 0x00,
  0x64, 0x62, 0x00, 0x00, 0xcc, 0x62, 0x00, 0x00, 0xd4, 0x5e, 0x00, 0x00,
  0x04, 0x00, 0x00, 0x00, 0x4e, 0x9c, 0xff, 0xff, 0x00, 0x00, 0x00, 0x03,
  0x10, 0x00, 0x00, 0x00, 0x08, 0x00, 0x00, 0x00, 0x14, 0x00, 0x00, 0x00,
  0x48, 0x00, 0x00, 0x00, 0x02, 0x00, 0x00, 0x00, 0x06, 0x00, 0x00, 0x00,
  0xa0, 0x0f, 0x00, 0x00, 0x31, 0x00, 0x00, 0x00, 0x77, 0x65, 0x69, 0x67,
  0x68, 0x74, 0x73, 0x5f, 0x71, 0x75, 0x61, 0x6e, 0x74, 0x5f, 0x31, 0x2f,
  0x46, 0x61, 0x6b, 0x65, 0x51, 0x75, 0x61, 0x6e, 0x74, 0x57, 0x69, 0x74,
  0x68, 0x4d, 0x69, 0x6e, 0x4d, 0x61, 0x78, 0x56, 0x61, 0x72, 0x73, 0x2f,
  0x74, 0x72, 0x61, 0x6e, 0x73, 0x70, 0x6f, 0x73, 0x65, 0x00, 0x00, 0x00,
  0x64, 0x9d, 0xff, 0xff, 0x30, 0x00, 0x00, 0x00, 0x24, 0x00, 0x00, 0x00,
  0x18, 0x00, 0x00, 0x00, 0x04, 0x00, 0x00, 0x00, 0x01, 0x00, 0x00, 0x00,
  0x88, 0x00, 0x00, 0x00, 0x00, 0x00, 0x00, 0x00, 0x00, 0x00, 0x00, 0x00,
  0x01, 0x00, 0x00, 0x00, 0x68, 0x04, 0xea, 0x39, 0x01, 0x00, 0x00, 0x00,
  0x9f, 0x5e, 0x59, 0x3d, 0x01, 0x00, 0x00, 0x00, 0x1f, 0x02, 0x77, 0xbd,
  0xc0, 0x5d, 0x00, 0x00, 0xa9, 0x90, 0x8d, 0x8a, 0x87, 0x7b, 0x80, 0x87,
  0x7f, 0x9e, 0xa5, 0x80, 0x8f, 0x90, 0xa1, 0x81, 0x8d, 0x67, 0x9f, 0xa3,
  0x88, 0x73, 0x91, 0xa0, 0x92, 0x76, 0x96, 0x92, 0x92, 0xb2, 0x99, 0xd2,
  0x8d, 0x91, 0x9d, 0x9c, 0x6f, 0x88, 0xa2, 0xd8, 0x76, 0x78, 0x69, 0x91,
  0x70, 0x77, 0x89, 0xcd, 0xa8, 0x94, 0x85, 0x75, 0x70, 0x84, 0x93, 0xd6,
  0x6d, 0x9a, 0x74, 0x80, 0x90, 0x9c, 0x8b, 0xbc, 0xa1, 0x76, 0x93, 0x87,
  0x9f, 0x95, 0xa5, 0xc2, 0x90, 0x94, 0x6a, 0x7e, 0x73, 0x93, 0x76, 0xc7,
  0x75, 0xa4, 0x70, 0xa1, 0x76, 0x93, 0x92, 0xd6, 0x91, 0x86, 0x82, 0x6a,
  0x7c, 0x8d, 0x8d, 0xb4, 0x96, 0xb4, 0x84, 0x8a, 0x86, 0x9e, 0xa4, 0xcd,
  0x7c, 0x84, 0x6f, 0x7f, 0x63, 0x85, 0x7e, 0xd8, 0x77, 0x76, 0x6b, 0x7c,
  0x8a, 0x8b, 0x60, 0xbc, 0x71, 0x8c, 0x8d, 0x8a, 0x66, 0x61, 0x9a, 0xc8,
  0x70, 0x8b, 0x82, 0x76, 0x6c, 0x87, 0x7b, 0xbd, 0x7b, 0xac, 0x89, 0x6d,
  0x8b, 0xb3, 0x7c, 0x9b, 0x83, 0x7e, 0x8f, 0x99, 0x72, 0xaa, 0x98, 0x98,
  0x85, 0x76, 0x89, 0xaa, 0xaa, 0x94, 0xb3, 0x6f, 0x8c, 0xa9, 0x81, 0x79,
  0x8e, 0x84, 0x7b, 0x76, 0x93, 0x93, 0x6f, 0x8c, 0x82, 0x95, 0x8a, 0x83,
  0x66, 0x67, 0x95, 0x98, 0x8d, 0x8b, 0x96, 0x84, 0x81, 0x5c, 0x76, 0xaa,
  0x8b, 0x6f, 0x8d, 0x9c, 0xa6, 0x88, 0x86, 0x7b, 0x71, 0xa3, 0x7f, 0xb6,
  0x62, 0x6b, 0x92, 0x5e, 0x9b, 0x6e, 0x85, 0xb3, 0x92, 0x91, 0x8c, 0x7b,
  0x88, 0x9b, 0x82, 0xa1, 0x76, 0x93, 0x96, 0x70, 0x9a, 0xa3, 0x89, 0x9c,
  0xa5, 0x8d, 0xaa, 0x7f, 0x84, 0xac, 0x99, 0x85, 0x9c, 0x89, 0x88, 0x74,
  0xaa, 0x89, 0xa3, 0x9e, 0xaa, 0x74, 0x80, 0x85, 0x8e, 0x90, 0x8a, 0xb2,
  0x99, 0x93, 0xa9, 0x80, 0x9d, 0x85, 0x74, 0xba, 0x7d, 0x84, 0x7b, 0xa3,
  0x82, 0x81, 0x86, 0xae, 0x95, 0x9f, 0x92, 0x6e, 0x74, 0x8a, 0x97, 0xd1,
  0x98, 0x83, 0x96, 0x89, 0x89, 0x79, 0x69, 0xeb, 0xae, 0x96, 0x8e, 0x91,
  0xad, 0x70, 0x84, 0xaa, 0x8e, 0x91, 0x80, 0x96, 0x96, 0x96, 0x75, 0xb1,
  0x8d, 0xb1, 0x92, 0xa9, 0xb5, 0x7d, 0x8c, 0x72, 0x98, 0x97, 0x76, 0xb4,
  0x6e, 0x74, 0xa0, 0xa7, 0x81, 0x8d, 0x8a, 0x79, 0x77, 0x93, 0xa9, 0x9c,
  0x8e, 0x83, 0x91, 0x75, 0x7b, 0x9c, 0x88, 0x49, 0x82, 0x52, 0xb0, 0x71,
  0x6f, 0x72, 0x95, 0x57, 0x69, 0x7a, 0x99, 0x61, 0x9e, 0x85, 0x90, 0x7d,
  0x68, 0x6e, 0x7c, 0x58, 0x82, 0x82, 0x73, 0x7d, 0x83, 0x78, 0x8e, 0x69,
  0x92, 0x66, 0x8c, 0x82, 0x69, 0x64, 0xa0, 0x5d, 0x7c, 0x69, 0x73, 0x8e,
  0x77, 0x57, 0x86, 0x6c, 0x8a, 0x9d, 0x73, 0x95, 0x66, 0x75, 0x99, 0x88,
  0x75, 0x86, 0x63, 0x96, 0x69, 0x7f, 0x75, 0x87, 0x8f, 0x9f, 0x87, 0x9a,
  0x6c, 0x66, 0x83, 0x7b, 0x71, 0x90, 0x7c, 0x85, 0x9c, 0x71, 0x9b, 0x5d,
  0xb5, 0x8a, 0x91, 0x8b, 0x85, 0x60, 0xa7, 0x9f, 0x74, 0x93, 0x8e, 0xa1,
  0x86, 0x7c, 0x95, 0x8d, 0x8e, 0x85, 0x85, 0x98, 0xa5, 0x49, 0xa2, 0x6c,
  0x6e, 0xa1, 0x7d, 0xac, 0x8b, 0x60, 0x8d, 0xa7, 0x82, 0x8a, 0x91, 0xae,
  0xb9, 0x7e, 0xa2, 0x94, 0x79, 0x6b, 0x69, 0x95, 0xaf, 0x47, 0x67, 0x9f,
  0x94, 0x5d, 0x7e, 0xb2, 0x87, 0x8b, 0x6c, 0x90, 0x98, 0xaa, 0x65, 0x87,
  0xa1, 0x95, 0xa6, 0x86, 0xb3, 0x8f, 0xa6, 0x7f, 0xac, 0x59, 0x7a, 0x69,
  0x74, 0x7a, 0x8d, 0xa2, 0x7d, 0x98, 0x7e, 0x6f, 0x80, 0x82, 0x90, 0x50,
  0x5e, 0x74, 0x98, 0x77, 0x62, 0xa8, 0xa8, 0x41, 0x73, 0x5f, 0x9d, 0x8e,
  0x84, 0x7a, 0x7f, 0x81, 0x81, 0x5e, 0x6d, 0x97, 0x64, 0x8b, 0x5e, 0x55,
  0x7d, 0x88, 0x8f, 0x73, 0x82, 0x98, 0x6a, 0x71, 0x7e, 0x6f, 0x8c, 0x68,
  0x89, 0x8e, 0x77, 0x57, 0x6c, 0x75, 0x78, 0x61, 0x8c, 0x71, 0x57, 0x88,
  0x62, 0x8f, 0xa2, 0x67, 0xa4, 0x7a, 0x76, 0x80, 0x95, 0x69, 0x8f, 0x8b,
  0x8a, 0x67, 0x97, 0x72, 0x7c, 0x8b, 0x62, 0x8e, 0x9d, 0x9c, 0x77, 0x68,
  0x61, 0x70, 0x80, 0x8c, 0x96, 0x74, 0x7c, 0x87, 0x96, 0x70, 0x6d, 0x90,
  0x9d, 0x77, 0xad, 0x7b, 0x70, 0x75, 0xae, 0x7b, 0x78, 0xaa, 0x8f, 0x77,
  0x89, 0x87, 0x97, 0xa2, 0x97, 0x8f, 0x83, 0x98, 0xb6, 0x88, 0xab, 0x92,
  0x9a, 0x89, 0x72, 0x97, 0x92, 0x6e, 0x66, 0x90, 0xae, 0x68, 0x9b, 0x8c,
  0x94, 0x88, 0x95, 0x8d, 0x8c, 0xaf, 0x5b, 0x5f, 0x89, 0x82, 0x8f, 0xa0,
  0x6e, 0x94, 0x78, 0x71, 0x6c, 0xa4, 0x95, 0xaf, 0xb0, 0x6e, 0x8d, 0x8c,
  0x9d, 0x76, 0x5d, 0x64, 0x93, 0x69, 0x87, 0x9b, 0x6d, 0xae, 0x71, 0x7d,
  0x6a, 0x87, 0x81, 0x59, 0x7b, 0xc8, 0x96, 0x7c, 0x6b, 0x88, 0x93, 0x5a,
  0x7d, 0xa6, 0x74, 0x97, 0x5e, 0x86, 0x7e, 0x5f, 0x51, 0x9a, 0x96, 0x81,
  0x88, 0x7b, 0x5f, 0x59, 0x71, 0x86, 0x8b, 0x66, 0x5e, 0x89, 0x65, 0x61,
  0x85, 0x9c, 0x94, 0x71, 0x77, 0x85, 0x7a, 0x48, 0x59, 0x8c, 0x8a, 0x72,
  0x9b, 0x84, 0x88, 0x56, 0x7b, 0x9e, 0x7d, 0x99, 0x9e, 0x86, 0x65, 0x61,
  0x78, 0x9d, 0x79, 0x72, 0x7b, 0x78, 0x70, 0x7b, 0x65, 0x99, 0x7d, 0x6c,
  0x8a, 0x93, 0x5e, 0x73, 0x75, 0xaa, 0x9f, 0x82, 0x91, 0x79, 0x6b, 0x77,
  0x75, 0x8d, 0x89, 0x9a, 0x94, 0x7d, 0x6e, 0x75, 0x95, 0x9b, 0x8e, 0x87,
  0x97, 0x95, 0x7a, 0x76, 0x89, 0x8e, 0xa5, 0xb1, 0xb2, 0x86, 0x62, 0x7d,
  0x88, 0x79, 0xa1, 0x7d, 0xa1, 0x70, 0x65, 0x97, 0x78, 0x9f, 0x88, 0xa8,
  0x94, 0xaa, 0x96, 0x73, 0x8b, 0x9e, 0xb2, 0x8d, 0x78, 0x84, 0x99, 0x6d,
  0x92, 0x9e, 0x70, 0x9a, 0x7f, 0x79, 0x84, 0x80, 0x84, 0xd5, 0x79, 0xaf,
  0x88, 0x71, 0x91, 0x83, 0x7a, 0xae, 0x97, 0x7a, 0x84, 0x78, 0x82, 0x89,
  0x88, 0xc4, 0x79, 0x72, 0x7b, 0x91, 0x8f, 0x3d, 0x6d, 0xa9, 0x77, 0x76,
  0x80, 0x92, 0x6b, 0x3c, 0x8e, 0x81, 0xad, 0x5c, 0x6d, 0x71, 0x6f, 0x86,
  0x64, 0x8d, 0x8e, 0x5c, 0x77, 0x81, 0x51, 0x65, 0x74, 0x93, 0x83, 0x5f,
  0xa4, 0x80, 0x69, 0x6d, 0x89, 0xb0, 0x90, 0x88, 0xa2, 0x7c, 0x52, 0x71,
  0x51, 0xa7, 0x81, 0x5c, 0x74, 0x6e, 0x6b, 0x6c, 0x69, 0xaa, 0x70, 0x8c,
  0x57, 0xa7, 0x88, 0x56, 0x5c, 0xc6, 0x7f, 0x6b, 0x86, 0x70, 0x8f, 0x70,
  0x8c, 0xb4, 0xa1, 0x82, 0x5e, 0x5a, 0x6b, 0x63, 0x8e, 0xa7, 0x8a, 0x8a,
  0x98, 0x83, 0x79, 0x8e, 0x8a, 0xc4, 0x84, 0x7b, 0x7c, 0x74, 0x79, 0x77,
  0x72, 0x85, 0x8c, 0x95, 0x84, 0x69, 0x73, 0x5a, 0x9d, 0xae, 0x75, 0xaf,
  0xa4, 0x80, 0x7f, 0x7a, 0x83, 0xb8, 0x88, 0x9e, 0xb9, 0x96, 0x5d, 0x87,
  0xa0, 0xa5, 0x97, 0x9a, 0x79, 0x6c, 0x50, 0x5d, 0x83, 0x9d, 0x9f, 0xa3,
  0x76, 0x9b, 0x7f, 0x84, 0xa5, 0xa0, 0x82, 0xb1, 0x60, 0x7b, 0x8b, 0x93,
  0x91, 0xc5, 0x7f, 0x9e, 0x77, 0x75, 0xa3, 0x8c, 0x81, 0xb2, 0x8b, 0xa8,
  0x63, 0x94, 0x98, 0xa3, 0x81, 0xac, 0x68, 0x8a, 0x81, 0x7a, 0x70, 0x44,
  0x80, 0x9d, 0xa3, 0x7c, 0x6e, 0x72, 0xa2, 0x35, 0x62, 0x7f, 0x86, 0x6a,
  0x83, 0x9d, 0x7b, 0x7f, 0x70, 0x93, 0x9a, 0x7c, 0x93, 0x81, 0x57, 0x57,
  0x8d, 0x85, 0x6d, 0x69, 0x75, 0xab, 0x99, 0x4e, 0x7a, 0xba, 0x87, 0x60,
  0x81, 0x7e, 0x89, 0x56, 0x71, 0x98, 0x83, 0x6a, 0x7b, 0x97, 0x55, 0x66,
  0x84, 0x9c, 0x6f, 0x83, 0x7c, 0xab, 0x5a, 0x72, 0x62, 0xb7, 0x75, 0x7a,
  0x5a, 0x68, 0x64, 0x5e, 0x86, 0xb9, 0x90, 0x68, 0x6b, 0x78, 0x89, 0x89,
  0x7f, 0xa7, 0x64, 0x7e, 0x61, 0x83, 0x70, 0x89, 0xab, 0xb9, 0x83, 0xa4,
  0x99, 0x8b, 0x94, 0x7a, 0x85, 0x9f, 0x8c, 0x83, 0x85, 0x88, 0x70, 0x54,
  0x9d, 0xb0, 0x7f, 0x8c, 0x95, 0x82, 0x7c, 0x84, 0xa2, 0xba, 0xaa, 0x96,
  0xa6, 0x98, 0x89, 0x9c, 0x8a, 0xab, 0x61, 0x77, 0x91, 0x7a, 0x5f, 0x62,
  0xa2, 0xa5, 0x6e, 0x89, 0x78, 0x74, 0x73, 0x76, 0xb5, 0xb2, 0x85, 0xa2,
  0x8f, 0x9f, 0x7d, 0x60, 0x76, 0xc1, 0x9d, 0x93, 0x93, 0x5d, 0xad, 0x79,
  0x77, 0xa1, 0x94, 0x98, 0x77, 0x67, 0x88, 0xa5, 0x88, 0xbc, 0x93, 0x70,
  0x7f, 0x93, 0x71, 0x3b, 0x91, 0x96, 0x6e, 0x6f, 0x6b, 0x92, 0x6a, 0x30,
  0x71, 0x9c, 0x7e, 0x68, 0x76, 0x83, 0x69, 0x7a, 0x8b, 0xa2, 0x5e, 0x81,
  0x9d, 0x82, 0x54, 0x42, 0x72, 0x7c, 0x95, 0x64, 0x7e, 0x82, 0x69, 0x61,
  0x71, 0x95, 0x98, 0x8a, 0x66, 0x68, 0x75, 0x6f, 0x6d, 0xaf, 0x7e, 0x58,
  0x60, 0x52, 0x66, 0x79, 0x70, 0x90, 0x90, 0x7f, 0x80, 0x97, 0x60, 0x5c,
  0x65, 0xae, 0x97, 0x8f, 0x54, 0x71, 0x6a, 0x5b, 0x65, 0x9e, 0x7f, 0x68,
  0x67, 0x62, 0x7a, 0x71, 0x83, 0xa8, 0x6b, 0x85, 0x89, 0x64, 0x73, 0x6b,
  0x94, 0x94, 0x9d, 0x83, 0x84, 0x6c, 0x76, 0x86, 0xa2, 0xa8, 0x84, 0x6c,
  0xb0, 0x61, 0x7b, 0x64, 0x7a, 0x84, 0x90, 0xab, 0xaa, 0x7f, 0x84, 0x8f,
  0x92, 0xab, 0xa5, 0x7d, 0x91, 0x88, 0x89, 0x64, 0x8b, 0xb3, 0x63, 0x86,
  0x78, 0x6b, 0x6b, 0x70, 0x87, 0xba, 0x8c, 0xad, 0x6e, 0x67, 0x96, 0x7f,
  0xb9, 0xb9, 0x6f, 0x93, 0x89, 0x9d, 0x72, 0x99, 0x88, 0xba, 0x9e, 0x99,
  0x7d, 0x9d, 0xa7, 0x9e, 0x78, 0xa1, 0x83, 0xab, 0x71, 0xb1, 0x84, 0xab,
  0x84, 0xc5, 0x68, 0x9f, 0x86, 0x82, 0x8c, 0x47, 0x86, 0x87, 0x83, 0x7e,
  0x77, 0x94, 0x5a, 0x4b, 0x77, 0x86, 0x95, 0x50, 0xaa, 0x71, 0x71, 0x67,
  0x6f, 0x9f, 0x81, 0x73, 0x95, 0x6e, 0x72, 0x71, 0x66, 0x8d, 0x98, 0x57,
  0x72, 0x82, 0x5c, 0x6a, 0x70, 0x80, 0x77, 0x4f, 0x5c, 0x62, 0x65, 0x4d,
  0x96, 0xa3, 0x8c, 0x76, 0x66, 0x7e, 0x6a, 0x73, 0x7d, 0x97, 0x74, 0x73,
  0x74, 0x7b, 0x92, 0x69, 0x74, 0x9c, 0xa0, 0x73, 0x63, 0x84, 0x80, 0x7f,
  0x6f, 0x9c, 0x9b, 0x6a, 0x88, 0x92, 0x61, 0x87, 0x62, 0x88, 0x77, 0x7f,
  0x9d, 0x8c, 0xa2, 0x80, 0x7b, 0xa0, 0x7c, 0x62, 0x8b, 0x6d, 0x77, 0x81,
  0x9b, 0x9d, 0xa9, 0x82, 0x73, 0x85, 0x68, 0x89, 0x96, 0x8f, 0x80, 0x80,
  0x82, 0xad, 0xa3, 0x6a, 0x87, 0xac, 0x83, 0x96, 0x90, 0x82, 0x98, 0x96,
  0x95, 0xbc, 0x6f, 0x9d, 0x7f, 0x6a, 0x92, 0x6e, 0x93, 0x8e, 0xa6, 0xa3,
  0x60, 0x68, 0x71, 0x78, 0x8f, 0xad, 0x86, 0x89, 0x75, 0x98, 0x4f, 0x77,
  0x8f, 0xa7, 0x87, 0xa5, 0x6a, 0xa5, 0xd0, 0xad, 0x6d, 0xa0, 0xad, 0x79,
  0x98, 0x78, 0x97, 0x8c, 0x7b, 0xc8, 0x99, 0x86, 0x79, 0x80, 0x76, 0x35,
  0x61, 0x90, 0x76, 0x72, 0x99, 0x7f, 0x8c, 0x20, 0x78, 0x97, 0x7e, 0x7f,
  0x90, 0x86, 0x62, 0x75, 0x72, 0xa7, 0x9d, 0x7a, 0x8c, 0x9d, 0x4f, 0x3f,
  0x4b, 0xa1, 0x6a, 0x48, 0x7c, 0x7a, 0x7e, 0x65, 0x94, 0x99, 0x96, 0x7b,
  0x6e, 0x6d, 0x7f, 0x66, 0x56, 0x98, 0x7c, 0x5c, 0x81, 0x57, 0x6c, 0x6e,
  0x78, 0x94, 0x93, 0x84, 0x93, 0xa2, 0x72, 0x78, 0x68, 0x9c, 0xa6, 0x77,
  0x6f, 0x8a, 0x69, 0x6f, 0x9f, 0x89, 0x71, 0x70, 0x76, 0x72, 0x94, 0x9d,
  0x7d, 0x8a, 0x65, 0x84, 0x91, 0x90, 0xae, 0xa6, 0x8b, 0x80, 0x93, 0x91,
  0x8b, 0xa5, 0x74, 0x7a, 0x9f, 0x80, 0x8a, 0x8b, 0x8b, 0x79, 0x87, 0x71,
  0xa0, 0x8b, 0x95, 0x92, 0x7a, 0x87, 0x75, 0x62, 0xaf, 0x90, 0x90, 0x9e,
  0x64, 0x81, 0x7e, 0x68, 0x9b, 0x8a, 0x71, 0x87, 0x8f, 0x83, 0x5b, 0x69,
  0x98, 0x95, 0x6c, 0x87, 0x83, 0x71, 0x8b, 0x5f, 0x68, 0x8b, 0x90, 0x93,
  0x8b, 0x85, 0x72, 0x95, 0x8c, 0x7f, 0x6b, 0x77, 0x8f, 0x93, 0xb3, 0x9f,
  0x85, 0x93, 0x98, 0x9e, 0xa3, 0x9c, 0x91, 0x93, 0x70, 0xc9, 0x8f, 0x76,
  0x84, 0x7e, 0x99, 0x2a, 0x6f, 0x89, 0x8d, 0x8e, 0x8f, 0x94, 0x5a, 0x3a,
  0x5e, 0x84, 0x98, 0x68, 0x8e, 0x77, 0x64, 0x5e, 0x79, 0xa1, 0x87, 0x56,
  0x7c, 0xa8, 0x58, 0x54, 0x84, 0xa7, 0x60, 0x6a, 0x99, 0x90, 0x75, 0x6b,
  0x58, 0x99, 0xa1, 0x67, 0x88, 0x48, 0x87, 0x40, 0x7f, 0x8e, 0x82, 0x57,
  0x8e, 0x7b, 0x85, 0x87, 0x5e, 0x9a, 0x7e, 0x5e, 0x84, 0xa5, 0x58, 0x80,
  0x81, 0x98, 0x77, 0x5b, 0x5a, 0x62, 0x72, 0x76, 0x62, 0x9d, 0x71, 0x59,
  0x66, 0x8f, 0x99, 0x8e, 0x9c, 0x80, 0xa6, 0x8b, 0x7c, 0x5f, 0x79, 0xab,
  0x76, 0x7a, 0x87, 0x86, 0x7c, 0x96, 0x8d, 0x67, 0x8a, 0x7b, 0x97, 0x8d,
  0x97, 0x85, 0x8e, 0x78, 0xb5, 0x89, 0x74, 0x9e, 0x77, 0x82, 0x96, 0x5e,
  0x9d, 0x76, 0x72, 0x7a, 0x6e, 0xa4, 0x7a, 0x74, 0x9c, 0x8f, 0x7f, 0x87,
  0x76, 0x8e, 0x80, 0x7a, 0x8d, 0x90, 0x8a, 0x79, 0x73, 0x99, 0x87, 0x74,
  0xaf, 0x7a, 0x90, 0x81, 0x8f, 0x6a, 0x8d, 0x7a, 0xa2, 0x93, 0xb4, 0xaf,
  0xa7, 0x88, 0xb3, 0x93, 0x98, 0x85, 0x9e, 0xa7, 0x83, 0x98, 0x8c, 0x88,
  0x6c, 0xbd, 0x9d, 0x8d, 0x81, 0x86, 0x67, 0x25, 0x78, 0x80, 0x68, 0x9e,
  0x96, 0x97, 0x71, 0x32, 0x72, 0x8b, 0x95, 0x79, 0x77, 0x90, 0x55, 0x94,
  0x51, 0xa5, 0x76, 0x6b, 0x7c, 0x87, 0x71, 0x52, 0x64, 0xa1, 0x6f, 0x5c,
  0x6b, 0x70, 0x64, 0x80, 0x74, 0xa3, 0x8f, 0x5e, 0x97, 0x63, 0x7d, 0x54,
  0x78, 0x95, 0x81, 0x73, 0x6e, 0x62, 0x94, 0x98, 0x88, 0x95, 0x84, 0x6d,
  0x7c, 0x67, 0x6c, 0x62, 0x53, 0x8f, 0x99, 0x5b, 0x49, 0x6c, 0x69, 0x6c,
  0x6e, 0x86, 0x99, 0x7e, 0x6c, 0x5e, 0x80, 0x8e, 0x86, 0x87, 0x9b, 0x84,
  0x7f, 0x6f, 0x7f, 0x9a, 0x84, 0x7e, 0x81, 0x7c, 0x9e, 0x9e, 0x6e, 0x80,
  0x8e, 0x86, 0x86, 0x81, 0x7e, 0x7e, 0x95, 0x5a, 0xb9, 0x72, 0x69, 0x9f,
  0x9b, 0x8c, 0x97, 0x60, 0x7f, 0x7e, 0x77, 0xa3, 0x7f, 0x96, 0x87, 0x70,
  0x7f, 0x89, 0x80, 0xa0, 0x70, 0x8b, 0x67, 0x67, 0x8f, 0x7d, 0x5e, 0xa0,
  0x60, 0x7f, 0x83, 0x5a, 0xa3, 0x7b, 0x7c, 0x96, 0x7d, 0xa8, 0x58, 0x82,
  0x79, 0x8b, 0x60, 0x90, 0x73, 0x6f, 0xb1, 0x97, 0x6d, 0x83, 0x9d, 0x93,
  0x7d, 0xa7, 0x93, 0x96, 0x74, 0xbc, 0x86, 0x62, 0x7a, 0x95, 0x86, 0x2c,
  0x88, 0x80, 0x91, 0x64, 0x82, 0xad, 0x72, 0x37, 0x90, 0x91, 0x75, 0x74,
  0x97, 0x9e, 0x3a, 0x64, 0x95, 0x9f, 0x79, 0x7b, 0x8d, 0x8b, 0x48, 0x6d,
  0x4e, 0xa2, 0xa8, 0x57, 0x86, 0x71, 0x7a, 0x7d, 0x68, 0xa3, 0x8c, 0x65,
  0x95, 0x54, 0x61, 0x65, 0x81, 0x79, 0x68, 0x6d, 0xa1, 0x8b, 0x77, 0x8a,
  0x63, 0x83, 0x71, 0x68, 0x6c, 0x7e, 0x77, 0x8a, 0x64, 0x8c, 0x95, 0x7d,
  0x70, 0x76, 0x68, 0x74, 0x8c, 0x8e, 0xa3, 0x55, 0x86, 0x91, 0x6c, 0x74,
  0x7a, 0x78, 0x8e, 0x87, 0x8b, 0x6a, 0x96, 0x89, 0x97, 0x77, 0x94, 0x78,
  0xa2, 0x96, 0x65, 0x7d, 0x9c, 0x7c, 0x89, 0x86, 0x7d, 0x9d, 0x84, 0x7e,
  0x82, 0x7f, 0x8b, 0x76, 0xb0, 0x8d, 0x94, 0x83, 0x6e, 0x7a, 0x74, 0x94,
  0x87, 0x9a, 0x6d, 0x90, 0x7d, 0x75, 0x74, 0x9f, 0x82, 0x7b, 0x6b, 0x67,
  0x9c, 0x75, 0x64, 0x72, 0x6c, 0x70, 0x6c, 0x78, 0x86, 0x7c, 0x70, 0xa5,
  0x84, 0x7b, 0x73, 0x69, 0x77, 0x7f, 0x81, 0x76, 0x79, 0x82, 0xac, 0x8b,
  0x70, 0x93, 0xb0, 0x97, 0x81, 0x6b, 0x94, 0x8a, 0x7a, 0xbf, 0x7b, 0x70,
  0x81, 0x82, 0x92, 0x2a, 0x86, 0x8b, 0x81, 0x78, 0x7d, 0x81, 0x7c, 0x3d,
  0x77, 0x88, 0xa6, 0x66, 0x86, 0x9f, 0x59, 0x60, 0x6c, 0xb7, 0x82, 0x62,
  0x73, 0x68, 0x5f, 0x45, 0x5c, 0xa2, 0x7a, 0x3d, 0x5f, 0x5f, 0x76, 0x50,
  0x75, 0xa5, 0x6d, 0x7d, 0x6f, 0x6c, 0x6e, 0x64, 0x67, 0x82, 0x88, 0x71,
  0x6e, 0x5c, 0x94, 0x70, 0x5e, 0x8e, 0x7e, 0x51, 0x9b, 0x92, 0x77, 0x60,
  0x82, 0x99, 0x6e, 0x67, 0x5d, 0x6b, 0x6f, 0x83, 0x7e, 0x94, 0xa9, 0x81,
  0x64, 0x60, 0x80, 0x8f, 0x7a, 0x7d, 0x64, 0x5f, 0x82, 0x87, 0x7d, 0x89,
  0x91, 0x7b, 0xb7, 0x72, 0x8f, 0x5b, 0x99, 0x8a, 0xa0, 0x80, 0x8d, 0xa6,
  0xa4, 0xa6, 0x99, 0x7a, 0x9c, 0x76, 0x98, 0x9a, 0x8b, 0x93, 0x96, 0x74,
  0x9e, 0x8a, 0x6f, 0x99, 0x83, 0x6b, 0x95, 0x71, 0x74, 0x78, 0xa9, 0x6d,
  0x7c, 0x8f, 0x89, 0x64, 0x8e, 0x7a, 0xae, 0x78, 0x7c, 0x62, 0x83, 0x64,
  0x7f, 0x62, 0x69, 0x8e, 0x6f, 0x8a, 0x86, 0x75, 0x6c, 0x74, 0xb2, 0x8b,
  0x70, 0xa4, 0xa9, 0x82, 0x6b, 0x7c, 0xb6, 0x8a, 0x6c, 0x89, 0x97, 0xa5,
  0x6c, 0xa8, 0x7f, 0x85, 0x75, 0x87, 0x72, 0x32, 0x7d, 0x89, 0x72, 0x74,
  0x73, 0x74, 0x73, 0x34, 0x63, 0x8f, 0xb6, 0x65, 0xa5, 0xb2, 0x62, 0x94,
  0x6c, 0xab, 0x9f, 0x5d, 0x76, 0x7c, 0x70, 0x74, 0x65, 0xac, 0xaf, 0x71,
  0x93, 0x6d, 0x77, 0x6e, 0x7b, 0x9c, 0x75, 0x5f, 0x82, 0x4c, 0x67, 0x72,
  0x5d, 0x8d, 0x9f, 0x57, 0x68, 0x68, 0x87, 0x84, 0x86, 0x92, 0x83, 0x7b,
  0x7c, 0x5b, 0x6f, 0x51, 0x7a, 0x94, 0x87, 0x75, 0x74, 0x7a, 0x6e, 0x58,
  0x86, 0x8e, 0xae, 0x6c, 0x9b, 0x64, 0x6c, 0x7d, 0x79, 0x88, 0x93, 0x72,
  0x87, 0x71, 0x92, 0x98, 0x9e, 0x6f, 0x64, 0x77, 0x8d, 0x7c, 0x88, 0x7b,
  0x76, 0x76, 0x7f, 0x93, 0x9a, 0x96, 0xa2, 0x6b, 0x9c, 0x89, 0x9b, 0xa0,
  0x7b, 0x95, 0x81, 0x97, 0x80, 0x7c, 0x71, 0x7c, 0x93, 0x8c, 0x70, 0x77,
  0x6f, 0x7c, 0x94, 0x7d, 0x7d, 0x83, 0x8e, 0x59, 0x8a, 0x69, 0x7e, 0x88,
  0x79, 0xa1, 0x70, 0x5c, 0xa4, 0x63, 0x88, 0x9c, 0x8d, 0x9c, 0x5f, 0x65,
  0x7d, 0x6e, 0x78, 0x95, 0x85, 0x83, 0xb5, 0x7f, 0x91, 0x7c, 0x89, 0x79,
  0x9b, 0x81, 0x9f, 0xa1, 0x74, 0xc6, 0x6e, 0x8b, 0x7d, 0x94, 0x80, 0x25,
  0x68, 0x8e, 0x92, 0x51, 0x75, 0x7d, 0x7a, 0x4a, 0x6c, 0x86, 0x99, 0x72,
  0x93, 0xb1, 0x6e, 0x79, 0x69, 0xb9, 0x70, 0x64, 0x72, 0x8a, 0x3a, 0x6b,
  0x5b, 0xba, 0x95, 0x62, 0x5e, 0x46, 0x7e, 0x7a, 0x7e, 0xa3, 0xb6, 0x73,
  0x84, 0x60, 0x65, 0x51, 0x85, 0x94, 0x7e, 0x4c, 0x6a, 0x5d, 0x87, 0x72,
  0x87, 0x81, 0x93, 0x51, 0x86, 0x5f, 0x7d, 0x78, 0x50, 0x93, 0x79, 0x8c,
  0x83, 0x84, 0x96, 0x6a, 0x68, 0x8d, 0x88, 0x70, 0x86, 0x64, 0x8a, 0x70,
  0x66, 0x81, 0x6d, 0x6a, 0x8e, 0x5a, 0x74, 0x8b, 0x8b, 0x7d, 0x71, 0x81,
  0x95, 0x93, 0x92, 0x96, 0x91, 0x73, 0x82, 0x7b, 0x92, 0x7b, 0x99, 0x50,
  0x94, 0x8d, 0x83, 0x75, 0x99, 0x9e, 0x96, 0x7d, 0x85, 0x7e, 0x7f, 0x82,
  0xab, 0x97, 0x8e, 0x69, 0x8d, 0x7f, 0x7d, 0x7e, 0x74, 0x8b, 0x69, 0x93,
  0x97, 0x71, 0x72, 0x88, 0x88, 0x85, 0x68, 0x70, 0x8f, 0x70, 0x8a, 0x8a,
  0x93, 0x70, 0x71, 0x76, 0x7a, 0x7d, 0x7f, 0x98, 0x75, 0x7e, 0xa4, 0x80,
  0x76, 0x80, 0x75, 0x9b, 0x7a, 0x79, 0x90, 0x84, 0x72, 0xbb, 0x7e, 0x83,
  0x7d, 0x85, 0x76, 0x21, 0x70, 0xa1, 0x81, 0x99, 0x7b, 0x95, 0x65, 0x3a,
  0x92, 0x90, 0x89, 0x5a, 0x94, 0x94, 0x54, 0x80, 0x64, 0xb7, 0x76, 0x73,
  0x70, 0x8a, 0x4f, 0x69, 0x62, 0xb7, 0x83, 0x5c, 0x8d, 0x59, 0x62, 0x63,
  0x7f, 0x9a, 0x8f, 0x79, 0x8a, 0x44, 0x76, 0x69, 0x80, 0x97, 0x80, 0x6b,
  0x80, 0x55, 0xa4, 0x71, 0x87, 0x8d, 0x7c, 0x62, 0x87, 0x65, 0x6c, 0x6c,
  0x77, 0xa0, 0x77, 0x7d, 0x71, 0x63, 0x51, 0x5f, 0x7c, 0xa2, 0x84, 0x87,
  0x8f, 0x6e, 0x7e, 0x75, 0x80, 0x7b, 0x74, 0x7c, 0x9a, 0x5b, 0x91, 0xaa,
  0x80, 0x7b, 0xa9, 0x5c, 0x80, 0x89, 0x90, 0x7b, 0x9f, 0x89, 0x8e, 0x83,
  0x8c, 0x8e, 0x97, 0x6a, 0x9c, 0x7c, 0x86, 0x5e, 0x7f, 0x9a, 0xb6, 0x5e,
  0x98, 0x81, 0x8e, 0x77, 0xa9, 0x70, 0x6d, 0x8d, 0xaa, 0x6a, 0x88, 0x87,
  0x7c, 0x7f, 0x4e, 0x5e, 0x7c, 0x74, 0x6c, 0x6d, 0x8b, 0x7a, 0x7f, 0x8d,
  0x8e, 0x73, 0x86, 0xa8, 0x8b, 0x5d, 0x60, 0x81, 0x83, 0x6f, 0xae, 0x8a,
  0x8f, 0x7d, 0x9c, 0x60, 0x64, 0x7a, 0x92, 0x7a, 0x70, 0xa7, 0xa6, 0x97,
  0x78, 0xc4, 0x74, 0x97, 0x7a, 0x9b, 0xa3, 0x34, 0x61, 0x95, 0xa3, 0x6a,
  0x92, 0x91, 0x6e, 0x55, 0x73, 0x8b, 0x84, 0x78, 0x77, 0xa7, 0x3b, 0x6c,
  0x6f, 0xae, 0x8a, 0x78, 0x64, 0x6e, 0x55, 0x84, 0x66, 0xbe, 0x9d, 0x4d,
  0x83, 0x73, 0x68, 0x86, 0x6b, 0xb4, 0x9a, 0x6b, 0x85, 0x34, 0x5f, 0x84,
  0x74, 0x85, 0x6c, 0x70, 0x74, 0x51, 0x90, 0x61, 0x7f, 0x99, 0x88, 0x72,
  0x79, 0x7e, 0x7b, 0x69, 0x64, 0x99, 0x8c, 0x79, 0x62, 0x69, 0x6e, 0x72,
  0x7c, 0x87, 0x93, 0x77, 0x61, 0x61, 0x67, 0x92, 0x7f, 0x84, 0x78, 0x56,
  0x76, 0x78, 0x83, 0x9c, 0x75, 0x7f, 0x8f, 0x90, 0x83, 0x5c, 0xa9, 0x6c,
  0x98, 0x77, 0x8b, 0x94, 0xab, 0x94, 0x9b, 0x69, 0xb3, 0x7a, 0x77, 0x84,
  0xa2, 0x76, 0x99, 0x9d, 0x81, 0x7e, 0x70, 0x83, 0x80, 0x6d, 0x8a, 0x6c,
  0x94, 0x81, 0x8f, 0x84, 0x95, 0x6a, 0x65, 0x66, 0x9d, 0x72, 0x80, 0x97,
  0xa7, 0x6f, 0x74, 0x5e, 0x93, 0x72, 0x9f, 0x86, 0x80, 0x62, 0x85, 0x7d,
  0x77, 0x70, 0xac, 0x8a, 0xac, 0xac, 0xa7, 0x7f, 0xa9, 0x7d, 0x94, 0x64,
  0xa1, 0x73, 0x98, 0xa0, 0x64, 0xab, 0x9e, 0x92, 0x75, 0x93, 0x5f, 0x49,
  0x64, 0x9d, 0x96, 0x77, 0x74, 0x77, 0x50, 0x60, 0x8b, 0x8b, 0x7d, 0x77,
  0x81, 0xa0, 0x52, 0x87, 0x50, 0xbf, 0x7f, 0x45, 0x91, 0x72, 0x38, 0x81,
  0x7b, 0xc5, 0x94, 0x5f, 0x67, 0x7d, 0x69, 0x87, 0x59, 0xb5, 0xb5, 0x6c,
  0x6d, 0x3a, 0x70, 0x78, 0x73, 0x9a, 0x7f, 0x5c, 0x6d, 0x6e, 0x81, 0x9f,
  0x52, 0x97, 0x8d, 0x75, 0x67, 0x76, 0x6c, 0x78, 0x7e, 0x9c, 0x8f, 0x74,
  0x59, 0x49, 0x74, 0x68, 0x72, 0x8c, 0x6f, 0x7d, 0x86, 0x51, 0x93, 0x87,
  0x8a, 0x92, 0x93, 0x84, 0x90, 0x4e, 0x9a, 0x93, 0x97, 0x78, 0x72, 0x5f,
  0x84, 0x88, 0x70, 0x75, 0xb4, 0x81, 0x87, 0x8f, 0x95, 0x8d, 0x9c, 0x5e,
  0x92, 0x7a, 0x8f, 0x99, 0xa6, 0x85, 0x99, 0x90, 0xb8, 0x72, 0xa0, 0x7e,
  0x83, 0x85, 0x7a, 0x73, 0x82, 0x89, 0x8a, 0x68, 0x84, 0x8c, 0x63, 0x69,
  0x88, 0x71, 0x70, 0xaa, 0x76, 0x4d, 0x7c, 0x54, 0x86, 0x7a, 0xb5, 0xad,
  0x92, 0x87, 0x60, 0x92, 0x89, 0x78, 0xa0, 0x8f, 0xa5, 0x7c, 0xab, 0x84,
  0x99, 0x7b, 0x7c, 0xa5, 0xad, 0x5d, 0x95, 0x8b, 0x6e, 0xce, 0x9d, 0x8d,
  0x7f, 0x9c, 0x8b, 0x50, 0x6d, 0xa1, 0x7b, 0x77, 0x9c, 0x99, 0x61, 0x4e,
  0x77, 0xab, 0x92, 0x55, 0x7b, 0x9b, 0x5a, 0x8b, 0x4e, 0xbb, 0xa3, 0x55,
  0x81, 0x8f, 0x41, 0x62, 0x3e, 0xbf, 0x8a, 0x69, 0x92, 0x7a, 0x6d, 0x60,
  0x53, 0xbb, 0x88, 0x45, 0x68, 0x3f, 0x65, 0x72, 0x5b, 0x95, 0xa9, 0x78,
  0x8f, 0x42, 0x77, 0x7e, 0x82, 0xa6, 0x7a, 0x63, 0x72, 0x7d, 0x56, 0x75,
  0x63, 0xab, 0x85, 0x75, 0x62, 0x66, 0x6e, 0x72, 0x97, 0x99, 0x76, 0x67,
  0x6e, 0x3c, 0x6b, 0x8d, 0x76, 0x7f, 0xa0, 0x92, 0x6b, 0x68, 0x9b, 0x86,
  0x7a, 0x7d, 0xa3, 0x8e, 0x72, 0x47, 0x8c, 0x7e, 0x87, 0x7c, 0x77, 0x88,
  0x8d, 0x6e, 0x8e, 0x6e, 0x99, 0x78, 0xaa, 0x64, 0xa3, 0x85, 0x9f, 0x91,
  0x95, 0x8a, 0xa0, 0x8d, 0xa2, 0x69, 0x6e, 0x8e, 0x78, 0x7e, 0x75, 0x8b,
  0x7d, 0x63, 0x6b, 0x86, 0x9b, 0x77, 0x80, 0x96, 0x90, 0x6a, 0x82, 0x68,
  0x78, 0x6e, 0x89, 0x93, 0x9d, 0x77, 0x70, 0x67, 0x76, 0x5c, 0x62, 0x95,
  0x5f, 0x80, 0xab, 0x72, 0x70, 0x86, 0xa9, 0x77, 0x93, 0xab, 0x99, 0x8a,
  0x7d, 0xc1, 0xa8, 0x89, 0x77, 0xa5, 0x76, 0x45, 0x8c, 0xa9, 0x7b, 0x79,
  0x8e, 0x77, 0x86, 0x46, 0x68, 0x99, 0x96, 0x43, 0x70, 0xb9, 0x64, 0x6c,
  0x4b, 0xbf, 0xa7, 0x5a, 0x77, 0x77, 0x3d, 0x86, 0x53, 0xcb, 0xa3, 0x5a,
  0x7b, 0x6f, 0x69, 0x6b, 0x56, 0xc2, 0x7c, 0x66, 0x90, 0x4d, 0x66, 0x81,
  0x76, 0xa1, 0x9b, 0x7e, 0x58, 0x56, 0x7e, 0x84, 0x78, 0xa3, 0xac, 0x68,
  0x9d, 0x4f, 0x66, 0x82, 0x65, 0x94, 0x73, 0x7c, 0x70, 0x86, 0x6e, 0x59,
  0x7f, 0x9a, 0x80, 0x78, 0x87, 0x84, 0x97, 0x79, 0x86, 0x82, 0x8a, 0x97,
  0x91, 0x63, 0x91, 0x7b, 0x77, 0x7b, 0xa2, 0x7a, 0x8d, 0x6a, 0x7d, 0x54,
  0x81, 0x7c, 0x87, 0x77, 0x89, 0x64, 0xa2, 0x58, 0x9d, 0x93, 0x90, 0x78,
  0xa5, 0x62, 0xab, 0x85, 0xa0, 0x96, 0x7d, 0xa0, 0x8b, 0x7a, 0x5f, 0x6d,
  0x82, 0x87, 0x9e, 0x9d, 0x76, 0x64, 0x67, 0x66, 0x8f, 0x77, 0xa3, 0x99,
  0x88, 0x6d, 0x7a, 0xa0, 0x87, 0x6e, 0xab, 0x8a, 0x87, 0x5d, 0x83, 0x83,
  0x85, 0x7c, 0x7a, 0x98, 0x8e, 0x80, 0xb7, 0x81, 0x91, 0x75, 0xa2, 0x73,
  0x7f, 0x80, 0xb7, 0x92, 0x65, 0xdd, 0x8c, 0x67, 0x7c, 0xa5, 0x6f, 0x3a,
  0x56, 0xa4, 0x77, 0x68, 0x65, 0x8f, 0x62, 0x4f, 0x5e, 0x8e, 0x7b, 0x76,
  0x83, 0xa3, 0x6d, 0x76, 0x49, 0xc7, 0x7a, 0x60, 0x7d, 0x96, 0x38, 0x57,
  0x71, 0xd0, 0x8b, 0x5a, 0x53, 0x75, 0x62, 0x76, 0x73, 0xc5, 0x8e, 0x83,
  0x56, 0x3d, 0x4c, 0x83, 0x78, 0xae, 0x92, 0x4e, 0x5f, 0x5a, 0x7a, 0x66,
  0x61, 0xa5, 0x79, 0x65, 0x79, 0x94, 0x46, 0x88, 0x45, 0x9a, 0x83, 0x7d,
  0x82, 0x54, 0x4b, 0x7e, 0x68, 0x90, 0x7f, 0x7a, 0x8d, 0x5c, 0x92, 0x84,
  0x74, 0x95, 0x75, 0xa7, 0x81, 0x44, 0x8c, 0xad, 0x88, 0x8e, 0x83, 0x78,
  0x76, 0x69, 0x83, 0x82, 0x9a, 0x78, 0x75, 0x77, 0x9c, 0x98, 0x82, 0x6a,
  0x9a, 0x8e, 0x85, 0xb6, 0xa0, 0x7e, 0xa3, 0x7e, 0xa4, 0x8b, 0x73, 0xaa,
  0x9d, 0x79, 0x82, 0x86, 0x83, 0x9e, 0x9c, 0x7f, 0x75, 0x7f, 0x66, 0x7a,
  0x8e, 0x74, 0x76, 0x90, 0x88, 0x58, 0x4f, 0x92, 0x9a, 0x65, 0xb6, 0x77,
  0x6c, 0x72, 0x7b, 0x6e, 0x78, 0x71, 0x73, 0x7d, 0x9a, 0x6e, 0x94, 0x82,
  0xb4, 0x70, 0x91, 0x70, 0xa9, 0x9a, 0xa6, 0x91, 0x7d, 0xe7, 0x84, 0x6d,
  0x81, 0xa2, 0x7d, 0x1d, 0x5a, 0xa8, 0x90, 0x4a, 0x8a, 0xa2, 0x6a, 0x2e,
  0x4a, 0xbc, 0x87, 0x2c, 0x89, 0x73, 0x44, 0x7a, 0x30, 0xdf, 0x91, 0x4b,
  0x73, 0x61, 0x3c, 0x79, 0x4a, 0xd4, 0x96, 0x35, 0x54, 0x5a, 0x73, 0x7e,
  0x30, 0xcc, 0x8f, 0x66, 0x47, 0x37, 0x55, 0x76, 0x74, 0xbd, 0x6d, 0x53,
  0x49, 0x7c, 0x69, 0x9c, 0x66, 0xb6, 0x86, 0x7b, 0x67, 0x8e, 0x3f, 0x71,
  0x4c, 0xb9, 0xa0, 0x68, 0x5f, 0x76, 0x5c, 0x62, 0x51, 0xa7, 0x8a, 0x60,
  0x58, 0x64, 0x61, 0x8c, 0x5c, 0x87, 0x77, 0x6a, 0x7b, 0x5e, 0x8c, 0x91,
  0x7c, 0x8b, 0x90, 0x64, 0x75, 0x79, 0x8f, 0x82, 0x7d, 0xa3, 0xac, 0x7e,
  0x89, 0x98, 0x92, 0x87, 0x86, 0x8a, 0x86, 0x89, 0xa9, 0x8c, 0x73, 0x95,
  0x89, 0x91, 0x98, 0x7d, 0xac, 0x83, 0x6a, 0x94, 0xab, 0x7f, 0x8e, 0x7f,
  0x80, 0x5c, 0x4e, 0x7a, 0x82, 0x82, 0x89, 0x7e, 0x61, 0x7e, 0x68, 0x80,
  0x8c, 0x83, 0xa5, 0x95, 0x72, 0x74, 0x85, 0x93, 0x72, 0x6c, 0x65, 0x97,
  0x97, 0x5b, 0x86, 0x92, 0x9a, 0x7d, 0x9f, 0x8d, 0x90, 0x61, 0x85, 0xbb,
  0x98, 0xeb, 0xb3, 0x5e, 0x9f, 0xa5, 0x8c, 0x29, 0x7e, 0xc5, 0x99, 0x32,
  0xa6, 0x8f, 0x8c, 0x2d, 0x92, 0x9d, 0x8e, 0x2e, 0xb9, 0x72, 0x61, 0x63,
  0x7e, 0xe5, 0xaa, 0x28, 0xab, 0x7e, 0x56, 0x4f, 0x72, 0xe3, 0x72, 0x3e,
  0xa3, 0x68, 0x79, 0x6b, 0x6b, 0xd4, 0x7a, 0x43, 0x7b, 0x5a, 0x83, 0x70,
  0x7b, 0xb4, 0x96, 0x49, 0x74, 0x6f, 0x7b, 0x6d, 0x6f, 0xb4, 0x9d, 0x32,
  0x8f, 0x7f, 0x62, 0x68, 0x6c, 0xc0, 0x91, 0x56, 0x65, 0x7d, 0x5c, 0x7e,
  0x84, 0xad, 0x63, 0x7a, 0x72, 0x65, 0x6b, 0x7e, 0x6f, 0x92, 0x67, 0x5f,
  0x85, 0x80, 0x79, 0x8a, 0x8f, 0x8d, 0x78, 0x68, 0x8d, 0x88, 0x83, 0x7f,
  0x9a, 0x94, 0xa5, 0x7c, 0x90, 0x66, 0xb0, 0x8e, 0x92, 0x9c, 0xab, 0x68,
  0xa7, 0x99, 0x8b, 0x8a, 0x9e, 0x9a, 0x98, 0x96, 0x99, 0x88, 0x5d, 0xa4,
  0x89, 0x79, 0x6c, 0x9a, 0x87, 0x8f, 0x44, 0x7b, 0x95, 0x89, 0x83, 0xa4,
  0x71, 0x86, 0x5f, 0x78, 0xa5, 0x71, 0x84, 0x83, 0x8f, 0x91, 0x70, 0x5b,
  0x83, 0x83, 0xa0, 0x90, 0x90, 0x9a, 0x93, 0x6c, 0x94, 0x83, 0xb3, 0xa7,
  0xa0, 0x6e, 0x8b, 0x99, 0x8b, 0xb1, 0x97, 0x32, 0x9a, 0xa8, 0x80, 0x4f,
  0x82, 0xe1, 0x6e, 0x10, 0x8b, 0x88, 0xa2, 0x25, 0x9d, 0x98, 0x96, 0x3f,
  0xd0, 0x83, 0x7c, 0x6c, 0x94, 0xcc, 0x7c, 0x2a, 0x96, 0x79, 0x81, 0x39,
  0x81, 0xa9, 0x66, 0x32, 0xa7, 0x7a, 0x6d, 0x7a, 0x70, 0xa3, 0x78, 0x38,
  0xa1, 0x84, 0x92, 0x67, 0x81, 0x94, 0x7a, 0x4c, 0x73, 0x8f, 0x8b, 0x4b,
  0x83, 0xb7, 0x67, 0x4c, 0x95, 0x7a, 0x50, 0x6b, 0x91, 0xc0, 0x8f, 0x44,
  0x7b, 0x71, 0x5a, 0x64, 0x76, 0x8a, 0x90, 0x5b, 0x89, 0x99, 0x78, 0x84,
  0x94, 0x83, 0x76, 0x79, 0x88, 0x92, 0x7a, 0x6c, 0x9e, 0x8e, 0x92, 0x7a,
  0xb0, 0x9c, 0x95, 0x68, 0x93, 0x9f, 0x92, 0x64, 0xab, 0x8c, 0x7e, 0x77,
  0x9a, 0x89, 0xa2, 0x8a, 0x95, 0x8c, 0x9d, 0xa6, 0x95, 0x85, 0x6a, 0x71,
  0x85, 0x8f, 0x62, 0x9b, 0xa7, 0x96, 0x87, 0x8b, 0x77, 0x5b, 0x53, 0x82,
  0xb5, 0xb7, 0x7a, 0xa7, 0x87, 0x7a, 0x78, 0xa6, 0x96, 0x91, 0x92, 0xa0,
  0x83, 0x6e, 0x91, 0x89, 0xa1, 0x91, 0x7e, 0xa7, 0xa0, 0x6d, 0x8f, 0xab,
  0x7d, 0x8a, 0x87, 0x9c, 0x8d, 0x90, 0xaf, 0x97, 0x94, 0x8c, 0xa5, 0x90,
  0x7a, 0x80, 0x6e, 0x8a, 0x6a, 0xa2, 0x8f, 0x80, 0xa9, 0x91, 0x75, 0x8c,
  0x64, 0x87, 0x87, 0xb0, 0x74, 0x73, 0xaf, 0x82, 0xac, 0x81, 0x8f, 0x6e,
  0x8f, 0x6d, 0x93, 0x5e, 0x66, 0x7e, 0x82, 0x99, 0x72, 0x8a, 0x8e, 0x65,
  0x90, 0x8c, 0x81, 0x88, 0xa3, 0xaa, 0x7b, 0x6a, 0x9c, 0x8f, 0x60, 0x7a,
  0x96, 0x63, 0x94, 0x6b, 0x9b, 0x61, 0x75, 0x98, 0x6b, 0xa2, 0x79, 0x87,
  0x67, 0x8e, 0x85, 0x92, 0x86, 0x6c, 0x6d, 0x7e, 0x95, 0x8e, 0x96, 0x79,
  0x96, 0x70, 0x63, 0x77, 0x8d, 0x88, 0x76, 0x88, 0xa1, 0x9a, 0xa3, 0x6f,
  0x80, 0x66, 0x6f, 0x9b, 0x6d, 0xad, 0x7c, 0x70, 0x87, 0x71, 0xa6, 0xa2,
  0x9a, 0x8f, 0x8a, 0x6f, 0x6a, 0x7b, 0x7a, 0xb5, 0xa2, 0x83, 0x90, 0x7a,
  0x6d, 0x7a, 0x90, 0x99, 0x81, 0x77, 0x8e, 0x90, 0x7f, 0x95, 0x70, 0xa9,
  0x77, 0x6c, 0x92, 0x6e, 0x78, 0x8d, 0x9b, 0x77, 0x8d, 0xa4, 0x9d, 0x6f,
  0x86, 0x7d, 0x82, 0x78, 0xa2, 0x8b, 0x87, 0x8e, 0x7f, 0x8d, 0x77, 0x87,
  0x8f, 0xa4, 0x7d, 0x7e, 0xaf, 0x96, 0x7f, 0x7b, 0x77, 0x82, 0x86, 0x61,
  0x83, 0x8f, 0x6e, 0x79, 0x70, 0x80, 0x8d, 0x7c, 0x84, 0x99, 0x90, 0x82,
  0x9d, 0x8c, 0x66, 0x8c, 0x89, 0x85, 0x81, 0x78, 0x76, 0x7f, 0x73, 0x87,
  0x96, 0x72, 0x89, 0x9d, 0xa8, 0x68, 0x89, 0x87, 0x84, 0xa5, 0x87, 0x88,
  0xa3, 0x76, 0x8a, 0x77, 0x68, 0x80, 0x82, 0x8b, 0x8b, 0x97, 0xa1, 0x79,
  0x7b, 0x8c, 0x83, 0x71, 0x8b, 0x9b, 0x97, 0x81, 0x8d, 0x7f, 0x64, 0x7a,
  0x69, 0x84, 0x98, 0x6f, 0xa5, 0x8c, 0x82, 0x8e, 0x93, 0x69, 0xa0, 0x75,
  0x8c, 0x80, 0x75, 0x95, 0x8e, 0x7b, 0x89, 0x82, 0x7c, 0x7e, 0xa6, 0xa4,
  0x8e, 0xa4, 0x9b, 0x8a, 0x72, 0x8d, 0x9c, 0x78, 0x88, 0x87, 0x9e, 0x91,
  0x81, 0x84, 0x7a, 0x8e, 0x80, 0x9a, 0x70, 0x84, 0x6b, 0x93, 0xa6, 0x98,
  0x81, 0x8d, 0x77, 0x7f, 0x75, 0x82, 0x90, 0x72, 0x82, 0x7b, 0x83, 0x7c,
  0x89, 0x82, 0x84, 0x85, 0x8a, 0x77, 0x69, 0x82, 0x85, 0x88, 0x99, 0x82,
  0x86, 0x89, 0x6b, 0x74, 0xaa, 0x8f, 0x76, 0x89, 0xa2, 0x85, 0x96, 0x76,
  0x83, 0x81, 0xa1, 0x91, 0x7b, 0xa5, 0x89, 0x87, 0x76, 0x7e, 0x87, 0xa9,
  0x9c, 0x74, 0x8b, 0x7d, 0x83, 0x86, 0x86, 0x7e, 0x6d, 0xa1, 0x91, 0x93,
  0x81, 0x87, 0x7d, 0x9c, 0x80, 0x7b, 0x6f, 0x7d, 0x8c, 0x80, 0x7d, 0x7f,
  0x85, 0x92, 0x7c, 0x97, 0x91, 0x76, 0xa5, 0x88, 0xac, 0x7b, 0x7f, 0x70,
  0x82, 0x93, 0x77, 0x9f, 0x86, 0x84, 0x73, 0x7d, 0x7d, 0x85, 0x95, 0x83,
  0x7c, 0x95, 0x8c, 0x75, 0x9b, 0xa0, 0x7c, 0x7f, 0xa7, 0x7e, 0xb1, 0x89,
  0x80, 0x8d, 0xae, 0x7b, 0x7d, 0x81, 0xab, 0x79, 0x7b, 0x7f, 0x95, 0x85,
  0xaa, 0x79, 0x8b, 0x84, 0x82, 0x84, 0x86, 0x87, 0x65, 0x73, 0xa8, 0x8e,
  0x86, 0x99, 0x9b, 0x7b, 0x60, 0x7c, 0x7c, 0x84, 0x97, 0x7d, 0x84, 0x7e,
  0x88, 0x73, 0x6a, 0x93, 0x62, 0x7a, 0x61, 0x76, 0x93, 0x73, 0x7e, 0x84,
  0x70, 0x81, 0x7f, 0xa3, 0xa0, 0x8a, 0x8c, 0x78, 0x78, 0xa0, 0x74, 0x62,
  0x6f, 0x7c, 0x8c, 0x7d, 0x66, 0x9b, 0xa7, 0x73, 0x87, 0x89, 0xa5, 0x7a,
  0x80, 0x77, 0x98, 0x7a, 0x87, 0x97, 0x6c, 0x7b, 0x9a, 0x7a, 0x81, 0x8f,
  0x8a, 0x75, 0x95, 0x73, 0x80, 0x86, 0x72, 0x9c, 0x70, 0xa0, 0x8d, 0x75,
  0x83, 0x9f, 0x9e, 0x88, 0x7e, 0x8e, 0x82, 0x84, 0x84, 0x7e, 0x79, 0x88,
  0x8a, 0x88, 0xae, 0x81, 0x82, 0x70, 0x6a, 0x88, 0x98, 0x73, 0x88, 0x7d,
  0x81, 0x93, 0xb0, 0x9d, 0x9a, 0x8d, 0x7e, 0x88, 0x74, 0x8f, 0xa9, 0x92,
  0x9a, 0x7a, 0x8d, 0x6a, 0x7a, 0x69, 0x73, 0x85, 0x99, 0x7b, 0x82, 0x82,
  0x6c, 0x8e, 0xa8, 0x7e, 0x82, 0x96, 0x84, 0x8c, 0x8c, 0x7f, 0x92, 0x6a,
  0x8d, 0x7c, 0x93, 0x85, 0x6e, 0x7c, 0x85, 0x7e, 0xa1, 0x6a, 0xbe, 0x83,
  0x8f, 0x8b, 0x8b, 0x84, 0x69, 0x88, 0xa7, 0x89, 0x8e, 0x71, 0xa2, 0x8a,
  0x98, 0x8c, 0x81, 0x8d, 0x7e, 0x79, 0x9b, 0x83, 0x7b, 0x7c, 0x7f, 0x79,
  0x6d, 0x62, 0x77, 0x95, 0x94, 0x63, 0xa4, 0x92, 0x82, 0x97, 0x89, 0x78,
  0x9d, 0x91, 0x95, 0x8c, 0x58, 0x6c, 0x87, 0x81, 0x85, 0x7d, 0x9d, 0x79,
  0x6f, 0x77, 0x75, 0x83, 0x79, 0x91, 0x93, 0x89, 0x93, 0x71, 0x77, 0x6d,
  0xa2, 0x79, 0x96, 0x8a, 0x79, 0x8e, 0x93, 0x7d, 0x91, 0x7e, 0x99, 0x95,
  0x8c, 0x79, 0x8b, 0x8e, 0xad, 0x7a, 0x9a, 0x83, 0x7a, 0x89, 0x7f, 0x96,
  0x9d, 0xa4, 0x83, 0x85, 0x88, 0x8b, 0x66, 0x89, 0x71, 0x60, 0x82, 0x89,
  0x75, 0x81, 0x8f, 0xa7, 0x7c, 0x86, 0x9c, 0x8c, 0x76, 0x78, 0x8a, 0x8e,
  0x84, 0x80, 0x76, 0x97, 0x85, 0x96, 0x91, 0x80, 0x89, 0x80, 0x92, 0xa6,
  0x86, 0x8b, 0x90, 0x86, 0x82, 0xa7, 0x8b, 0x70, 0x81, 0x85, 0xa1, 0x86,
  0x85, 0xb8, 0x90, 0x8b, 0x73, 0x77, 0x88, 0x86, 0x74, 0x90, 0x8f, 0x7f,
  0x93, 0x6f, 0x5d, 0x79, 0x7c, 0x88, 0x96, 0x73, 0x8f, 0x7e, 0x78, 0x74,
  0x74, 0x9e, 0xa6, 0x8f, 0x8d, 0x73, 0x8f, 0x96, 0x8d, 0x8e, 0xbd, 0x8b,
  0x7e, 0x85, 0x80, 0x92, 0x78, 0x88, 0x8a, 0x8b, 0x8e, 0x6f, 0x8a, 0x82,
  0x9f, 0x8a, 0x8e, 0x77, 0x97, 0x75, 0xaf, 0x7e, 0x87, 0x7c, 0xb5, 0x8a,
  0x6c, 0x84, 0x91, 0x80, 0x61, 0xad, 0x88, 0x7a, 0x73, 0x92, 0x78, 0x7e,
  0x69, 0x74, 0x9a, 0x8e, 0x71, 0x60, 0x95, 0x65, 0x8c, 0x74, 0x95, 0x95,
  0x67, 0x61, 0x87, 0x76, 0x81, 0xad, 0x9e, 0x83, 0x78, 0x79, 0x78, 0x80,
  0x72, 0x77, 0xb0, 0x91, 0x74, 0x77, 0x8a, 0x92, 0x8b, 0x78, 0x8a, 0x93,
  0x6d, 0x92, 0x7f, 0xa7, 0x80, 0x86, 0x7a, 0x85, 0x67, 0x89, 0x76, 0x8e,
  0x87, 0xb0, 0x79, 0x90, 0x74, 0x84, 0x93, 0x9d, 0x7a, 0x8b, 0x8d, 0x81,
  0x7a, 0x7a, 0x60, 0x92, 0x84, 0x7f, 0xb2, 0x8e, 0xa4, 0x74, 0x8d, 0x93,
  0xac, 0x92, 0x9b, 0xa0, 0x85, 0x73, 0x76, 0x99, 0x92, 0x8a, 0x80, 0x8c,
  0x8b, 0x85, 0x88, 0x79, 0xa8, 0x7c, 0x8f, 0x73, 0x7e, 0x64, 0x98, 0x78,
  0x7a, 0x7f, 0xab, 0x7e, 0x81, 0x6d, 0x87, 0x83, 0x8c, 0x74, 0x95, 0x95,
  0xb3, 0x95, 0x70, 0x8e, 0xa0, 0x89, 0xae, 0x88, 0x7a, 0x81, 0x86, 0x76,
  0x94, 0x99, 0xac, 0x98, 0x77, 0x6f, 0x5e, 0x80, 0x72, 0x78, 0x8a, 0x7a,
  0x99, 0x71, 0x91, 0x82, 0x98, 0x94, 0x94, 0x9c, 0x88, 0x92, 0x79, 0x78,
  0x9d, 0x76, 0xa2, 0x92, 0x65, 0x7f, 0x6d, 0x79, 0x8d, 0x82, 0xab, 0x8b,
  0x8e, 0x6b, 0x77, 0x6f, 0x8e, 0x84, 0x83, 0x83, 0x70, 0x88, 0x7a, 0x79,
  0x82, 0xa7, 0xad, 0xa2, 0x68, 0x7d, 0x81, 0x6b, 0x7d, 0xac, 0xa2, 0x92,
  0x71, 0x86, 0x85, 0x86, 0x86, 0x74, 0xad, 0x8b, 0x78, 0x6e, 0x8e, 0x8b,
  0x93, 0xa1, 0x82, 0x9f, 0x9e, 0x7e, 0x99, 0x99, 0x8b, 0xa6, 0x7f, 0x8d,
  0x69, 0x90, 0x69, 0x9c, 0xa7, 0x9e, 0x8d, 0x8e, 0x80, 0x90, 0xb1, 0x87,
  0x89, 0x81, 0x91, 0x8c, 0x81, 0x82, 0x84, 0x84, 0x7b, 0x73, 0xa7, 0xa0,
  0x96, 0x91, 0x7a, 0x96, 0x83, 0x6e, 0x91, 0x9b, 0x7a, 0x74, 0x93, 0x8a,
  0xa2, 0xa1, 0xa2, 0x8b, 0x9c, 0x93, 0x6b, 0x79, 0xa0, 0x9d, 0x85, 0x90,
  0x6d, 0x84, 0x88, 0x77, 0x6d, 0xa0, 0xac, 0x89, 0x73, 0x66, 0x92, 0x82,
  0x95, 0xa5, 0xa0, 0x99, 0xa6, 0x7c, 0x7f, 0x7c, 0xb7, 0x79, 0xb1, 0xab,
  0x9e, 0x6d, 0x8b, 0x86, 0xa3, 0x8c, 0xb7, 0x9f, 0x74, 0x85, 0x75, 0x73,
  0x84, 0x91, 0x90, 0x8a, 0x82, 0x7e, 0x5f, 0x7e, 0x91, 0x89, 0x96, 0x8f,
  0x90, 0x6c, 0x81, 0x62, 0x8e, 0x81, 0xa1, 0x86, 0x5f, 0x8c, 0x94, 0x76,
  0x85, 0x88, 0xa7, 0x7c, 0x6a, 0x87, 0x84, 0x6b, 0x70, 0x7a, 0x9b, 0x95,
  0x7c, 0x6e, 0x7a, 0x7e, 0x87, 0x7c, 0xa3, 0xb4, 0x6c, 0x76, 0x86, 0x68,
  0x7e, 0x82, 0x9d, 0xa8, 0x8d, 0x7b, 0x88, 0x73, 0x7c, 0x82, 0x9e, 0x86,
  0x94, 0x80, 0x80, 0x8d, 0x7e, 0x7d, 0x94, 0xac, 0x9c, 0x88, 0x7b, 0xab,
  0x7c, 0x9b, 0x7d, 0x87, 0x8c, 0x80, 0x8e, 0x9d, 0x79, 0x6d, 0x7e, 0x81,
  0x89, 0x8a, 0x61, 0x92, 0x82, 0x90, 0xa6, 0x91, 0x7b, 0x7a, 0x8c, 0x84,
  0x7a, 0x85, 0xac, 0x9b, 0x98, 0x91, 0x9c, 0x8e, 0xac, 0x51, 0xa4, 0xb8,
  0x97, 0x7f, 0x6e, 0xa0, 0x6f, 0xab, 0xb0, 0x6b, 0x75, 0x74, 0x91, 0x8b,
  0x9f, 0xa8, 0x9f, 0x7b, 0x67, 0x7d, 0x74, 0x7a, 0x7c, 0x77, 0x93, 0x9d,
  0x7f, 0x8a, 0x7f, 0x74, 0x8d, 0x7a, 0xa8, 0xa4, 0xb1, 0x80, 0x86, 0x9d,
  0x9b, 0x7a, 0xa6, 0xa4, 0x8c, 0x77, 0x68, 0x66, 0x9a, 0x6c, 0xa6, 0xa4,
  0x75, 0x6d, 0x82, 0x64, 0xa2, 0x7f, 0xa0, 0x7b, 0x82, 0x80, 0x85, 0x82,
  0x9f, 0x5e, 0xaa, 0x81, 0x8f, 0x7f, 0x98, 0x78, 0x95, 0x9a, 0xab, 0x9a,
  0x77, 0x82, 0x83, 0x6c, 0x94, 0x77, 0xa5, 0x91, 0x68, 0x7e, 0x8f, 0x7b,
  0xa3, 0x90, 0x7f, 0x93, 0x78, 0x84, 0x7f, 0x75, 0x84, 0x6e, 0xa2, 0x9c,
  0x7c, 0x78, 0x67, 0x6d, 0x88, 0x8f, 0xa8, 0xab, 0x79, 0x80, 0x75, 0x7d,
  0x62, 0x82, 0xac, 0x9b, 0x89, 0x79, 0x72, 0x83, 0x7a, 0x79, 0xa9, 0xa6,
  0x8c, 0x91, 0x85, 0xa3, 0x91, 0x72, 0x85, 0x95, 0x6e, 0x84, 0x74, 0x98,
  0x78, 0x80, 0x7a, 0x9b, 0x80, 0x8b, 0x8b, 0xa0, 0x84, 0x85, 0x9c, 0xa0,
  0x89, 0x71, 0x9d, 0x84, 0x85, 0x79, 0xc0, 0xa9, 0x8b, 0x98, 0x97, 0x89,
  0xa7, 0x6a, 0xa5, 0x98, 0xa6, 0x80, 0x82, 0x8c, 0x8a, 0x9f, 0xa6, 0x7b,
  0x76, 0x8d, 0xaf, 0x84, 0x88, 0x7b, 0x91, 0x8e, 0x65, 0x6f, 0x85, 0x6b,
  0x70, 0x72, 0x98, 0x8b, 0x77, 0x86, 0x9c, 0x75, 0xa2, 0x9c, 0x90, 0xa3,
  0xa0, 0x7d, 0x6d, 0x8f, 0xca, 0xa4, 0xb7, 0xab, 0x8e, 0x79, 0x83, 0x90,
  0xac, 0x6b, 0xc2, 0x8f, 0x77, 0x88, 0xb1, 0x80, 0x90, 0x9e, 0xae, 0x7e,
  0x94, 0x67, 0x70, 0x7f, 0xa6, 0x8f, 0x93, 0x87, 0x89, 0x78, 0x8e, 0x65,
  0xb2, 0x85, 0x9e, 0x9e, 0x79, 0x88, 0x7e, 0x74, 0x80, 0x92, 0x9f, 0x8b,
  0x67, 0x88, 0xa7, 0x61, 0x7d, 0x8e, 0x89, 0x8f, 0x7b, 0x8d, 0x84, 0x6b,
  0x9c, 0x93, 0xb6, 0xa3, 0x6c, 0x88, 0xa8, 0x61, 0x75, 0x97, 0xb0, 0xb7,
  0x73, 0x7a, 0x7d, 0x69, 0x8b, 0x79, 0xa6, 0xa6, 0x83, 0x92, 0x89, 0x8c,
  0x8a, 0x91, 0x9e, 0xa5, 0x9d, 0x7b, 0xa6, 0x9e, 0x84, 0xa3, 0x92, 0x9b,
  0x69, 0x8b, 0x80, 0x9f, 0x90, 0xa0, 0x83, 0x7d, 0x81, 0x91, 0x81, 0x84,
  0x7d, 0x85, 0x76, 0x96, 0x7b, 0x74, 0x83, 0x7f, 0x87, 0x6a, 0xb8, 0x94,
  0xb3, 0x80, 0x9b, 0xa2, 0xaf, 0x6e, 0xa1, 0xab, 0x8f, 0x8d, 0x96, 0x9b,
  0xa7, 0x80, 0xae, 0x81, 0x82, 0x8f, 0x8e, 0x98, 0x87, 0x92, 0x9a, 0x83,
  0x65, 0x8d, 0x67, 0x63, 0x7c, 0x7c, 0x96, 0x8f, 0x88, 0x8f, 0x7c, 0x8a,
  0xca, 0x76, 0xae, 0xab, 0x8e, 0x7f, 0x7c, 0x94, 0xc9, 0x7c, 0xc0, 0x8c,
  0x94, 0x87, 0x92, 0x7e, 0xb4, 0x6c, 0xaa, 0x98, 0x6f, 0x74, 0xaa, 0x6d,
  0xa2, 0x8b, 0xa5, 0x81, 0x85, 0x7e, 0x6a, 0x75, 0xa4, 0x7b, 0x9d, 0x99,
  0x86, 0x82, 0x95, 0x7b, 0xa4, 0x76, 0x96, 0x98, 0x81, 0x76, 0x90, 0x79,
  0x71, 0x96, 0x9e, 0x86, 0x72, 0x8a, 0xab, 0x79, 0x9c, 0x9c, 0x9b, 0x8d,
  0x89, 0x81, 0x8c, 0x77, 0x9b, 0xa9, 0x9d, 0xa6, 0x7b, 0x79, 0x7f, 0x60,
  0x85, 0x91, 0xb1, 0x97, 0x76, 0x7f, 0x6e, 0x79, 0x8e, 0x8b, 0xa8, 0x9a,
  0x85, 0x80, 0x9a, 0x8c, 0x8b, 0x6e, 0xa3, 0xa7, 0x86, 0x82, 0x85, 0xa1,
  0x7a, 0x9b, 0x85, 0x8b, 0x88, 0x87, 0x73, 0xa5, 0x5f, 0xa7, 0x83, 0x8c,
  0x7a, 0x84, 0xab, 0x92, 0x8b, 0x82, 0x91, 0x88, 0x83, 0x67, 0x7f, 0x8b,
  0x7a, 0x78, 0xbf, 0xaf, 0xa0, 0x7d, 0x8b, 0xa1, 0xa5, 0x85, 0xae, 0xa1,
  0x89, 0x78, 0xa1, 0x9a, 0x92, 0x95, 0xb1, 0x79, 0x74, 0x94, 0x65, 0x75,
  0x97, 0x9e, 0x9a, 0x83, 0x5e, 0x83, 0xa2, 0x76, 0x9b, 0x6f, 0x98, 0x91,
  0x87, 0x9d, 0x75, 0x73, 0xcb, 0x85, 0xa5, 0xb8, 0xa8, 0x93, 0x99, 0x90,
  0xbd, 0x81, 0xab, 0xab, 0x92, 0x85, 0x7a, 0x7b, 0xad, 0x8b, 0xab, 0x9d,
  0x85, 0x83, 0x8b, 0x64, 0x99, 0x77, 0xa8, 0x6b, 0x89, 0x74, 0x83, 0x74,
  0xae, 0x71, 0xa6, 0xa2, 0x98, 0x7e, 0x94, 0x70, 0x9a, 0xa1, 0xa9, 0x9f,
  0x7c, 0x83, 0x57, 0x6a, 0x81, 0xb0, 0xa5, 0x89, 0x76, 0x99, 0x93, 0x76,
  0x89, 0x99, 0x81, 0x96, 0x88, 0x7a, 0x83, 0x71, 0x95, 0x97, 0x9e, 0xb2,
  0x7d, 0x81, 0x92, 0x58, 0x8a, 0x71, 0xaa, 0xad, 0x84, 0x8e, 0x73, 0x74,
  0x7e, 0x8e, 0xa1, 0xb0, 0x86, 0x7b, 0x6f, 0x8d, 0x75, 0x95, 0xbf, 0xad,
  0x73, 0x89, 0x9d, 0x89, 0x7b, 0x9c, 0x7e, 0x92, 0x76, 0x7d, 0x84, 0xac,
  0x74, 0x78, 0x80, 0x7a, 0x85, 0x6e, 0x9f, 0x6f, 0x7e, 0x7f, 0x9f, 0x89,
  0x79, 0x67, 0x82, 0x86, 0x7c, 0x7e, 0xc4, 0x9d, 0xa7, 0x87, 0x93, 0xb0,
  0xb2, 0x5b, 0xab, 0x9f, 0x90, 0x89, 0x9d, 0x9b, 0x95, 0x87, 0xb3, 0x8b,
  0x82, 0x8b, 0x75, 0x80, 0x9a, 0x8d, 0xa2, 0x84, 0x6a, 0x82, 0xb1, 0x68,
  0x93, 0x77, 0xa8, 0x99, 0x7a, 0x98, 0x91, 0x69, 0xae, 0x81, 0xa5, 0xa2,
  0xa1, 0x86, 0x91, 0x95, 0xb5, 0xa3, 0xad, 0x98, 0x88, 0x7f, 0xae, 0x8a,
  0x96, 0x69, 0xb2, 0xaf, 0x75, 0x76, 0x70, 0x73, 0x93, 0x7b, 0xaa, 0x82,
  0x7a, 0x80, 0x7c, 0x77, 0xad, 0x75, 0xa8, 0x9f, 0x82, 0x7f, 0xaa, 0x76,
  0xa8, 0x84, 0xa3, 0x9e, 0x64, 0x8c, 0x85, 0x6d, 0x8e, 0x91, 0x94, 0x8f,
  0x66, 0x7a, 0x69, 0x76, 0x88, 0x95, 0x83, 0x94, 0x88, 0x7d, 0x6d, 0x73,
  0xa8, 0x92, 0xac, 0xa9, 0x6f, 0x81, 0x9c, 0x5e, 0x86, 0xa7, 0xa2, 0x9e,
  0x7a, 0x83, 0x88, 0x73, 0x9f, 0x6d, 0xa9, 0xb6, 0x8b, 0x8a, 0x6e, 0x89,
  0x8d, 0x7e, 0x9d, 0xbf, 0x74, 0x92, 0x6c, 0x94, 0x60, 0x81, 0x84, 0x9c,
  0x9c, 0x77, 0x66, 0x93, 0x8e, 0x93, 0x7e, 0x8a, 0x8a, 0x6a, 0x8a, 0x84,
  0x7d, 0x92, 0x87, 0x9d, 0x81, 0x72, 0x83, 0x80, 0x7a, 0x8d, 0xa5, 0xa1,
  0x9e, 0x7b, 0x9e, 0x9f, 0xa8, 0x7b, 0x9c, 0xa2, 0xae, 0x8e, 0x5e, 0x97,
  0x99, 0x82, 0xaa, 0x6f, 0x77, 0x84, 0x76, 0x87, 0x97, 0x91, 0x96, 0x93,
  0x72, 0x90, 0xb1, 0x87, 0x9a, 0x88, 0xa3, 0x9e, 0x87, 0x80, 0x90, 0x7e,
  0xcb, 0x74, 0x94, 0xac, 0xaa, 0x73, 0x7a, 0x96, 0xbf, 0xb0, 0xab, 0x9c,
  0x97, 0x85, 0xa8, 0x84, 0x83, 0x7a, 0xa2, 0x8f, 0x76, 0x78, 0x78, 0x5e,
  0x93, 0x52, 0xb2, 0x97, 0x80, 0x7c, 0x62, 0x7f, 0x9e, 0x7e, 0x8a, 0x9d,
  0x89, 0x81, 0x65, 0x6f, 0xa0, 0xa8, 0xa6, 0x85, 0x5f, 0x89, 0x6c, 0x65,
  0x87, 0x97, 0x94, 0x7a, 0x6c, 0x86, 0x85, 0x65, 0x7f, 0xac, 0x86, 0x8b,
  0x93, 0x7b, 0x89, 0x64, 0x94, 0x89, 0xa2, 0xa3, 0x84, 0x7e, 0x67, 0x68,
  0x84, 0x85, 0x98, 0xb1, 0x81, 0x7a, 0x73, 0x5d, 0x8d, 0xa2, 0xb1, 0x89,
  0x72, 0x81, 0x92, 0x7f, 0x7d, 0x88, 0x94, 0xa0, 0x79, 0x8d, 0x88, 0x90,
  0x75, 0x85, 0x86, 0x9d, 0x97, 0x92, 0x7a, 0x8e, 0x86, 0x7e, 0x81, 0x87,
  0x88, 0x67, 0xba, 0x90, 0x86, 0x86, 0x8b, 0x97, 0x72, 0x64, 0x88, 0x76,
  0x79, 0x63, 0xb6, 0xa5, 0xa0, 0x74, 0x87, 0x91, 0xa8, 0x5f, 0xaa, 0x9d,
  0xa4, 0x95, 0x7c, 0x9e, 0xa2, 0x93, 0xac, 0x89, 0x81, 0x79, 0x87, 0x7c,
  0xa8, 0xac, 0x9c, 0x93, 0x74, 0x8b, 0x80, 0x79, 0x90, 0x89, 0x87, 0x9a,
  0x8b, 0x77, 0x91, 0x80, 0xda, 0x80, 0xb3, 0xa7, 0x8b, 0x85, 0x8a, 0x94,
  0xb2, 0x97, 0xbd, 0x8e, 0x85, 0x88, 0xa4, 0x7e, 0x8e, 0x86, 0xa8, 0xa5,
  0x73, 0x94, 0x91, 0x71, 0xa4, 0x76, 0xa9, 0x8f, 0x7c, 0x81, 0x77, 0x74,
  0xad, 0x74, 0x9e, 0x9a, 0x75, 0x7d, 0x95, 0x8a, 0xa9, 0x89, 0xa8, 0xad,
  0x61, 0x7d, 0x6d, 0x72, 0x90, 0x8f, 0x9a, 0x88, 0x73, 0x88, 0x5f, 0x75,
  0x94, 0x8b, 0x9b, 0x9f, 0x74, 0x8a, 0x74, 0x66, 0x93, 0x9b, 0xa7, 0xba,
  0x82, 0x76, 0x6a, 0x6b, 0xa4, 0x9e, 0xb3, 0x93, 0x80, 0x7b, 0x76, 0x73,
  0x9e, 0x88, 0xb3, 0xab, 0x76, 0x78, 0x83, 0x84, 0x91, 0x7a, 0xa9, 0x9a,
  0x6c, 0x80, 0x7e, 0x84, 0x61, 0x8b, 0x82, 0x9f, 0x5f, 0x73, 0x97, 0x8a,
  0x8c, 0x70, 0x7c, 0x7d, 0x8a, 0x4b, 0x8a, 0x92, 0x82, 0x89, 0xa6, 0x96,
  0x7e, 0x56, 0x95, 0x71, 0x78, 0x7b, 0x9e, 0xad, 0x9f, 0x7f, 0x77, 0x93,
  0x94, 0x7d, 0xaa, 0x92, 0x9a, 0x97, 0x8b, 0x9b, 0xb0, 0xaf, 0xaf, 0x8c,
  0x83, 0x8f, 0xa6, 0x8d, 0x8f, 0x9c, 0xa7, 0x89, 0x76, 0x8a, 0x6b, 0x91,
  0xab, 0x9b, 0x9f, 0x95, 0x7a, 0x79, 0x91, 0x85, 0xc4, 0x83, 0xa1, 0xb6,
  0x9e, 0x89, 0x7d, 0x86, 0xb0, 0xa2, 0xa0, 0x9f, 0x8d, 0x7c, 0x90, 0x83,
  0x8a, 0xa7, 0xb5, 0x91, 0x84, 0x7c, 0x8d, 0x72, 0xa0, 0x79, 0xad, 0x93,
  0x81, 0x83, 0x7f, 0x65, 0x94, 0x79, 0xaf, 0x9e, 0x85, 0x77, 0x87, 0x7a,
  0xa7, 0x9c, 0xa9, 0xa7, 0x5e, 0x78, 0x84, 0x6a, 0x85, 0x7a, 0xa2, 0x91,
  0x6c, 0x84, 0x6f, 0x5b, 0x82, 0x97, 0x88, 0x9c, 0x81, 0x83, 0x8a, 0x5b,
  0x8c, 0x9a, 0xa8, 0x90, 0x74, 0x80, 0x80, 0x60, 0x8a, 0xa3, 0xab, 0xa5,
  0x78, 0x75, 0x7b, 0x60, 0x94, 0x9b, 0x95, 0x99, 0x85, 0x7f, 0x64, 0x7a,
  0x83, 0x9d, 0x9f, 0x99, 0x7e, 0x7e, 0x91, 0x90, 0x72, 0x97, 0x88, 0xa3,
  0x5d, 0x7d, 0x85, 0x81, 0x88, 0x75, 0x89, 0x8a, 0x82, 0x6e, 0x76, 0x7e,
  0x86, 0x98, 0xa5, 0x93, 0x87, 0x64, 0x8c, 0x85, 0x8a, 0x56, 0xaa, 0xb8,
  0xa8, 0x72, 0xa7, 0x9c, 0xa2, 0x90, 0x9e, 0x9e, 0x98, 0xa3, 0x6d, 0x8b,
  0xb1, 0xaf, 0xae, 0x90, 0x88, 0x92, 0x70, 0x85, 0x8a, 0xa2, 0x86, 0x85,
  0x8b, 0x8c, 0x9c, 0x84, 0x96, 0x7a, 0x95, 0x85, 0x83, 0x86, 0x83, 0x75,
  0xcf, 0x8e, 0xa4, 0xab, 0xa1, 0x76, 0x99, 0x8f, 0xb6, 0xb7, 0xa0, 0xb0,
  0x8c, 0x7b, 0x81, 0x81, 0x90, 0x81, 0xad, 0x87, 0x77, 0x7b, 0x87, 0x6f,
  0x8d, 0x71, 0xbe, 0x97, 0x78, 0x6a, 0x67, 0x72, 0xb3, 0x92, 0xa1, 0xad,
  0x8d, 0x86, 0x93, 0x75, 0xb2, 0x91, 0x99, 0xae, 0x72, 0x6d, 0x70, 0x77,
  0x76, 0x92, 0x97, 0x81, 0x6b, 0x87, 0x79, 0x81, 0x7b, 0x81, 0x89, 0x7c,
  0x76, 0x82, 0x90, 0x61, 0x84, 0x7e, 0x99, 0xa7, 0x82, 0x82, 0x82, 0x6c,
  0x92, 0x92, 0xa1, 0xb7, 0x82, 0x79, 0x76, 0x79, 0x96, 0x98, 0xa2, 0xa8,
  0x89, 0x7e, 0x8d, 0x7b, 0x90, 0xb4, 0x9d, 0x98, 0x84, 0x8e, 0x6f, 0x86,
  0x74, 0xa4, 0x85, 0x9d, 0x8d, 0x76, 0x75, 0x90, 0x8a, 0x6c, 0x7c, 0x8c,
  0x8a, 0x5b, 0x9e, 0x89, 0x83, 0x81, 0x91, 0x91, 0x63, 0x6c, 0x99, 0x7d,
  0x8a, 0x84, 0x9b, 0xad, 0x9f, 0x70, 0x5b, 0x9e, 0xbe, 0x8b, 0x9c, 0x91,
  0xa4, 0x94, 0x7f, 0x9a, 0xa6, 0xb4, 0xb1, 0x7c, 0x80, 0x89, 0x78, 0x79,
  0x84, 0xa2, 0x86, 0x85, 0x84, 0x81, 0x79, 0x88, 0x94, 0x78, 0x9d, 0x9a,
  0x8e, 0x83, 0x9f, 0x7e, 0xbd, 0x88, 0xa7, 0xbd, 0xa1, 0x82, 0x84, 0x99,
  0xb1, 0xa5, 0xac, 0x9a, 0x83, 0x81, 0x79, 0x8e, 0x9a, 0x8f, 0xa1, 0x92,
  0x7f, 0x88, 0x87, 0x76, 0x81, 0x82, 0xb6, 0x81, 0x7d, 0x6f, 0x8e, 0x6c,
  0xa5, 0x8a, 0xb5, 0x97, 0x92, 0x79, 0x66, 0x78, 0xaa, 0x8d, 0xa5, 0x9d,
  0x70, 0x86, 0x72, 0x69, 0x87, 0x77, 0x9a, 0x90, 0x6c, 0x77, 0x5c, 0x63,
  0x88, 0x7d, 0x9d, 0x79, 0x7f, 0x85, 0x8a, 0x68, 0x7d, 0xa2, 0x9a, 0x99,
  0x8a, 0x7c, 0x94, 0x6b, 0x87, 0x8b, 0xab, 0x98, 0x6a, 0x7f, 0x6d, 0x6c,
  0x8a, 0x9d, 0xab, 0x97, 0x7b, 0x83, 0x76, 0x6d, 0x7c, 0x86, 0x98, 0xa1,
  0x6b, 0x76, 0xa8, 0x75, 0x91, 0x8d, 0x7e, 0xa3, 0x8e, 0x84, 0x7e, 0x6e,
  0x7a, 0x79, 0x8a, 0x80, 0x8e, 0x5b, 0x91, 0x7a, 0x7f, 0x88, 0x82, 0xa9,
  0x6b, 0x65, 0x91, 0x7b, 0x83, 0x59, 0xa9, 0xb3, 0xad, 0x68, 0x99, 0x9b,
  0xb0, 0x87, 0xaa, 0x94, 0x9c, 0x92, 0xa9, 0x98, 0xa9, 0x8d, 0xbb, 0x75,
  0x8c, 0x85, 0x89, 0x92, 0x8b, 0xa0, 0xa1, 0x99, 0x97, 0xa0, 0x8d, 0x7c,
  0xa2, 0x90, 0x9c, 0x9c, 0x7f, 0x77, 0xa6, 0x6f, 0xd4, 0x9d, 0xb4, 0xa4,
  0x95, 0x98, 0x76, 0x94, 0xb4, 0xb5, 0x9e, 0x96, 0x75, 0x83, 0x70, 0x77,
  0x92, 0x87, 0xad, 0x92, 0x70, 0x71, 0xa5, 0x7c, 0xa0, 0x80, 0xab, 0x87,
  0x83, 0x72, 0x6c, 0x6b, 0x9e, 0x94, 0xb6, 0xa3, 0x8e, 0x80, 0x7a, 0x7f,
  0xa2, 0x82, 0xa5, 0xa2, 0x5f, 0x76, 0x8b, 0x73, 0x82, 0xa5, 0x9b, 0x8f,
  0x71, 0x6e, 0x8c, 0x76, 0x98, 0x87, 0x87, 0x78, 0x7f, 0x82, 0x78, 0x7c,
  0x86, 0x97, 0x9a, 0x8e, 0x81, 0x84, 0x78, 0x77, 0xa0, 0x96, 0x8a, 0xa2,
  0x85, 0x83, 0x81, 0x73, 0x8d, 0xad, 0xa9, 0x9b, 0x83, 0x7b, 0x7d, 0x74,
  0x88, 0x8b, 0x8e, 0x99, 0x6a, 0x78, 0x77, 0x83, 0x8a, 0xb3, 0x90, 0x93,
  0x63, 0x77, 0x56, 0x7f, 0x7a, 0x87, 0x7d, 0x7a, 0x87, 0x5d, 0x96, 0x8b,
  0x8d, 0x86, 0x8f, 0xa2, 0x86, 0x6f, 0x73, 0x7f, 0x74, 0x7d, 0x94, 0xb0,
  0x9e, 0x6e, 0x87, 0x9a, 0xd6, 0x8f, 0xa5, 0x85, 0xaf, 0x85, 0xa4, 0x8f,
  0xa5, 0x8b, 0xaf, 0x84, 0x82, 0x84, 0x8e, 0x7f, 0x8a, 0xb2, 0x9f, 0x97,
  0x8d, 0x8c, 0x85, 0x81, 0xa7, 0x88, 0x9c, 0x8b, 0x81, 0x89, 0x8e, 0x77,
  0xc5, 0x99, 0xab, 0x9c, 0x91, 0x90, 0x7d, 0x69, 0xa7, 0xaa, 0x9f, 0x98,
  0x8d, 0x80, 0x69, 0x76, 0x98, 0x7c, 0xba, 0x9a, 0x72, 0x7f, 0xa1, 0x80,
  0xa5, 0x92, 0xbd, 0x79, 0x82, 0x82, 0x69, 0x6e, 0xac, 0x9b, 0xb7, 0xa2,
  0x9b, 0x7d, 0x7c, 0x84, 0x9c, 0x8d, 0xa6, 0xb0, 0x74, 0x81, 0x87, 0x6b,
  0x6b, 0x85, 0x94, 0xa8, 0x7e, 0x7a, 0x83, 0x66, 0x87, 0x99, 0x9b, 0x7c,
  0x83, 0x74, 0x6a, 0x6a, 0x8b, 0x9d, 0x9b, 0x80, 0x82, 0x88, 0x82, 0x65,
  0x92, 0xb9, 0xa1, 0x8f, 0x88, 0x7b, 0x63, 0x60, 0x83, 0x86, 0x9c, 0xab,
  0x93, 0x85, 0x7e, 0x73, 0x86, 0x9d, 0x8a, 0x85, 0x6d, 0x89, 0x6c, 0x86,
  0x83, 0x8a, 0x93, 0x9c, 0x82, 0x7e, 0x6a, 0x72, 0x96, 0xac, 0x77, 0x8b,
  0x89, 0x5a, 0x75, 0x6e, 0x89, 0x8e, 0xa5, 0xa3, 0x82, 0x5a, 0x7b, 0x7f,
  0x84, 0x57, 0xa8, 0xb0, 0xbb, 0x7b, 0xaf, 0x83, 0xae, 0x8d, 0xa7, 0x7e,
  0xa1, 0x6b, 0x76, 0x91, 0x9c, 0xa5, 0xb7, 0x6d, 0x93, 0x88, 0x8c, 0x81,
  0x91, 0xb3, 0xa5, 0x7c, 0x8a, 0x90, 0x6f, 0x70, 0xa9, 0x8e, 0x96, 0x8d,
  0x92, 0x7f, 0x7c, 0x65, 0xcc, 0x81, 0x9f, 0xa3, 0x9e, 0xa1, 0x9a, 0x65,
  0xb9, 0xa4, 0xab, 0x9f, 0x93, 0x92, 0x88, 0x89, 0x95, 0xa5, 0xb3, 0x9d,
  0x76, 0x89, 0xa7, 0x7e, 0x8e, 0x6f, 0xa9, 0x7a, 0x8d, 0x7b, 0x80, 0x66,
  0x8f, 0x9c, 0x9b, 0x9d, 0x8b, 0x8b, 0x8a, 0x7c, 0x9b, 0x8d, 0x99, 0xa8,
  0x7c, 0x81, 0x66, 0x6b, 0x7f, 0x95, 0xa0, 0x8a, 0x85, 0x7a, 0x71, 0x68,
  0x80, 0x8f, 0x8d, 0x71, 0x80, 0x86, 0x6d, 0x62, 0xa0, 0x8f, 0xa9, 0x78,
  0x85, 0x74, 0x87, 0x67, 0x98, 0xa6, 0xa3, 0x93, 0x7b, 0x7d, 0x81, 0x65,
  0x87, 0x84, 0xa1, 0xab, 0x90, 0x7a, 0x96, 0x6d, 0x85, 0x8d, 0x8f, 0x8e,
  0x79, 0x69, 0x99, 0x86, 0x89, 0xa0, 0x80, 0x9c, 0x9d, 0x81, 0x69, 0x89,
  0x7a, 0xae, 0x73, 0x88, 0x8d, 0x61, 0x87, 0x84, 0x7b, 0x94, 0x81, 0xa4,
  0x84, 0x68, 0x66, 0x79, 0x88, 0x81, 0xac, 0xa9, 0x9c, 0x66, 0x71, 0x8a,
  0xaa, 0x87, 0xae, 0x6d, 0x93, 0x6b, 0x69, 0x8a, 0xa9, 0xb2, 0xb5, 0x78,
  0x83, 0x83, 0x8d, 0x76, 0x8d, 0xca, 0xa4, 0x85, 0x7e, 0x9b, 0x86, 0x79,
  0x9b, 0x8a, 0x9a, 0xa7, 0x8f, 0x8e, 0x7a, 0x81, 0xbd, 0x97, 0xa2, 0xa3,
  0x92, 0x99, 0x6e, 0x72, 0xbe, 0x9f, 0x9a, 0xa3, 0x87, 0x7d, 0x72, 0x6b,
  0x98, 0x6a, 0xb0, 0x84, 0x90, 0x83, 0x60, 0x83, 0x89, 0x9a, 0xaf, 0x8d,
  0x8a, 0x79, 0x7e, 0x84, 0x8d, 0xa3, 0xac, 0x86, 0x85, 0x77, 0x92, 0x77,
  0x9c, 0x84, 0xa0, 0x89, 0x8a, 0x7e, 0x81, 0x6f, 0x8a, 0x74, 0x91, 0x7e,
  0x93, 0x97, 0x75, 0x63, 0x83, 0x8b, 0x9f, 0x81, 0x87, 0x8f, 0x77, 0x6f,
  0x84, 0xa6, 0x98, 0x77, 0x7c, 0x79, 0x87, 0x68, 0x96, 0x92, 0x9c, 0x99,
  0x7f, 0x73, 0x9a, 0x60, 0x80, 0x96, 0x91, 0x9f, 0x9c, 0x7e, 0x86, 0x6f,
  0x8e, 0x9a, 0x78, 0x95, 0x7d, 0x7d, 0x7b, 0x72, 0x93, 0x84, 0x89, 0x97,
  0x72, 0x76, 0x85, 0x8c, 0x95, 0x75, 0x87, 0x8b, 0x98, 0x5e, 0x97, 0x70,
  0x90, 0x90, 0x7e, 0xa1, 0x69, 0x66, 0x8e, 0x6c, 0x83, 0x5b, 0xb3, 0x7c,
  0x9f, 0x52, 0x75, 0x76, 0xc1, 0x83, 0xa9, 0x62, 0xa9, 0x6c, 0x77, 0x72,
  0x9b, 0xc9, 0xab, 0x6b, 0x8b, 0x86, 0x97, 0x75, 0x96, 0xb4, 0xb1, 0x7b,
  0x95, 0x96, 0x82, 0x78, 0x8f, 0x9a, 0x9c, 0x89, 0xb0, 0x81, 0x81, 0x83,
  0xc3, 0xb3, 0xa3, 0x9e, 0x96, 0x94, 0x7a, 0x7c, 0xba, 0x95, 0xa8, 0xb5,
  0x82, 0x8b, 0x8f, 0x7a, 0x9b, 0x82, 0x97, 0x82, 0x8f, 0x6a, 0x60, 0x79,
  0x83, 0x79, 0xa7, 0x77, 0x94, 0x84, 0x6e, 0x7e, 0x9d, 0x8e, 0xb3, 0x8e,
  0x90, 0x89, 0x7d, 0x79, 0x9f, 0x9f, 0x8f, 0xb3, 0x88, 0x78, 0x84, 0x62,
  0x90, 0x99, 0x81, 0x8a, 0x89, 0x84, 0x7b, 0x63, 0x70, 0x8f, 0x8d, 0x61,
  0x9b, 0x7d, 0x7c, 0x60, 0x73, 0xa5, 0x97, 0x84, 0x78, 0x91, 0x76, 0x73,
  0x76, 0x96, 0x96, 0x9f, 0x89, 0x79, 0x89, 0x6b, 0x95, 0x9e, 0x81, 0x95,
  0x98, 0x6f, 0x9a, 0x65, 0x7c, 0x87, 0x90, 0x8f, 0x87, 0x78, 0x8d, 0x82,
  0x69, 0x96, 0x87, 0xad, 0x69, 0x77, 0x7b, 0x63, 0x87, 0x6f, 0x8e, 0x91,
  0x8f, 0x55, 0x6f, 0xa5, 0x93, 0x98, 0x9e, 0x9e, 0x91, 0x65, 0x92, 0x7e,
  0x8d, 0x7e, 0x9a, 0x8a, 0xb8, 0x5e, 0x5d, 0x8d, 0xac, 0x93, 0x99, 0x76,
  0xa9, 0x58, 0x77, 0x72, 0xaf, 0xbf, 0xb2, 0x62, 0x99, 0x8a, 0x89, 0x80,
  0x97, 0xac, 0xae, 0x78, 0x8f, 0x94, 0x9a, 0x75, 0x9d, 0x93, 0x9d, 0x80,
  0x9e, 0x8c, 0x82, 0x77, 0xa9, 0xa7, 0xa5, 0x98, 0x94, 0xa0, 0x70, 0x6e,
  0xb9, 0xa5, 0x99, 0x94, 0x91, 0xa1, 0x77, 0x85, 0x8f, 0x85, 0x9a, 0x85,
  0x7a, 0x8e, 0x70, 0x67, 0x8b, 0x85, 0xb6, 0x93, 0x8c, 0x75, 0x5d, 0x7d,
  0x97, 0x8b, 0xad, 0x90, 0xb0, 0x78, 0x9f, 0x7c, 0xa5, 0x91, 0x9a, 0x98,
  0x75, 0x95, 0x72, 0x75, 0x80, 0x8e, 0x8f, 0x6e, 0x8c, 0x77, 0x9e, 0x63,
  0x76, 0x8b, 0x85, 0x60, 0x8b, 0x86, 0xaa, 0x56, 0x93, 0x7e, 0x91, 0x71,
  0x9b, 0x7a, 0x86, 0x6c, 0x98, 0xa7, 0xb0, 0x77, 0x85, 0x78, 0x9e, 0x5a,
  0x99, 0x91, 0x9c, 0x8f, 0x99, 0x89, 0x7e, 0x6f, 0x7c, 0xa8, 0x82, 0x93,
  0x78, 0x6f, 0x62, 0x80, 0x9c, 0x80, 0x7b, 0xa6, 0x88, 0x7b, 0x76, 0x7b,
  0x82, 0x8a, 0x78, 0x96, 0x8b, 0x52, 0x84, 0x9c, 0x8e, 0x9a, 0xa3, 0x97,
  0x7a, 0x54, 0x5b, 0x92, 0x91, 0x88, 0x93, 0xa3, 0x99, 0x41, 0x8c, 0x90,
  0x8f, 0x93, 0x86, 0x54, 0x98, 0x4a, 0x53, 0x7f, 0xc2, 0xc5, 0xac, 0x85,
  0x99, 0x96, 0x86, 0x84, 0xa1, 0x9d, 0xa4, 0x7e, 0x82, 0x9d, 0x7a, 0x8c,
  0x92, 0x8e, 0xba, 0x98, 0xab, 0x8a, 0x70, 0x83, 0xb0, 0x90, 0x9b, 0x9c,
  0xa6, 0xa6, 0x6a, 0x70, 0xb5, 0x80, 0x93, 0x9c, 0x85, 0xb1, 0x90, 0x75,
  0xa9, 0x9a, 0x8b, 0x66, 0x8a, 0x89, 0x9a, 0x73, 0x85, 0x8f, 0xa3, 0x65,
  0x87, 0x8d, 0x7b, 0x7c, 0x8d, 0xa9, 0x96, 0x8f, 0x92, 0x82, 0x78, 0x70,
  0x8d, 0x92, 0x92, 0x7a, 0x7b, 0x7d, 0x7a, 0x85, 0x80, 0x79, 0x77, 0x6e,
  0x69, 0x85, 0xb2, 0x6f, 0x7d, 0x88, 0x7e, 0x5a, 0x88, 0x74, 0x96, 0x7b,
  0x93, 0x89, 0x8b, 0x6e, 0x81, 0x6d, 0x5e, 0x69, 0x92, 0x98, 0xaa, 0x5c,
  0x7d, 0x8a, 0x96, 0x6c, 0x8a, 0x96, 0xa2, 0x82, 0x85, 0x6f, 0x83, 0xa0,
  0x85, 0x8d, 0x82, 0x85, 0x6d, 0x71, 0x7d, 0x7d, 0x9d, 0xa7, 0x7f, 0x84,
  0x80, 0x78, 0x77, 0x8f, 0x9a, 0x83, 0x7f, 0x83, 0x83, 0x72, 0x78, 0x9e,
  0x8f, 0x69, 0xa4, 0x72, 0x86, 0x5d, 0x96, 0xa8, 0x84, 0x83, 0x82, 0x70,
  0x8e, 0x79, 0x78, 0x9f, 0x99, 0x6b, 0xa5, 0x89, 0xa9, 0x69, 0x78, 0xa4,
  0xb0, 0xa2, 0xa2, 0x90, 0x8f, 0x8e, 0x70, 0x87, 0x9f, 0x8c, 0x91, 0x9f,
  0x82, 0x9f, 0x69, 0x8f, 0xb9, 0x82, 0xb6, 0x76, 0x8d, 0x65, 0x78, 0x87,
  0xb8, 0x91, 0xa5, 0x97, 0x93, 0x95, 0x76, 0x95, 0xb6, 0x8a, 0x8a, 0x80,
  0x86, 0xa0, 0x86, 0x78, 0x8e, 0xa2, 0x94, 0x82, 0x9c, 0x92, 0x85, 0x88,
  0x88, 0x75, 0xab, 0x83, 0x9b, 0x9a, 0xa5, 0x7a, 0x8d, 0x89, 0x91, 0x84,
  0x95, 0x8f, 0xae, 0x71, 0xa6, 0x9a, 0xa7, 0x85, 0x6c, 0x8c, 0x57, 0x60,
  0x79, 0x60, 0x8e, 0x76, 0x76, 0x66, 0xa8, 0x7e, 0x6e, 0x96, 0x9a, 0x76,
  0x8e, 0x73, 0x84, 0x6b, 0x73, 0x82, 0x93, 0x6d, 0x87, 0x78, 0x7e, 0x60,
  0x83, 0x7a, 0xab, 0x80, 0x82, 0x93, 0x88, 0x60, 0x81, 0xa4, 0x8c, 0x8d,
  0x78, 0x85, 0x7a, 0x63, 0x6e, 0x87, 0x78, 0x70, 0x93, 0x82, 0x9f, 0x7a,
  0x7b, 0x76, 0x74, 0x7f, 0x7e, 0x74, 0x94, 0x90, 0x87, 0x96, 0x8e, 0x8e,
  0x82, 0x7f, 0x78, 0x5f, 0x8c, 0x7f, 0x66, 0x87, 0x9b, 0x7d, 0xa2, 0x8b,
  0x6c, 0x8d, 0xa7, 0x81, 0x95, 0xa0, 0x8b, 0x8c, 0x8a, 0x79, 0xa9, 0x93,
  0x90, 0x98, 0x9a, 0x78, 0x80, 0x7f, 0xa6, 0x93, 0x8b, 0x84, 0x6d, 0x7a,
  0x97, 0x9c, 0x9b, 0x73, 0x84, 0x6d, 0x76, 0x65, 0x82, 0x8f, 0x63, 0x65,
  0x6f, 0x7b, 0x63, 0x7f, 0x8d, 0x95, 0x7f, 0xa3, 0xa3, 0x82, 0xa6, 0x96,
  0x86, 0xb0, 0x8f, 0xa1, 0x83, 0xa2, 0x7f, 0x90, 0x8f, 0x83, 0x7a, 0x8a,
  0x80, 0x82, 0x89, 0x98, 0xaf, 0x6b, 0x75, 0x79, 0xa3, 0xae, 0x85, 0x6b,
  0x8e, 0x81, 0x6e, 0xa2, 0x9a, 0x85, 0x8a, 0x9b, 0x8a, 0x9b, 0x93, 0x7f,
  0x8a, 0x75, 0xa3, 0x95, 0x86, 0x79, 0x93, 0xa1, 0xae, 0x75, 0x7a, 0xaa,
  0x7c, 0xa4, 0x94, 0x9f, 0x96, 0x71, 0x86, 0x9b, 0x85, 0x63, 0x79, 0xa2,
  0x79, 0x8d, 0x8d, 0x84, 0x8d, 0x95, 0x90, 0xa8, 0x84, 0x99, 0x9c, 0x80,
  0x74, 0x85, 0x91, 0xaa, 0x98, 0x66, 0x69, 0x9b, 0x7c, 0x67, 0x9d, 0x90,
  0x8b, 0x8c, 0x8b, 0xac, 0xb4, 0x6e, 0x75, 0x8d, 0x91, 0x83, 0x88, 0x98,
  0x94, 0x82, 0x6f, 0x90, 0xa1, 0x86, 0x93, 0x94, 0x85, 0x7b, 0x7c, 0x79,
  0x82, 0x90, 0x86, 0x9a, 0xa2, 0x82, 0x85, 0x8d, 0x62, 0x7a, 0xa2, 0xad,
  0x7d, 0x8f, 0xa0, 0x86, 0x8d, 0x70, 0x7a, 0xad, 0x5e, 0x96, 0x74, 0x87,
  0xa0, 0x92, 0x8d, 0x9e, 0xac, 0x9e, 0x6c, 0xa2, 0x7e, 0x6c, 0x8f, 0xa3,
  0x96, 0x9c, 0x9d, 0x97, 0xb3, 0x85, 0x97, 0x7f, 0x75, 0x62, 0x79, 0xa2,
  0xa1, 0x7d, 0x9d, 0x90, 0x7a, 0x72, 0x95, 0x7a, 0x89, 0x86, 0x82, 0x97,
  0x83, 0x6e, 0x8a, 0x83, 0x97, 0x7e, 0x7d, 0x96, 0x7f, 0x9d, 0x64, 0x8e,
  0x89, 0x73, 0x72, 0xaf, 0x9d, 0x77, 0xa4, 0x9a, 0x90, 0x7d, 0xaf, 0x99,
  0x7e, 0x73, 0xac, 0x93, 0x80, 0x7d, 0xa0, 0x95, 0xb3, 0x91, 0x9a, 0x8c,
  0x68, 0x88, 0x9b, 0x94, 0x78, 0x8b, 0x78, 0x9f, 0x87, 0x82, 0x8b, 0x9b,
  0x9b, 0x92, 0x7e, 0x9a, 0xad, 0x76, 0x71, 0x89, 0x7b, 0x78, 0xab, 0xa5,
  0x7d, 0x7f, 0x9d, 0x90, 0xa4, 0x8f, 0xa8, 0x9d, 0x86, 0x83, 0x93, 0x9d,
  0x92, 0x8c, 0x8e, 0x9c, 0x88, 0x75, 0x7a, 0x91, 0x67, 0x9e, 0x8e, 0x7d,
  0x9c, 0x6e, 0x78, 0x78, 0xa9, 0x75, 0x8a, 0xa0, 0x92, 0xad, 0x7a, 0x96,
  0x73, 0x9a, 0x66, 0x91, 0xa6, 0xbd, 0x60, 0x9b, 0x98, 0x87, 0x85, 0x83,
  0xb0, 0x99, 0x7f, 0xa2, 0xa3, 0x64, 0x7e, 0x9d, 0x96, 0x96, 0x67, 0x9b,
  0x74, 0x7a, 0x9c, 0x81, 0x99, 0x83, 0xa5, 0xac, 0x82, 0xa7, 0xb8, 0x8d,
  0x8a, 0x77, 0x9e, 0xa9, 0x84, 0x96, 0x95, 0x87, 0xa7, 0x87, 0x96, 0x99,
  0xae, 0x8d, 0xa1, 0x9e, 0x90, 0x95, 0x75, 0xa4, 0x76, 0x6f, 0x84, 0x7f,
  0xa0, 0x91, 0xab, 0x87, 0x5c, 0x6f, 0x92, 0x90, 0x86, 0x92, 0x9b, 0x7a,
  0x86, 0x91, 0xba, 0x92, 0x74, 0xa4, 0x9d, 0x82, 0x90, 0x95, 0x8f, 0x97,
  0x83, 0x86, 0x6b, 0x7f, 0x7a, 0x97, 0xa0, 0x8f, 0x90, 0x95, 0x9f, 0x86,
  0x98, 0x7d, 0x91, 0x83, 0x9d, 0x79, 0x7b, 0x97, 0xb4, 0x62, 0x75, 0x90,
  0x90, 0xa4, 0x73, 0x7b, 0x7d, 0x76, 0x87, 0x86, 0xbc, 0x8d, 0x7d, 0x85,
  0x8c, 0x7c, 0x9c, 0x91, 0x8d, 0x9a, 0x8c, 0x88, 0x8f, 0xaf, 0x79, 0x8e,
  0x8e, 0x9f, 0x7c, 0x9c, 0x83, 0x61, 0x7d, 0x8d, 0x70, 0x92, 0x68, 0x6e,
  0x87, 0x92, 0x88, 0x6d, 0xa7, 0x8e, 0x98, 0x9f, 0xa1, 0x84, 0x80, 0x82,
  0x91, 0x9d, 0x9a, 0xa8, 0x8a, 0x89, 0x81, 0x80, 0x9f, 0x9c, 0x68, 0xad,
  0xb0, 0x88, 0x8d, 0x7e, 0xa8, 0xa8, 0x98, 0xbb, 0x91, 0x8f, 0x7a, 0x7e,
  0xae, 0x9a, 0xb1, 0xaf, 0x64, 0x72, 0x82, 0x6a, 0xa8, 0x7f, 0x68, 0x91,
  0x6c, 0x73, 0xa0, 0x6e, 0xaf, 0x95, 0x81, 0x9f, 0x9a, 0xa1, 0x7e, 0xa1,
  0x91, 0x9b, 0x79, 0x9a, 0x7f, 0x89, 0x8d, 0x8e, 0x99, 0x8c, 0x98, 0x9c,
  0x80, 0x8d, 0xb0, 0x79, 0x92, 0x8a, 0x80, 0x99, 0x5d, 0x78, 0xa0, 0x75,
  0x8d, 0x77, 0x8f, 0x89, 0x68, 0x98, 0x89, 0x94, 0x9b, 0xab, 0x8e, 0x86,
  0x72, 0x6e, 0x92, 0x84, 0x73, 0x97, 0x7f, 0x8f, 0x78, 0x78, 0x8e, 0x92,
  0xaa, 0x95, 0x9a, 0x89, 0x69, 0x79, 0xad, 0x86, 0x8d, 0xa1, 0xaf, 0x80,
  0x99, 0x7b, 0x91, 0x99, 0x83, 0x8b, 0x93, 0x86, 0x81, 0x96, 0x82, 0x98,
  0x93, 0x85, 0x88, 0x7e, 0x6e, 0x7d, 0x76, 0x9c, 0x86, 0x8a, 0x7e, 0x85,
  0x7f, 0x69, 0x7e, 0x95, 0x86, 0x9b, 0x75, 0x96, 0x82, 0x77, 0x83, 0x96,
  0xaf, 0x92, 0xb2, 0x88, 0x7a, 0xa7, 0x7e, 0x7a, 0x5f, 0x90, 0x9d, 0xa9,
  0xb4, 0x86, 0x77, 0x81, 0x7f, 0x93, 0x6b, 0xd0, 0x7c, 0x82, 0xa3, 0x77,
  0xb3, 0x91, 0x70, 0xcc, 0x9f, 0x6e, 0x99, 0x84, 0xb6, 0xb1, 0x5f, 0xc7,
  0x8f, 0x98, 0x93, 0x79, 0x9f, 0x68, 0x7c, 0xbf, 0x6b, 0x79, 0x9f, 0x58,
  0x89, 0x83, 0x8a, 0x9c, 0x5d, 0x7d, 0x8f, 0x5f, 0x97, 0x8d, 0xa6, 0xa2,
  0x50, 0x79, 0x9d, 0x8c, 0xad, 0x7a, 0x80, 0x98, 0x90, 0x95, 0x8f, 0x91,
  0x96, 0x9e, 0x9f, 0x97, 0x92, 0x7e, 0x98, 0x76, 0x67, 0x6e, 0x95, 0x8f,
  0x67, 0x80, 0x9d, 0x79, 0x7c, 0x89, 0x85, 0x8e, 0x89, 0xa0, 0x93, 0x89,
  0x85, 0xa5, 0x80, 0x80, 0x58, 0x97, 0x62, 0x7b, 0x81, 0x91, 0x7c, 0x88,
  0x7d, 0x7b, 0x80, 0x81, 0x88, 0xa5, 0x94, 0x83, 0x91, 0x8b, 0x93, 0x7e,
  0x75, 0x9c, 0xb3, 0x9b, 0x83, 0x81, 0x97, 0x91, 0x7c, 0x79, 0xa0, 0x95,
  0x78, 0x79, 0x98, 0x9f, 0xb1, 0xa8, 0x61, 0x9c, 0x84, 0x87, 0x8a, 0x7b,
  0x83, 0x7c, 0x8b, 0x95, 0x8b, 0x76, 0x9d, 0x89, 0x69, 0x94, 0x9a, 0x98,
  0x75, 0xa7, 0x93, 0x92, 0x85, 0x96, 0x97, 0xa9, 0xa0, 0x7c, 0x71, 0x79,
  0x8b, 0x80, 0x7b, 0x8f, 0x8f, 0x99, 0x71, 0x84, 0x89, 0x93, 0x7c, 0xd5,
  0x7a, 0x8a, 0x6f, 0x64, 0xaf, 0x98, 0x79, 0xfa, 0xab, 0x9e, 0x73, 0x72,
  0xca, 0x95, 0x5c, 0xcf, 0x95, 0x71, 0x83, 0x5e, 0x96, 0x70, 0x9b, 0xb7,
  0x45, 0x61, 0xa0, 0x43, 0x9b, 0x8d, 0x9c, 0xa9, 0x6a, 0x8e, 0xa8, 0x2f,
  0x8f, 0x75, 0x72, 0xa5, 0x8d, 0xae, 0x99, 0x6a, 0x9d, 0x91, 0x7d, 0xa8,
  0xa2, 0x84, 0x8a, 0x76, 0x96, 0xa8, 0x92, 0xb1, 0x78, 0x76, 0xa2, 0x62,
  0x73, 0x91, 0x93, 0x90, 0x70, 0x87, 0x94, 0x6a, 0x82, 0x8d, 0x81, 0x94,
  0x77, 0x7c, 0x7e, 0x66, 0x7f, 0xaf, 0xb3, 0x91, 0x6e, 0x89, 0x64, 0x7d,
  0x83, 0xa8, 0x70, 0x9f, 0x66, 0x93, 0x72, 0x8a, 0x92, 0x95, 0x8b, 0x86,
  0x87, 0x68, 0x81, 0x6e, 0x81, 0x8f, 0xa7, 0x90, 0x9f, 0x74, 0x8e, 0x64,
  0x7f, 0xad, 0x7f, 0x8e, 0x80, 0x66, 0x8e, 0x77, 0x99, 0x84, 0x6e, 0x94,
  0x89, 0x9b, 0x88, 0x7d, 0x73, 0x84, 0x6e, 0xa5, 0x74, 0x8a, 0x87, 0x78,
  0x8a, 0x84, 0x8d, 0xa2, 0x96, 0x77, 0x68, 0x6b, 0x7b, 0x88, 0x6d, 0x88,
  0x8c, 0x77, 0x78, 0x84, 0x7b, 0x82, 0x9c, 0x8a, 0x95, 0xb2, 0x85, 0x8a,
  0x8c, 0x8f, 0x8d, 0xe2, 0x88, 0x79, 0x96, 0x78, 0xb0, 0x99, 0x69, 0xe7,
  0x96, 0x73, 0x65, 0x82, 0xc6, 0xa6, 0x96, 0xd9, 0x72, 0x83, 0x79, 0x68,
  0x86, 0x72, 0xa2, 0xc9, 0x63, 0x90, 0x9f, 0x2e, 0xaa, 0x8c, 0x87, 0xac,
  0x4f, 0x96, 0xa0, 0x2b, 0xa7, 0x9c, 0xaf, 0xac, 0x53, 0x8c, 0x9b, 0x64,
  0x8c, 0x8b, 0x9c, 0xb0, 0x8a, 0x98, 0x99, 0x8e, 0x97, 0x86, 0x79, 0xa1,
  0x73, 0x83, 0x96, 0x6e, 0x78, 0x6c, 0x71, 0xa2, 0x71, 0x91, 0x9c, 0x5d,
  0x6f, 0x9c, 0xa4, 0x91, 0x7d, 0xa5, 0x6f, 0x72, 0x65, 0x9e, 0x6c, 0x9c,
  0x53, 0x87, 0x81, 0x6f, 0x90, 0x8d, 0x89, 0x8f, 0x52, 0x87, 0x7c, 0x6e,
  0x83, 0x9a, 0xa5, 0x9b, 0x8b, 0x8f, 0x8c, 0x87, 0x6d, 0x8a, 0x82, 0x8d,
  0x8c, 0x7e, 0x6e, 0x73, 0x7e, 0x88, 0xb4, 0x9a, 0x81, 0x72, 0x97, 0x83,
  0x83, 0x74, 0x9f, 0x91, 0x77, 0x91, 0x82, 0x7e, 0x86, 0x7c, 0x7f, 0x9e,
  0x99, 0x8e, 0x6f, 0x7e, 0x8a, 0x98, 0xb3, 0x97, 0x89, 0x8b, 0x8d, 0x90,
  0x8b, 0x91, 0xb1, 0xab, 0x91, 0x8d, 0x7f, 0x78, 0xb2, 0x77, 0x9d, 0xa7,
  0x9d, 0x81, 0x79, 0x7b, 0x8d, 0x87, 0x6d, 0xdf, 0x86, 0x89, 0x68, 0x73,
  0xb9, 0x91, 0x87, 0xf6, 0xaa, 0x75, 0x58, 0x70, 0xca, 0x99, 0x9c, 0xd5,
  0x6b, 0x8b, 0x7b, 0x6e, 0xae, 0x82, 0x8e, 0xd8, 0x38, 0x80, 0xa5, 0x0e,
  0x8f, 0x6a, 0x6e, 0xb5, 0x47, 0x93, 0xa6, 0x10, 0x8c, 0x84, 0x97, 0xa7,
  0x75, 0x95, 0x8d, 0x71, 0x8d, 0x8f, 0x6b, 0x98, 0x67, 0x7d, 0x9d, 0x7f,
  0x96, 0x83, 0x80, 0xc4, 0x71, 0xa4, 0x96, 0x67, 0x7c, 0x80, 0x6f, 0x94,
  0x62, 0x85, 0xa1, 0x6b, 0x7a, 0x7f, 0x87, 0x89, 0x6c, 0x8b, 0x97, 0x6a,
  0x7c, 0x91, 0x65, 0x9b, 0x47, 0x7d, 0x87, 0x58, 0x97, 0x9e, 0xb3, 0x95,
  0x5b, 0x9b, 0x88, 0x87, 0x8f, 0x84, 0x9e, 0x8b, 0x71, 0x83, 0x8d, 0x76,
  0x88, 0x76, 0x8f, 0x9f, 0x6d, 0x8e, 0x6f, 0x82, 0x80, 0x8e, 0xa1, 0x91,
  0x63, 0x71, 0x7e, 0x65, 0x8c, 0x6f, 0x88, 0xae, 0x75, 0x93, 0x72, 0x70,
  0x81, 0x7b, 0x8c, 0xa6, 0x56, 0x72, 0x9a, 0x75, 0xa0, 0x81, 0x9a, 0xab,
  0x79, 0x7e, 0x8d, 0x7e, 0x87, 0x96, 0x91, 0x9d, 0xa1, 0x75, 0x7f, 0x81,
  0x87, 0x81, 0x9e, 0x96, 0x9b, 0x9a, 0x76, 0x8b, 0x94, 0x95, 0x85, 0xf8,
  0x88, 0x7f, 0x8b, 0x89, 0xbb, 0x88, 0x89, 0xff, 0xa4, 0xad, 0x56, 0x7e,
  0xb6, 0xb6, 0x83, 0xd9, 0x75, 0x8f, 0x79, 0x4b, 0xba, 0x7f, 0x7d, 0xc6,
  0x53, 0x9e, 0xa7, 0x23, 0x8f, 0x83, 0x8f, 0xac, 0x35, 0x6e, 0x8c, 0x08,
  0x8c, 0x67, 0x94, 0x9d, 0x5f, 0x7e, 0x87, 0x72, 0x92, 0x8f, 0x6c, 0xa0,
  0x79, 0x7e, 0x7d, 0x8e, 0x97, 0x81, 0x6c, 0xa8, 0x7c, 0x7c, 0xa2, 0x63,
  0x85, 0x76, 0x8f, 0xa7, 0x78, 0x97, 0xb8, 0x60, 0x78, 0x8b, 0x87, 0xa5,
  0x73, 0x6e, 0x9a, 0x6c, 0x82, 0x7e, 0x7e, 0x9d, 0x5f, 0x6c, 0x81, 0x5e,
  0x8a, 0x99, 0x93, 0x90, 0x55, 0x7e, 0x7b, 0x8d, 0x90, 0x89, 0x9e, 0xa4,
  0x68, 0x7c, 0x93, 0x83, 0x8d, 0x76, 0x67, 0x87, 0x6f, 0x99, 0x74, 0x7d,
  0x81, 0x96, 0x87, 0x9e, 0x77, 0xaf, 0x9e, 0x6e, 0x7e, 0x88, 0xa1, 0xa4,
  0x5a, 0x7e, 0x6f, 0x80, 0x88, 0x80, 0x98, 0x94, 0x85, 0xa4, 0x7f, 0x7c,
  0x86, 0x9e, 0x82, 0xa3, 0x7e, 0x9a, 0x8e, 0x7c, 0x6b, 0x82, 0x6e, 0xae,
  0x72, 0x81, 0x8a, 0x85, 0xae, 0x8d, 0x84, 0xaf, 0x89, 0x73, 0x86, 0x88,
  0x88, 0x97, 0x7d, 0xd2, 0x83, 0x79, 0x9a, 0x77, 0xaa, 0x8e, 0x8b, 0xfc,
  0xbd, 0x73, 0x3c, 0x63, 0xda, 0xb1, 0xa1, 0xf1, 0x6c, 0x90, 0x74, 0x66,
  0xab, 0x8f, 0x9e, 0xcc, 0x63, 0xa3, 0xa2, 0x26, 0x9a, 0x85, 0xa6, 0xc0,
  0x3a, 0x86, 0x97, 0x05, 0x8f, 0x8d, 0x79, 0x96, 0x4c, 0x97, 0x68, 0x5c,
  0x98, 0x7a, 0x9e, 0xba, 0x82, 0xab, 0x9a, 0x8e, 0x8c, 0x75, 0x65, 0xaa,
  0x9a, 0x8f, 0xaf, 0x50, 0x80, 0x7c, 0x9e, 0x9f, 0x70, 0x97, 0x96, 0x61,
  0x7d, 0x7f, 0x7a, 0x8b, 0x65, 0xa1, 0x7d, 0x5a, 0x87, 0x91, 0x73, 0x9e,
  0x58, 0x93, 0x9c, 0x6c, 0x92, 0x94, 0x95, 0xa4, 0x69, 0xa0, 0x7b, 0x8c,
  0x94, 0x79, 0x76, 0xa6, 0x55, 0x86, 0x8d, 0x78, 0x6c, 0x88, 0xa7, 0x8f,
  0x4b, 0x82, 0x8f, 0x7a, 0x9b, 0x83, 0x7d, 0xaa, 0x66, 0x89, 0x85, 0x62,
  0x96, 0x7f, 0x63, 0x8e, 0x6a, 0x92, 0x86, 0x72, 0x85, 0x81, 0xb7, 0xa8,
  0x64, 0x8f, 0x85, 0x7e, 0x83, 0x7a, 0x88, 0xb6, 0x67, 0xaa, 0x88, 0x8d,
  0x87, 0x7a, 0x70, 0xa9, 0x94, 0x9c, 0x82, 0x78, 0x87, 0x86, 0xa6, 0xa6,
  0x92, 0x7f, 0x7f, 0x7f, 0x81, 0x9a, 0x7e, 0xe5, 0x8b, 0x7b, 0x63, 0x74,
  0xb2, 0x7d, 0x9f, 0xf9, 0xa9, 0x95, 0x4b, 0x7a, 0xbe, 0x9b, 0x93, 0xe8,
  0x76, 0x77, 0x80, 0x7e, 0x9e, 0x8d, 0x8e, 0xca, 0x5b, 0xab, 0xb0, 0x12,
  0x85, 0x8a, 0x84, 0xa5, 0x24, 0x90, 0xa0, 0x01, 0x90, 0x81, 0x81, 0x9c,
  0x67, 0x7d, 0x7b, 0x4d, 0xa1, 0x87, 0x85, 0xa1, 0x82, 0x7e, 0x95, 0xa1,
  0xa2, 0x8c, 0x86, 0xa1, 0x9e, 0x97, 0x9b, 0x8d, 0x7d, 0x88, 0x73, 0x9e,
  0x74, 0x87, 0xb0, 0x69, 0x91, 0x96, 0x89, 0x8f, 0x67, 0x8b, 0x83, 0x4a,
  0x89, 0x85, 0xa4, 0x98, 0x5d, 0x84, 0xb5, 0x75, 0xa5, 0x90, 0x9f, 0xa0,
  0x5a, 0x7b, 0x8b, 0x91, 0x98, 0x7a, 0x7d, 0x9a, 0x63, 0x87, 0x9c, 0x6d,
  0x89, 0x8c, 0x7a, 0x8d, 0x54, 0x84, 0x7b, 0x85, 0x8a, 0x89, 0x8f, 0x9c,
  0x6c, 0xa4, 0x93, 0x61, 0x85, 0x7b, 0x6d, 0x8d, 0x6e, 0x7e, 0x70, 0x8b,
  0x87, 0x93, 0xb2, 0xaa, 0x74, 0xb1, 0x7f, 0x82, 0x92, 0x81, 0x8e, 0x9c,
  0x77, 0xb4, 0x8c, 0x61, 0x77, 0x84, 0xa7, 0x96, 0x80, 0x8a, 0x77, 0x7a,
  0x7c, 0x78, 0x95, 0x9a, 0x8b, 0x8c, 0x7f, 0x7f, 0x88, 0x85, 0x70, 0xc0,
  0x82, 0x6d, 0x8d, 0x72, 0xb6, 0x79, 0x6c, 0xec, 0xa4, 0x91, 0x60, 0x74,
  0xcb, 0xa3, 0x86, 0xf9, 0x7d, 0x96, 0x80, 0x71, 0xb4, 0x8a, 0x81, 0xd1,
  0x3a, 0x82, 0xaa, 0x24, 0x8a, 0x8e, 0x8b, 0x9f, 0x3a, 0x8b, 0xa1, 0x01,
  0x90, 0x7c, 0xa5, 0x90, 0x67, 0xa9, 0x8b, 0x55, 0x8c, 0x79, 0x8b, 0x95,
  0x88, 0x79, 0x97, 0x7f, 0x95, 0x70, 0x96, 0xb1, 0x82, 0x85, 0xb1, 0x78,
  0x85, 0x7e, 0x81, 0xa6, 0x86, 0xb3, 0xaf, 0x77, 0x83, 0x83, 0x7d, 0xa6,
  0x61, 0x7e, 0x88, 0x5f, 0x8a, 0x8e, 0x97, 0x99, 0x54, 0x90, 0xa1, 0x75,
  0x8e, 0x91, 0x63, 0x9a, 0x3e, 0x62, 0x94, 0x66, 0x91, 0x83, 0x8c, 0x97,
  0x60, 0x76, 0x83, 0x8f, 0x81, 0x74, 0x8d, 0xa7, 0x51, 0x8b, 0x87, 0x6a,
  0x8d, 0x85, 0x76, 0xad, 0x66, 0xa5, 0x8a, 0x6c, 0x7e, 0x83, 0x94, 0xa7,
  0x68, 0x9d, 0x75, 0x75, 0x89, 0x8f, 0x6f, 0x9d, 0x74, 0x81, 0x98, 0x88,
  0x7b, 0x87, 0x99, 0xa6, 0x6b, 0x86, 0x85, 0x8f, 0x8c, 0x8f, 0x7a, 0x8c,
  0x9a, 0xaa, 0x7f, 0x7e, 0x96, 0x7b, 0xa8, 0x9e, 0x7a, 0xb0, 0x7e, 0x8e,
  0x91, 0x90, 0x8e, 0xc9, 0x7f, 0x89, 0x80, 0x87, 0xc4, 0x81, 0x81, 0xe3,
  0x9c, 0x82, 0x59, 0x7d, 0xca, 0x97, 0x93, 0xdc, 0x82, 0x9e, 0x69, 0x7a,
  0xc0, 0x7f, 0x94, 0xd3, 0x47, 0x8a, 0x9b, 0x1e, 0x80, 0x8b, 0x7e, 0xa8,
  0x27, 0x9e, 0x91, 0x01, 0x93, 0x89, 0xa2, 0xb5, 0x4e, 0x8e, 0x89, 0x58,
  0x98, 0x5a, 0xbe, 0xa7, 0x9b, 0xa7, 0x89, 0x8c, 0xa6, 0x65, 0x8b, 0xad,
  0x97, 0xb1, 0xad, 0x7d, 0x8f, 0x7f, 0x9a, 0xa9, 0x6f, 0xa2, 0xb1, 0x67,
  0x7a, 0x8d, 0x7f, 0x8a, 0x69, 0x98, 0x96, 0x66, 0x7e, 0x7f, 0x9d, 0xa2,
  0x70, 0x7c, 0x8a, 0x6e, 0x96, 0x84, 0x6a, 0x8b, 0x51, 0x87, 0x8d, 0x72,
  0x7f, 0x87, 0x9a, 0x8a, 0x5f, 0x8c, 0x7f, 0x71, 0x7d, 0x7b, 0x7e, 0x8d,
  0x32, 0x79, 0x6d, 0x62, 0x9d, 0x78, 0x82, 0xa2, 0x6f, 0x90, 0x83, 0x5f,
  0x99, 0x78, 0xab, 0xa0, 0x62, 0xa6, 0x75, 0x8b, 0x8e, 0x84, 0x8a, 0x8e,
  0x58, 0x80, 0xa6, 0x68, 0x9c, 0x8b, 0xa7, 0xa4, 0x7f, 0x84, 0x90, 0x71,
  0x98, 0x7e, 0x6f, 0x90, 0x79, 0x8f, 0x83, 0x7e, 0x6c, 0x8f, 0x7c, 0x8a,
  0x93, 0xb7, 0x7d, 0x80, 0x88, 0x8d, 0x8b, 0xd7, 0x84, 0x81, 0x94, 0x84,
  0xb0, 0x7b, 0x6c, 0xe0, 0xac, 0xa0, 0x6f, 0x7e, 0xcb, 0x97, 0x8f, 0xcc,
  0x7e, 0x73, 0x7b, 0x71, 0xae, 0x85, 0x67, 0xd3, 0x42, 0x9d, 0xa3, 0x38,
  0x87, 0x82, 0x63, 0xa0, 0x3c, 0x86, 0x97, 0x04, 0x8e, 0x78, 0x94, 0x9c,
  0x56, 0x9b, 0x7a, 0x55, 0xa5, 0x53, 0x72, 0xad, 0x8e, 0x7d, 0x9a, 0x86,
  0x91, 0x80, 0x76, 0xb1, 0x91, 0x7b, 0xc1, 0x6c, 0x8f, 0x7f, 0xb1, 0xa5,
  0x86, 0xaf, 0xaa, 0x77, 0x7a, 0x93, 0x73, 0x9c, 0x83, 0x7d, 0x84, 0x61,
  0x78, 0x8e, 0x8a, 0x9a, 0x63, 0x80, 0xa7, 0x63, 0x8c, 0x88, 0x90, 0xa6,
  0x52, 0x9d, 0x94, 0x8a, 0x90, 0x88, 0x72, 0x98, 0x5f, 0x80, 0x9e, 0x70,
  0x8e, 0x7e, 0xab, 0x9f, 0x43, 0x6c, 0x8e, 0x87, 0x87, 0x83, 0x96, 0x91,
  0x72, 0x82, 0x74, 0x74, 0x9b, 0x78, 0x86, 0x88, 0x70, 0xaf, 0x8e, 0x6e,
  0x94, 0x86, 0x86, 0x9b, 0x77, 0x8c, 0x91, 0x6d, 0x78, 0x77, 0x8b, 0xa3,
  0x66, 0xa0, 0x8a, 0x72, 0x9a, 0x8b, 0x91, 0x78, 0xa0, 0x9f, 0x7e, 0x84,
  0x77, 0x77, 0x81, 0xa1, 0x88, 0x72, 0x76, 0x86, 0x8d, 0x8a, 0x96, 0xd5,
  0x79, 0x78, 0x87, 0x82, 0xb5, 0x91, 0x6e, 0xd6, 0xa7, 0x7d, 0x4c, 0x83,
  0xc4, 0xab, 0x89, 0xe3, 0x90, 0xac, 0x78, 0x7e, 0xa6, 0x8b, 0x6b, 0xcf,
  0x35, 0x9c, 0x9a, 0x33, 0x8c, 0x7c, 0x72, 0xac, 0x1f, 0x7c, 0x8f, 0x12,
  0x92, 0x6b, 0x76, 0xb1, 0x5d, 0xa1, 0x89, 0x4c, 0x9e, 0x5c, 0x6d, 0xa7,
  0x9d, 0xa0, 0x92, 0x6f, 0xa2, 0x70, 0x65, 0xa9, 0x8c, 0x9d, 0xaa, 0x87,
  0x84, 0x82, 0x88, 0x96, 0x91, 0xa7, 0xc3, 0x6c, 0x8b, 0x89, 0x6e, 0x8e,
  0x75, 0xa4, 0x83, 0x56, 0x8a, 0x92, 0xb2, 0x88, 0x53, 0x82, 0x95, 0x6d,
  0x8a, 0x8b, 0x8b, 0x94, 0x66, 0x9f, 0x89, 0x7f, 0x8b, 0x79, 0x77, 0x98,
  0x57, 0x85, 0x8b, 0x81, 0x86, 0x89, 0x77, 0x90, 0x3e, 0x7d, 0x7d, 0x8c,
  0x98, 0x7f, 0x91, 0x99, 0x57, 0x9a, 0x85, 0x5a, 0x81, 0x88, 0x97, 0xa4,
  0x67, 0x97, 0x76, 0x7f, 0x97, 0x86, 0x90, 0xa7, 0x80, 0x90, 0x79, 0x61,
  0x90, 0x78, 0x89, 0x9b, 0x6e, 0x93, 0x8b, 0x74, 0xa1, 0x84, 0x7d, 0x99,
  0x66, 0x84, 0x8a, 0x94, 0x8d, 0x80, 0x79, 0x94, 0x8c, 0x90, 0x85, 0x88,
  0x86, 0xa5, 0x75, 0xcc, 0x83, 0x7f, 0x71, 0x87, 0xb3, 0x91, 0x99, 0xe1,
  0xaf, 0xb3, 0x5e, 0x91, 0xc6, 0x9b, 0x8a, 0xdc, 0xa3, 0x7c, 0x6d, 0x72,
  0xa7, 0x8c, 0x8b, 0xbd, 0x4f, 0x68, 0x8e, 0x3c, 0x95, 0x7c, 0x8c, 0xaf,
  0x36, 0x88, 0x89, 0x01, 0xa7, 0x71, 0x8e, 0xaa, 0x3a, 0x92, 0x6d, 0x53,
  0xa1, 0x67, 0xaf, 0x9b, 0x96, 0x87, 0x8d, 0x79, 0xa9, 0x61, 0x83, 0xaa,
  0x90, 0x8d, 0xad, 0x84, 0x83, 0x75, 0x86, 0x9b, 0x8a, 0xa9, 0xbb, 0x6d,
  0x84, 0x8d, 0xa0, 0x94, 0x74, 0x84, 0x98, 0x65, 0x71, 0x86, 0x72, 0x84,
  0x57, 0x71, 0x7b, 0x5f, 0x87, 0x94, 0x63, 0x89, 0x71, 0x7a, 0x7e, 0x8c,
  0x9e, 0x76, 0x87, 0x9c, 0x55, 0x8e, 0x7c, 0x6d, 0x7e, 0x89, 0xa5, 0xaa,
  0x32, 0x59, 0x83, 0x64, 0x9a, 0x7d, 0x91, 0x9c, 0x5c, 0x7c, 0x7a, 0x77,
  0x92, 0x8a, 0x77, 0xa1, 0x64, 0x9d, 0x7a, 0x84, 0x9e, 0x7a, 0x9f, 0xb3,
  0x77, 0x9a, 0x89, 0x69, 0x7f, 0x88, 0x65, 0x93, 0x88, 0x9a, 0x92, 0x7a,
  0x6f, 0x8b, 0x7f, 0xa4, 0x99, 0x91, 0x8a, 0x8c, 0x78, 0x82, 0x98, 0xa1,
  0x70, 0xbb, 0x73, 0x89, 0x87, 0xa3, 0x7f, 0xdd, 0x7d, 0x6f, 0x6a, 0x80,
  0x9c, 0x9a, 0x9c, 0xde, 0xa8, 0xb4, 0x5a, 0x8f, 0xd2, 0xa8, 0xa6, 0xda,
  0x81, 0x85, 0x74, 0x6d, 0xb3, 0x8e, 0x86, 0xc7, 0x50, 0x78, 0x8d, 0x32,
  0x81, 0x76, 0x86, 0x9e, 0x25, 0x8c, 0x86, 0x02, 0xa4, 0x5b, 0x79, 0xa8,
  0x4a, 0xb5, 0x92, 0x69, 0xb7, 0x61, 0xa7, 0xaa, 0x91, 0x7f, 0x9d, 0x79,
  0x9a, 0x59, 0x68, 0xb2, 0x95, 0x91, 0xc3, 0x6f, 0x88, 0x81, 0x7a, 0xa4,
  0x93, 0xae, 0xb6, 0x72, 0x7d, 0xa4, 0x86, 0x8a, 0x78, 0x9c, 0x82, 0x50,
  0x6f, 0x97, 0x82, 0x88, 0x66, 0x8f, 0x93, 0x57, 0x98, 0x90, 0x89, 0x8e,
  0x68, 0x8d, 0x97, 0x76, 0x8f, 0x91, 0x99, 0x8e, 0x4e, 0x7f, 0x82, 0x7f,
  0x73, 0x7d, 0xa4, 0x98, 0x49, 0x7f, 0x90, 0x72, 0x89, 0x7e, 0x7d, 0xa2,
  0x6e, 0x7d, 0x85, 0x60, 0x90, 0x77, 0x7e, 0x96, 0x6c, 0xb4, 0x8c, 0x68,
  0x7f, 0x84, 0x9d, 0xa8, 0x84, 0xac, 0x85, 0x7a, 0x92, 0x8b, 0xa7, 0x9c,
  0x8a, 0x8d, 0x83, 0x7b, 0x7d, 0x84, 0xa6, 0x8b, 0xa3, 0xa5, 0x86, 0x87,
  0x84, 0x7f, 0x87, 0x72, 0x7a, 0xb2, 0x88, 0x7f, 0x92, 0x9f, 0x8d, 0xce,
  0x7f, 0x7b, 0x7c, 0x97, 0x99, 0x96, 0x6f, 0xcb, 0xa8, 0x8c, 0x6e, 0x8c,
  0xc2, 0xb5, 0x7d, 0xcd, 0x7a, 0x6f, 0x84, 0x79, 0xa1, 0x8c, 0xa3, 0xcf,
  0x5f, 0x9a, 0xa2, 0x41, 0x96, 0x88, 0x9e, 0xaf, 0x28, 0x67, 0xa0, 0x09,
  0xb0, 0x6b, 0x92, 0xb1, 0x51, 0x81, 0x8a, 0x49, 0xaa, 0x4a, 0x7e, 0xa4,
  0x91, 0x64, 0x99, 0x65, 0x9e, 0x6c, 0x93, 0xad, 0x9d, 0x83, 0xb6, 0x7f,
  0x7c, 0x81, 0x7a, 0x91, 0x95, 0xb8, 0xc3, 0x61, 0x6f, 0x85, 0x84, 0x93,
  0x88, 0xac, 0x8a, 0x50, 0x7d, 0x92, 0x82, 0x7f, 0x5c, 0xa0, 0x9d, 0x60,
  0x8f, 0x8a, 0x97, 0x96, 0x44, 0x71, 0x8f, 0x77, 0x83, 0x79, 0xa5, 0xa4,
  0x60, 0x62, 0x83, 0x8a, 0x87, 0x7b, 0x8e, 0xa5, 0x5d, 0x90, 0x81, 0x57,
  0x97, 0x7e, 0x90, 0xac, 0x5e, 0x95, 0x8a, 0x74, 0x93, 0x85, 0x99, 0xa1,
  0x78, 0x95, 0x7a, 0x78, 0x92, 0x8c, 0x91, 0xaf, 0x7a, 0x9f, 0x84, 0x6c,
  0x90, 0x8a, 0x93, 0x9f, 0x8d, 0x73, 0x94, 0x85, 0xad, 0x83, 0xa3, 0x86,
  0xa4, 0xcb, 0x94, 0x83, 0x61, 0x89, 0x86, 0x86, 0x8f, 0x6a, 0x79, 0x7f,
  0x86, 0x94, 0x87, 0xe2, 0x83, 0x6d, 0x85, 0x9b, 0xbb, 0xab, 0xb8, 0xdb,
  0x95, 0xac, 0x58, 0x8b, 0xbd, 0xb9, 0x7e, 0xd6, 0x92, 0x9d, 0x7a, 0x6c,
  0xb4, 0x91, 0x97, 0xbe, 0x60, 0x94, 0x88, 0x45, 0x96, 0x7d, 0x96, 0xa5,
  0x1a, 0x7f, 0x90, 0x15, 0x9a, 0x55, 0x8b, 0xaa, 0x52, 0x83, 0x79, 0x50,
  0xa3, 0x5c, 0xb0, 0xb0, 0x89, 0x82, 0x94, 0x5b, 0x8f, 0x44, 0x76, 0x94,
  0x92, 0x90, 0xa5, 0x7b, 0x87, 0x7e, 0xb3, 0x8b, 0x9f, 0xb4, 0xd1, 0x78,
  0x7d, 0x98, 0x63, 0x9d, 0x82, 0x8b, 0x98, 0x6c, 0x73, 0xa1, 0x9b, 0x82,
  0x61, 0x96, 0x87, 0x63, 0x9d, 0x98, 0xab, 0xa3, 0x63, 0x71, 0x8c, 0x7b,
  0x82, 0x81, 0x95, 0x9d, 0x4c, 0x8c, 0x8b, 0x85, 0x82, 0x7f, 0x7d, 0x93,
  0x41, 0x83, 0x7d, 0x6c, 0x8a, 0x70, 0x8b, 0x97, 0x68, 0x8e, 0x8d, 0x79,
  0x85, 0x8d, 0x67, 0x9e, 0x71, 0xaa, 0x8a, 0x7c, 0x8d, 0x8c, 0x9d, 0x93,
  0x70, 0x98, 0x8a, 0x5f, 0x90, 0x90, 0x83, 0x94, 0x94, 0x97, 0x8e, 0x8b,
  0x9d, 0x94, 0x84, 0xa4, 0x7c, 0xab, 0x9a, 0x7e, 0x8c, 0x83, 0xa3, 0x85,
  0x89, 0x78, 0x6f, 0x8c, 0x8c, 0x95, 0x7e, 0xd2, 0x84, 0x81, 0x70, 0x9e,
  0xb3, 0xa7, 0xb2, 0xd1, 0xb3, 0x95, 0x63, 0x85, 0xc3, 0xc5, 0x7e, 0xc4,
  0x77, 0x83, 0x74, 0x75, 0xa0, 0x87, 0x95, 0xad, 0x65, 0x91, 0x89, 0x3c,
  0x8e, 0x7d, 0x91, 0xa1, 0x4d, 0xa0, 0x8e, 0x1f, 0xae, 0x61, 0x71, 0x95,
  0x37, 0x96, 0x75, 0x4e, 0xb1, 0x33, 0x9e, 0xa6, 0x8c, 0x75, 0x8a, 0x72,
  0xa2, 0x4e, 0xa4, 0x96, 0x98, 0x8c, 0xb0, 0x69, 0x8f, 0x83, 0x79, 0x92,
  0xa4, 0xcb, 0xc7, 0x89, 0x7a, 0xb0, 0x8a, 0x84, 0x7b, 0x93, 0x99, 0x54,
  0x7f, 0x95, 0xb4, 0x8d, 0x72, 0x85, 0x74, 0x68, 0x81, 0x96, 0x91, 0x9b,
  0x5c, 0x6f, 0x89, 0x79, 0x7e, 0x83, 0x76, 0xa2, 0x49, 0x7f, 0x81, 0x79,
  0x7e, 0x7d, 0x86, 0x99, 0x50, 0x9a, 0x75, 0x6b, 0x7e, 0x81, 0xac, 0x91,
  0x8b, 0x8e, 0x92, 0x6e, 0x83, 0x8c, 0x93, 0x9e, 0x88, 0xa4, 0x9f, 0x7f,
  0x8c, 0x84, 0x81, 0x8d, 0x6e, 0xa3, 0x95, 0x80, 0x8a, 0x84, 0x98, 0x96,
  0x90, 0x88, 0x87, 0x6b, 0x75, 0x74, 0x92, 0x9c, 0x9d, 0xaa, 0x8d, 0x7e,
  0x68, 0x8b, 0x90, 0x94, 0xa2, 0xa1, 0x77, 0x84, 0x85, 0x8e, 0x79, 0xcd,
  0x70, 0x89, 0x7d, 0x8e, 0xb2, 0xa9, 0x81, 0xcf, 0xa3, 0x9a, 0x79, 0x8b,
  0xc0, 0xb3, 0xac, 0xca, 0x62, 0x7f, 0x7b, 0x6c, 0xa4, 0x8f, 0x81, 0xb8,
  0x56, 0x8e, 0x8f, 0x63, 0x85, 0x6f, 0x7e, 0xa0, 0x42, 0x7e, 0x95, 0x17,
  0x94, 0x65, 0x96, 0xa4, 0x4d, 0x97, 0x74, 0x6e, 0x9d, 0x4e, 0x9c, 0xb7,
  0xa0, 0x7b, 0x98, 0x84, 0x98, 0x3f, 0x9f, 0x97, 0x9a, 0x9b, 0xa6, 0x89,
  0x87, 0x66, 0x7c, 0x79, 0xa2, 0xa8, 0xb8, 0x6f, 0x6f, 0xa6, 0x85, 0x90,
  0x7c, 0xa5, 0x8e, 0x72, 0x82, 0xa4, 0xaf, 0xa4, 0x6a, 0x9b, 0x91, 0x64,
  0x89, 0x90, 0x95, 0x9a, 0x5a, 0x85, 0x96, 0x60, 0x83, 0x79, 0x74, 0x96,
  0x75, 0x8f, 0x85, 0x81, 0x96, 0x8a, 0x85, 0x94, 0x66, 0x6f, 0x8a, 0x6c,
  0x7d, 0x83, 0xb2, 0xa7, 0x76, 0x8c, 0x9e, 0x81, 0x83, 0x86, 0x73, 0x98,
  0x72, 0xa4, 0x9c, 0x97, 0x76, 0x86, 0xa0, 0x8f, 0x7c, 0xaa, 0x85, 0x8a,
  0x85, 0x83, 0x9e, 0x9c, 0x9e, 0xaa, 0x91, 0x67, 0x85, 0x85, 0x7a, 0x8c,
  0x91, 0xaf, 0x8c, 0x72, 0x90, 0x87, 0x83, 0x8f, 0x7f, 0xa0, 0x89, 0x82,
  0x91, 0xb1, 0x83, 0xcb, 0x8c, 0x7f, 0x98, 0x90, 0x99, 0xab, 0x84, 0xc2,
  0xa2, 0xaa, 0x6b, 0x91, 0xb4, 0xb4, 0x87, 0xc1, 0x85, 0x92, 0x7d, 0x8a,
  0xaa, 0x84, 0x91, 0xad, 0x52, 0x8b, 0x7d, 0x5b, 0x97, 0x63, 0x88, 0x9d,
  0x50, 0x5d, 0x9c, 0x27, 0x94, 0x66, 0x78, 0xaa, 0x3f, 0xa9, 0x5b, 0x5d,
  0xbf, 0x50, 0x98, 0xac, 0x80, 0x72, 0x8f, 0x76, 0xa0, 0x3a, 0x91, 0x9f,
  0xa4, 0x71, 0xbe, 0x95, 0x92, 0x6c, 0xa2, 0x8b, 0xa6, 0xac, 0xb1, 0x70,
  0x84, 0x93, 0x78, 0x97, 0x82, 0x8d, 0x9a, 0x66, 0x79, 0xa4, 0x8e, 0x99,
  0x67, 0x80, 0x93, 0x80, 0x7f, 0x95, 0x98, 0x9c, 0x6f, 0x6c, 0x92, 0x89,
  0x7b, 0x7b, 0x90, 0x8b, 0x75, 0x82, 0x7c, 0x7f, 0x8a, 0x7f, 0x96, 0xab,
  0x51, 0x70, 0x8e, 0x79, 0x94, 0x86, 0x94, 0x9a, 0x5c, 0x90, 0x7c, 0x8f,
  0x6d, 0x8e, 0x74, 0x97, 0x64, 0x9b, 0x85, 0x9d, 0x96, 0x87, 0x89, 0x95,
  0x75, 0xaa, 0x81, 0x80, 0x81, 0x7b, 0xb1, 0x96, 0x8f, 0xa2, 0x9f, 0x85,
  0x84, 0x80, 0x78, 0x91, 0x93, 0xbb, 0x7f, 0x8c, 0x83, 0x7b, 0x97, 0x88,
  0x8c, 0x9b, 0x84, 0x97, 0x71, 0xaf, 0x88, 0xaf, 0x7e, 0x7d, 0x97, 0xa8,
  0xa8, 0x97, 0xa3, 0xda, 0xb0, 0xb1, 0x6c, 0xa3, 0xcc, 0xb8, 0x9e, 0xd5,
  0x78, 0x81, 0x7f, 0x93, 0x9e, 0x98, 0x90, 0xb6, 0x56, 0x90, 0x87, 0x5a,
  0x80, 0x5e, 0x9b, 0xa0, 0x48, 0x94, 0xa1, 0x2b, 0x82, 0x47, 0x79, 0xb2,
  0x30, 0xa7, 0x61, 0x75, 0x9f, 0x57, 0x8b, 0xac, 0x95, 0x87, 0x79, 0x61,
  0xa2, 0x42, 0x73, 0xa4, 0xa7, 0x89, 0xab, 0x71, 0x9d, 0x78, 0x83, 0xae,
  0xb0, 0xb6, 0xa7, 0x8d, 0x8a, 0x9b, 0xa5, 0x8a, 0x90, 0xa6, 0x9c, 0x87,
  0x75, 0x8e, 0x9e, 0x85, 0x8a, 0x93, 0x9d, 0x74, 0x87, 0x8c, 0x99, 0x9b,
  0x65, 0x76, 0x9d, 0x84, 0x6f, 0x96, 0x8c, 0x99, 0x6d, 0x80, 0x92, 0x73,
  0x7d, 0x75, 0xa0, 0x9b, 0x5d, 0x9e, 0x88, 0x7d, 0x78, 0x77, 0xa5, 0x9d,
  0x83, 0x74, 0x7f, 0x91, 0x97, 0x80, 0x84, 0x91, 0x87, 0x8a, 0x91, 0x95,
  0x8f, 0x7e, 0x82, 0x96, 0x8e, 0xb2, 0x9a, 0x7e, 0x9a, 0x88, 0x76, 0x86,
  0x91, 0xa7, 0x9c, 0x99, 0x75, 0x75, 0x85, 0x91, 0x97, 0x96, 0x76, 0x8f,
  0x7e, 0x83, 0x7d, 0x82, 0x9e, 0x9f, 0x71, 0x96, 0x76, 0x81, 0xae, 0x99,
  0x83, 0x94, 0x73, 0xc6, 0x7a, 0xa1, 0x8e, 0xb6, 0x88, 0x94, 0x63, 0x90,
  0x96, 0xad, 0x75, 0xb1, 0x80, 0x78, 0x71, 0x79, 0x67, 0xae, 0x88, 0xb4,
  0x5e, 0x9d, 0x90, 0x64, 0x75, 0x6c, 0x62, 0xac, 0x4b, 0x6b, 0x7e, 0x38,
  0x71, 0x47, 0x54, 0xb0, 0x3e, 0x81, 0x5c, 0x61, 0xa3, 0x38, 0xbc, 0xb5,
  0x75, 0x7f, 0x7c, 0x7c, 0x9a, 0x3f, 0x83, 0x90, 0xa0, 0x84, 0xa7, 0x8e,
  0x93, 0x62, 0x83, 0x9d, 0xb5, 0xc1, 0x8f, 0x74, 0x88, 0x9e, 0x96, 0x86,
  0x8d, 0x89, 0x93, 0x8d, 0x82, 0xa7, 0x9c, 0x92, 0x78, 0x83, 0x95, 0x7d,
  0x81, 0x95, 0x84, 0x7f, 0x6e, 0x78, 0x95, 0x7e, 0x73, 0x75, 0x93, 0xad,
  0x71, 0x7e, 0x86, 0x90, 0x7c, 0x7c, 0x88, 0x96, 0x77, 0x99, 0x7a, 0x87,
  0x81, 0x6c, 0x8e, 0x96, 0x82, 0x8a, 0x73, 0x7a, 0x7d, 0x6d, 0x7e, 0x95,
  0x8f, 0xad, 0x88, 0x82, 0x6c, 0x8b, 0xa6, 0x84, 0x83, 0xb6, 0x92, 0x78,
  0x96, 0x80, 0x9f, 0x90, 0x96, 0x9f, 0xaa, 0x6c, 0x86, 0x88, 0x8c, 0x91,
  0xaa, 0x97, 0x83, 0x75, 0xb0, 0x84, 0x89, 0x86, 0x9d, 0x71, 0x7e, 0x7a,
  0x77, 0x97, 0x81, 0x98, 0x84, 0x65, 0x91, 0x9e, 0x81, 0x91, 0x76, 0xbd,
  0x81, 0x8e, 0x6d, 0x9d, 0x84, 0xa9, 0x91, 0xaf, 0x5a, 0x81, 0x89, 0xa4,
  0x94, 0x94, 0xa7, 0xb1, 0x49, 0x79, 0x98, 0x7e, 0x6a, 0x7c, 0x89, 0xa1,
  0x2d, 0x8d, 0x78, 0x6a, 0x5f, 0x3d, 0x5f, 0x8e, 0x2c, 0x7c, 0x61, 0x6f,
  0x85, 0x54, 0x93, 0xa9, 0x77, 0x7f, 0x73, 0x7d, 0x76, 0x5b, 0x8a, 0xa5,
  0x9d, 0xa1, 0xa8, 0x92, 0x9c, 0x73, 0x91, 0x92, 0xa5, 0xb5, 0xa0, 0x83,
  0x7f, 0xa1, 0x88, 0x91, 0x9e, 0x99, 0x99, 0x74, 0x7b, 0xb3, 0x82, 0x8b,
  0x6f, 0x80, 0x8f, 0x60, 0x74, 0x88, 0x9d, 0x7e, 0x74, 0xa3, 0xa3, 0x8f,
  0x75, 0x9a, 0x75, 0x7d, 0x84, 0x79, 0x8d, 0xa1, 0x83, 0x63, 0x7e, 0x8f,
  0x75, 0x98, 0x82, 0x8c, 0x87, 0x70, 0x95, 0x9e, 0x78, 0x9b, 0x7f, 0x7d,
  0x87, 0x6f, 0x9f, 0x7e, 0x89, 0xa2, 0x8c, 0xaa, 0x84, 0xa1, 0x8b, 0x81,
  0x87, 0xa1, 0x83, 0x7d, 0x64, 0x8d, 0xa2, 0x68, 0x76, 0x83, 0x9e, 0x9b,
  0x73, 0x86, 0x6f, 0x76, 0xae, 0xbb, 0x73, 0x9f, 0x8a, 0x94, 0x6a, 0x8d,
  0xaa, 0x87, 0x84, 0x73, 0x99, 0x8a, 0x8b, 0xa0, 0xa3, 0x7e, 0x69, 0x8b,
  0xaa, 0x98, 0x80, 0x80, 0x73, 0x84, 0x91, 0x87, 0x9f, 0x98, 0x9f, 0xa8,
  0x72, 0x7d, 0x95, 0x9d, 0x63, 0x8b, 0x8e, 0x6f, 0xa4, 0x78, 0x78, 0x77,
  0x8d, 0x82, 0x90, 0xac, 0x7b, 0x91, 0x6e, 0x68, 0x6e, 0x95, 0x77, 0xb3,
  0x88, 0x84, 0x96, 0x86, 0xa5, 0x79, 0x87, 0xaf, 0xa1, 0x77, 0x80, 0x7e,
  0x9a, 0x5c, 0x7b, 0x93, 0x70, 0x67, 0x76, 0xaa, 0x8e, 0x6c, 0xac, 0x81,
  0x8d, 0x7b, 0x64, 0x8e, 0x7e, 0x83, 0x95, 0xaf, 0x6e, 0xac, 0x8d, 0x67,
  0x8a, 0x94, 0x97, 0x73, 0x6d, 0x92, 0x96, 0x79, 0x80, 0x9a, 0x72, 0x87,
  0xac, 0x74, 0x86, 0x89, 0x90, 0x5e, 0xae, 0xa3, 0x93, 0x69, 0x8e, 0x9c,
  0x63, 0x6d, 0x98, 0x87, 0xa0, 0x63, 0x89, 0x60, 0x80, 0x71, 0x83, 0x97,
  0xa1, 0x9c, 0x6c, 0x8b, 0x6e, 0x73, 0xa3, 0x6b, 0x81, 0xa8, 0x62, 0x79,
  0x89, 0x83, 0x6a, 0x80, 0x94, 0x7c, 0x8f, 0x76, 0x7d, 0x88, 0x6a, 0x8a,
  0x89, 0x7e, 0x71, 0xa3, 0x83, 0x83, 0x9c, 0x8a, 0x6e, 0x73, 0x8e, 0x83,
  0x62, 0xa6, 0x93, 0x82, 0x7a, 0x80, 0x83, 0x5d, 0x90, 0x90, 0x75, 0x80,
  0x82, 0x89, 0x86, 0x81, 0x7c, 0x92, 0x7b, 0x8a, 0x94, 0x88, 0x8c, 0x8b,
  0xad, 0x89, 0x82, 0x8a, 0x7d, 0x78, 0x9d, 0x7e, 0x95, 0x79, 0x8f, 0x89,
  0x9a, 0x8d, 0x8c, 0x99, 0x8c, 0xa1, 0xa3, 0x89, 0x7c, 0x93, 0x88, 0x8b,
  0xaf, 0x7c, 0x88, 0x8b, 0x94, 0x9c, 0xa1, 0x94, 0x6a, 0x90, 0x86, 0x9f,
  0xa1, 0xa6, 0x73, 0x7f, 0xa4, 0x88, 0xb0, 0x71, 0x9a, 0x87, 0xaa, 0x65,
  0xa4, 0x90, 0x91, 0x6c, 0x91, 0x82, 0x80, 0x6a, 0x87, 0x76, 0xa8, 0x67,
  0x63, 0x96, 0x82, 0x75, 0x6f, 0x74, 0xb0, 0x70, 0x8b, 0x9a, 0x73, 0x76,
  0x8c, 0x8b, 0x89, 0xa1, 0xa1, 0x88, 0x84, 0x8b, 0xb2, 0x7b, 0x90, 0x66,
  0x6b, 0x8d, 0x7a, 0x92, 0xb4, 0x94, 0x79, 0x89, 0x93, 0x8c, 0x85, 0x69,
  0x6c, 0x86, 0xa5, 0x82, 0x6e, 0x91, 0xa3, 0x7c, 0x8c, 0x80, 0x98, 0x94,
  0x92, 0x86, 0x90, 0x8d, 0x68, 0x80, 0x6f, 0xa6, 0xa2, 0x74, 0x9d, 0x89,
  0x91, 0x8f, 0x91, 0x7f, 0x81, 0xa5, 0x8e, 0x89, 0x8d, 0x7e, 0x9a, 0x82,
  0x76, 0x99, 0x90, 0x84, 0xa0, 0x77, 0x85, 0x76, 0x91, 0xa8, 0x89, 0x7a,
  0x84, 0xb8, 0x92, 0x80, 0x72, 0xa2, 0x71, 0x92, 0x89, 0xa4, 0xad, 0x61,
  0x77, 0x87, 0x6f, 0x7a, 0x77, 0x93, 0x75, 0x79, 0x7c, 0x6e, 0x78, 0x81,
  0x7c, 0x9b, 0x89, 0x77, 0x73, 0x85, 0x86, 0x78, 0x7b, 0x9a, 0x84, 0x93,
  0x8d, 0x6c, 0x91, 0x81, 0x7f, 0x98, 0x93, 0x8c, 0xa6, 0x84, 0x83, 0x8b,
  0x88, 0x9b, 0x77, 0x67, 0x8b, 0x88, 0xa7, 0x91, 0x84, 0x96, 0x68, 0x6a,
  0x92, 0x97, 0x9b, 0x78, 0x8d, 0xa8, 0x9f, 0x8d, 0x97, 0x5e, 0x92, 0x85,
  0x78, 0x90, 0x83, 0x79, 0x95, 0x88, 0xbb, 0x8a, 0x85, 0xa9, 0x8a, 0x7e,
  0x98, 0x8c, 0x7f, 0x82, 0x86, 0x8a, 0x85, 0x79, 0x62, 0x74, 0x88, 0x87,
  0x7f, 0x8d, 0x96, 0x72, 0x8a, 0x78, 0x8f, 0x7c, 0x83, 0xa3, 0x7f, 0x9a,
  0x6a, 0x8f, 0x95, 0x7a, 0x99, 0xa2, 0x83, 0x7f, 0x69, 0x7b, 0xa6, 0x6e,
  0x79, 0xa1, 0x5c, 0x6a, 0x6e, 0x78, 0x93, 0x70, 0x6d, 0x8e, 0x90, 0x79,
  0x77, 0x8b, 0x87, 0x7f, 0x8d, 0x82, 0x7f, 0x77, 0xab, 0x9d, 0x95, 0x6e,
  0x98, 0x8e, 0x91, 0x8c, 0x99, 0x86, 0x8b, 0x75, 0xac, 0x97, 0x67, 0x82,
  0x74, 0x7f, 0x82, 0x7a, 0x89, 0x7e, 0x73, 0x89, 0x86, 0x90, 0x86, 0x8e,
  0x77, 0x87, 0xa2, 0x7c, 0x96, 0x9f, 0x74, 0x7d, 0x8c, 0xa6, 0x98, 0x71,
  0x91, 0x90, 0x7f, 0x75, 0x69, 0x81, 0x82, 0x82, 0x93, 0x88, 0x97, 0x7c,
  0x79, 0xad, 0x74, 0x72, 0x95, 0x8e, 0x7f, 0x92, 0x82, 0x9b, 0x6a, 0x79,
  0xa2, 0x79, 0x82, 0xb6, 0x93, 0x8e, 0xa9, 0x87, 0x93, 0x88, 0x92, 0x92,
  0x76, 0x9c, 0x8d, 0x71, 0x90, 0x90, 0xc7, 0x9a, 0x95, 0x97, 0x99, 0x5f,
  0x80, 0x84, 0xb6, 0x87, 0x7d, 0x7f, 0x66, 0x7e, 0x86, 0x7a, 0x9b, 0x8a,
  0x80, 0x7c, 0x94, 0x80, 0x7a, 0x88, 0x9b, 0x65, 0x8a, 0x8e, 0x78, 0x86,
  0x81, 0xb0, 0x93, 0x6f, 0x96, 0x8f, 0x90, 0x7c, 0x95, 0x9b, 0x92, 0x77,
  0x90, 0x8d, 0x7d, 0x85, 0x82, 0x7a, 0x88, 0x80, 0x71, 0x9a, 0x8d, 0x9e,
  0x92, 0x78, 0xa3, 0x79, 0x86, 0x8d, 0x75, 0x6a, 0x89, 0x76, 0x91, 0x73,
  0xa0, 0x9c, 0x85, 0x80, 0x80, 0x8f, 0xa1, 0x92, 0x75, 0x73, 0x6d, 0x73,
  0x87, 0xb2, 0xad, 0x69, 0x71, 0x92, 0x78, 0x78, 0x93, 0x76, 0x7f, 0x80,
  0x66, 0x88, 0x85, 0x6a, 0x6a, 0x91, 0x7d, 0x91, 0x77, 0x7b, 0x9e, 0x83,
  0x7d, 0x86, 0x8a, 0xa2, 0x85, 0x8c, 0x7d, 0x75, 0x74, 0xab, 0x87, 0x91,
  0x82, 0x91, 0x84, 0x55, 0x7b, 0xa4, 0xaa, 0x7f, 0x76, 0xa3, 0x7b, 0x5c,
  0x85, 0xb5, 0x9e, 0x7d, 0x74, 0x8b, 0x98, 0x59, 0x89, 0x78, 0x80, 0xad,
  0xa1, 0x76, 0x8b, 0x80, 0x93, 0x94, 0x93, 0xd0, 0x73, 0x67, 0x99, 0x8d,
  0xa1, 0x71, 0xc3, 0xa0, 0x83, 0x76, 0x72, 0x63, 0x81, 0x7e, 0xd3, 0x8b,
  0x93, 0x81, 0x88, 0x7f, 0x8f, 0x86, 0xdd, 0x73, 0x5d, 0x80, 0x7e, 0x62,
  0x88, 0x91, 0xaf, 0x7a, 0x80, 0x8e, 0xa1, 0x6c, 0x8d, 0xa0, 0x96, 0x72,
  0x95, 0x9d, 0x85, 0x89, 0x89, 0x94, 0x87, 0x6c, 0x9d, 0x6c, 0x93, 0x7a,
  0xaa, 0x90, 0x76, 0x8a, 0x81, 0x86, 0x7c, 0x8e, 0x8a, 0x69, 0x8d, 0x77,
  0x6f, 0x7c, 0x7f, 0x68, 0x8e, 0x9b, 0xb0, 0x6c, 0x6d, 0x77, 0x6a, 0x99,
  0x72, 0x7f, 0x85, 0x67, 0x75, 0x94, 0x6f, 0x6d, 0x98, 0x94, 0x7d, 0x6d,
  0x87, 0xa6, 0xb0, 0x8c, 0xac, 0x76, 0x89, 0x80, 0x7b, 0x99, 0x69, 0x8a,
  0x89, 0x80, 0x71, 0x80, 0x9f, 0x95, 0x86, 0x6f, 0x8a, 0x87, 0x76, 0x93,
  0x7b, 0x82, 0x9e, 0x80, 0x78, 0x91, 0x84, 0x9d, 0x83, 0x85, 0x90, 0x5d,
  0x8f, 0x92, 0x98, 0x89, 0x97, 0x73, 0x8a, 0x74, 0x82, 0x98, 0x82, 0x75,
  0x65, 0x9b, 0x8d, 0x59, 0x63, 0x8b, 0x8f, 0xa0, 0x7c, 0x97, 0x81, 0x4d,
  0xb1, 0x9f, 0x99, 0xa2, 0x90, 0x86, 0x8f, 0x72, 0xbd, 0x85, 0x98, 0xcd,
  0x8c, 0x7b, 0xa4, 0x7c, 0xb6, 0x72, 0xd4, 0xaa, 0x66, 0x90, 0x96, 0x5a,
  0x98, 0x89, 0xea, 0x70, 0x5f, 0x7a, 0x7f, 0x6b, 0x86, 0x70, 0xcb, 0x59,
  0x82, 0x5f, 0x74, 0x72, 0x88, 0x8e, 0xac, 0x77, 0x70, 0x7b, 0x75, 0x54,
  0x8b, 0x9f, 0x9d, 0x88, 0x77, 0x9b, 0x79, 0x77, 0x78, 0xa6, 0x7c, 0x69,
  0xa2, 0x89, 0xae, 0x8a, 0x7a, 0xaa, 0x87, 0x86, 0x8b, 0x6b, 0x94, 0x6d,
  0xb5, 0x9d, 0x8c, 0x93, 0x74, 0xa0, 0x68, 0x79, 0x8e, 0x7d, 0x94, 0x6c,
  0x7e, 0x7f, 0x91, 0x8e, 0xad, 0x89, 0x7f, 0x57, 0x7f, 0x88, 0x92, 0x94,
  0x81, 0x8a, 0x97, 0x85, 0x8a, 0x8b, 0x88, 0x77, 0xab, 0x88, 0x7f, 0x6b,
  0xae, 0x83, 0x7f, 0x64, 0xa9, 0x9d, 0x6f, 0x89, 0x75, 0x98, 0x64, 0x76,
  0xa6, 0xa4, 0x86, 0x8c, 0x74, 0x89, 0x98, 0x42, 0x8c, 0x87, 0x92, 0xa7,
  0x53, 0x8f, 0x71, 0x64, 0x7c, 0x88, 0xb7, 0x95, 0x65, 0x80, 0xa4, 0x50,
  0x83, 0xb0, 0x94, 0x76, 0x61, 0x8f, 0x8c, 0x29, 0x8d, 0xab, 0x9d, 0xa6,
  0xab, 0x91, 0x6a, 0x5d, 0x80, 0x93, 0xae, 0xcf, 0x96, 0x79, 0x95, 0x82,
  0xc4, 0x72, 0xa7, 0xd1, 0x88, 0x5a, 0x77, 0x75, 0xb9, 0x9a, 0xb8, 0xb1,
  0x68, 0x7f, 0x80, 0x2f, 0x8b, 0x98, 0xe1, 0x72, 0x5f, 0x8d, 0x75, 0x5f,
  0x7b, 0x98, 0xe2, 0x59, 0x68, 0x83, 0x99, 0x5b, 0x89, 0x86, 0xad, 0x6b,
  0x5e, 0x84, 0x9b, 0x64, 0x98, 0xb0, 0x9e, 0x73, 0x5e, 0x8b, 0x74, 0x73,
  0x7d, 0x7b, 0x90, 0x4a, 0x8a, 0x8f, 0x8a, 0x88, 0x8e, 0xa0, 0x82, 0x90,
  0x81, 0x8a, 0x77, 0x88, 0x7d, 0x74, 0x9d, 0x95, 0x8a, 0x7e, 0x76, 0x60,
  0x8b, 0x64, 0xae, 0x6c, 0x8d, 0x79, 0x77, 0x85, 0x7f, 0x96, 0x85, 0x78,
  0xb0, 0x8b, 0x8d, 0x7f, 0x98, 0x77, 0x90, 0x7a, 0x93, 0x93, 0x92, 0x61,
  0xb3, 0x81, 0x99, 0x7f, 0x8d, 0x91, 0x76, 0x53, 0x9b, 0x77, 0x80, 0x84,
  0x93, 0x8c, 0xa2, 0x92, 0x98, 0x68, 0x78, 0x77, 0x7a, 0x66, 0x78, 0x40,
  0x81, 0x99, 0x97, 0xa6, 0x65, 0x8c, 0x9d, 0x55, 0x7a, 0x95, 0xa6, 0x8a,
  0x47, 0x81, 0xa7, 0x3f, 0x8a, 0x84, 0x9e, 0x71, 0x5a, 0x8c, 0x65, 0x3d,
  0x87, 0x78, 0xb7, 0x8e, 0x99, 0x82, 0x91, 0x55, 0xa5, 0x62, 0x8e, 0xc4,
  0x9a, 0x84, 0x69, 0x95, 0xa6, 0x74, 0xae, 0xe9, 0x97, 0x68, 0x86, 0x5b,
  0x9c, 0x80, 0xd8, 0xad, 0x41, 0x65, 0x79, 0x4a, 0x75, 0x99, 0xe8, 0x5d,
  0x62, 0x6f, 0xa7, 0x40, 0x74, 0x8f, 0xd8, 0x48, 0x80, 0x6f, 0x9d, 0x64,
  0x8a, 0x82, 0xc4, 0x55, 0x7b, 0x99, 0x74, 0x6f, 0x82, 0x8f, 0xc2, 0x68,
  0x89, 0x9b, 0x78, 0x6a, 0x5a, 0x91, 0x8e, 0x69, 0x84, 0x8e, 0xa6, 0x75,
  0x71, 0x7d, 0x97, 0x97, 0xa5, 0x7e, 0xa4, 0x83, 0xba, 0x92, 0x79, 0xa0,
  0x79, 0x7f, 0x70, 0x6d, 0xb1, 0x71, 0x90, 0x4e, 0xa6, 0x72, 0xa9, 0x66,
  0x89, 0x80, 0x93, 0x7e, 0xa2, 0x92, 0x66, 0x74, 0x8b, 0x82, 0x9f, 0x86,
  0x92, 0x7a, 0x87, 0x6b, 0xa5, 0xa2, 0xa5, 0x7b, 0x88, 0x92, 0x7a, 0x6d,
  0xb5, 0x92, 0x7b, 0x88, 0x78, 0x91, 0x9f, 0x79, 0x89, 0x88, 0x72, 0x90,
  0x7c, 0x6e, 0xa8, 0x43, 0x87, 0x8e, 0x97, 0xaf, 0x43, 0x8d, 0x85, 0x62,
  0x6b, 0xa9, 0xbe, 0x9f, 0x43, 0x8a, 0x8b, 0x24, 0x7f, 0x87, 0xbd, 0x51,
  0x6b, 0x7f, 0xab, 0x43, 0x70, 0x9c, 0xbb, 0x94, 0x99, 0x84, 0x5e, 0x61,
  0x9c, 0x81, 0x94, 0xda, 0xab, 0x6d, 0x66, 0x73, 0xa3, 0x64, 0x95, 0xe3,
  0x7c, 0x73, 0x78, 0x5c, 0x6e, 0x87, 0xc8, 0xa0, 0x36, 0x63, 0x70, 0x27,
  0x7d, 0x88, 0xeb, 0x61, 0x61, 0x70, 0xa4, 0x72, 0x7f, 0x82, 0xea, 0x2c,
  0x74, 0x85, 0x92, 0x63, 0x8c, 0x74, 0xd2, 0x6a, 0x77, 0x8e, 0x99, 0x71,
  0x9a, 0xa0, 0xad, 0x5c, 0x6e, 0x9f, 0x83, 0x69, 0x75, 0x7e, 0x82, 0x64,
  0x98, 0x89, 0xa9, 0x8e, 0x85, 0x83, 0x90, 0x91, 0xa5, 0x91, 0x89, 0x69,
  0xa1, 0x5c, 0x9a, 0xac, 0x77, 0x80, 0x74, 0x76, 0x76, 0x8e, 0xad, 0x7a,
  0x96, 0x7c, 0x8a, 0x75, 0x7b, 0x9c, 0xa4, 0x72, 0xa7, 0x80, 0x81, 0x70,
  0x8a, 0x91, 0x93, 0x89, 0x91, 0x97, 0x8d, 0x72, 0x9b, 0x74, 0x96, 0x8d,
  0x8d, 0x88, 0x8f, 0x67, 0xb0, 0x80, 0x93, 0x78, 0x92, 0x8d, 0x7d, 0x6a,
  0x9b, 0xb1, 0x85, 0x79, 0x7e, 0x73, 0x9a, 0x38, 0x85, 0x89, 0x8b, 0xa4,
  0x47, 0x99, 0x8e, 0x4d, 0x61, 0x85, 0xbe, 0x86, 0x51, 0x86, 0x95, 0x3c,
  0x68, 0x94, 0xb4, 0x63, 0x67, 0x90, 0x84, 0x56, 0x60, 0xa0, 0xbf, 0x9b,
  0x91, 0x90, 0x7d, 0x7b, 0x86, 0xa2, 0x8a, 0xcb, 0x98, 0x7d, 0x6a, 0x75,
  0x9a, 0x6c, 0x94, 0xd5, 0x77, 0x68, 0x90, 0x6d, 0x8d, 0x60, 0xd1, 0xab,
  0x19, 0x65, 0x6e, 0x26, 0x66, 0x99, 0xf3, 0x63, 0x77, 0x6e, 0x86, 0x53,
  0x8d, 0xbb, 0xd8, 0x35, 0x85, 0x77, 0xaa, 0x56, 0xa7, 0x94, 0xc3, 0x6f,
  0x60, 0x92, 0x9a, 0x5a, 0x91, 0xb5, 0xbe, 0x6a, 0x7b, 0x9f, 0xab, 0x84,
  0x71, 0x73, 0x95, 0x67, 0x92, 0x73, 0x9a, 0x94, 0x70, 0x70, 0x84, 0x93,
  0xa0, 0x89, 0x90, 0x85, 0xb6, 0x89, 0xa3, 0xae, 0x88, 0x82, 0xa6, 0x63,
  0x75, 0x94, 0xa4, 0x5a, 0x83, 0x73, 0x7f, 0x6d, 0xa2, 0x94, 0x9f, 0x73,
  0x90, 0x8e, 0x72, 0x70, 0x85, 0x8c, 0xa7, 0x78, 0xa2, 0x89, 0xb0, 0x6c,
  0xa3, 0x83, 0x92, 0x92, 0x91, 0x82, 0x9b, 0x80, 0x86, 0x8b, 0x72, 0x80,
  0x79, 0x88, 0x91, 0x8d, 0xa0, 0xa2, 0x85, 0x89, 0x78, 0x78, 0x86, 0x58,
  0x91, 0x85, 0xa0, 0x9a, 0x45, 0x93, 0x66, 0x36, 0x5c, 0xaa, 0xe9, 0x98,
  0x34, 0x85, 0x83, 0x4c, 0x68, 0x87, 0xc4, 0x5b, 0x5a, 0x6e, 0xa3, 0x3e,
  0x83, 0x9d, 0xc8, 0x87, 0x8f, 0x96, 0xa1, 0x5e, 0x8f, 0x6a, 0x8a, 0xc1,
  0x93, 0x6f, 0x95, 0x89, 0xb7, 0x6c, 0x93, 0xe7, 0x7d, 0x72, 0x8d, 0x5d,
  0x7c, 0x8e, 0xca, 0xba, 0x28, 0x78, 0x8b, 0x29, 0x5d, 0x64, 0xd8, 0x6e,
  0x6d, 0x78, 0x77, 0x4e, 0x93, 0xb4, 0xce, 0x50, 0x77, 0x73, 0x74, 0x61,
  0x9d, 0xa1, 0xca, 0x45, 0x6f, 0x99, 0x6b, 0x72, 0x72, 0x94, 0xd4, 0x73,
  0x9b, 0x98, 0x77, 0x75, 0x66, 0xa6, 0x8f, 0x77, 0x95, 0x84, 0x6d, 0x83,
  0x78, 0x9e, 0xa3, 0x98, 0xa4, 0x94, 0x77, 0x82, 0xa7, 0x99, 0x97, 0x9b,
  0x8a, 0x85, 0xa3, 0x7f, 0x8a, 0x89, 0xa6, 0x52, 0x89, 0x80, 0x7c, 0x6a,
  0x7a, 0x80, 0xa2, 0x71, 0x9c, 0x97, 0x84, 0x6f, 0x94, 0x93, 0xa1, 0xa1,
  0x9d, 0x89, 0x89, 0x63, 0x8e, 0x75, 0xad, 0x8c, 0x86, 0x8e, 0x86, 0x7a,
  0x7f, 0xa6, 0x79, 0x77, 0x7f, 0x87, 0x8c, 0x62, 0x96, 0x8c, 0x7e, 0x83,
  0x7b, 0x72, 0x7a, 0x49, 0x88, 0x85, 0x96, 0x93, 0x5b, 0x8c, 0x86, 0x42,
  0x5c, 0xad, 0xe4, 0x8e, 0x2c, 0x81, 0x70, 0x42, 0x5e, 0x6e, 0xc2, 0x53,
  0x54, 0x88, 0x6d, 0x5c, 0x7e, 0x77, 0xc8, 0x8f, 0xa4, 0x7c, 0x94, 0x5d,
  0xa5, 0x7e, 0x85, 0xc4, 0xa4, 0x72, 0x8c, 0x74, 0x87, 0x77, 0x93, 0xe9,
  0x58, 0x6f, 0x6f, 0x5b, 0x60, 0x9c, 0xd1, 0xc0, 0x2f, 0x78, 0x6a, 0x3d,
  0x60, 0x9e, 0xe1, 0x66, 0x42, 0x64, 0x8b, 0x6b, 0x7a, 0xa5, 0xd6, 0x3e,
  0x5f, 0x6e, 0x9d, 0x6d, 0x98, 0x9b, 0xcd, 0x56, 0x62, 0x96, 0x7e, 0x6d,
  0x85, 0xb0, 0xc6, 0x6f, 0x8b, 0x90, 0x84, 0x7c, 0x8b, 0x7e, 0x90, 0x73,
  0x8e, 0x84, 0x8f, 0x87, 0x86, 0x8b, 0x8d, 0x9d, 0x95, 0x89, 0x8a, 0x96,
  0x88, 0x8e, 0x9d, 0x8d, 0x81, 0x83, 0x6b, 0x76, 0x72, 0x94, 0xbb, 0x71,
  0x7a, 0x76, 0x8a, 0x7c, 0x6b, 0x89, 0x8d, 0x76, 0xa6, 0x97, 0xa3, 0x7a,
  0x8e, 0x9a, 0xa2, 0x7c, 0x93, 0x99, 0x8a, 0x76, 0x98, 0x7f, 0xab, 0xa4,
  0xa6, 0x94, 0x74, 0x63, 0x8d, 0x7e, 0x78, 0x86, 0x7b, 0x7f, 0x81, 0x85,
  0x67, 0x86, 0x7f, 0x8c, 0x8f, 0x6a, 0x87, 0x56, 0x8b, 0x9e, 0xad, 0xaa,
  0x4c, 0x9b, 0xa3, 0x5f, 0x50, 0xa0, 0xd8, 0x98, 0x22, 0x81, 0x75, 0x2e,
  0x52, 0xa4, 0xab, 0x5a, 0x70, 0x7e, 0x74, 0x71, 0x66, 0x72, 0xbd, 0x73,
  0x89, 0x7b, 0x8d, 0x79, 0x93, 0x6a, 0x76, 0xc6, 0x9e, 0x86, 0x86, 0x87,
  0x8b, 0x81, 0x8c, 0xf7, 0x63, 0x5c, 0x95, 0x5a, 0x6f, 0x5d, 0xbb, 0xcd,
  0x40, 0x5f, 0x84, 0x3d, 0x4c, 0x7d, 0xd4, 0x4f, 0x6c, 0x69, 0x8d, 0x4c,
  0x7e, 0x8c, 0xd0, 0x39, 0x79, 0x78, 0x61, 0x6b, 0x99, 0xa0, 0xce, 0x5b,
  0x6e, 0x81, 0xa5, 0x84, 0x63, 0x93, 0xae, 0x72, 0x7c, 0x8a, 0x7e, 0x7f,
  0x64, 0x95, 0x9b, 0x55, 0x86, 0x89, 0x74, 0x7d, 0x75, 0x9e, 0x90, 0x89,
  0x9c, 0x88, 0x70, 0x75, 0x8d, 0x7b, 0x9a, 0x93, 0x86, 0x83, 0x78, 0x77,
  0x6b, 0x83, 0xa3, 0x69, 0xa0, 0x80, 0x7f, 0x85, 0x81, 0x9b, 0x91, 0x82,
  0x93, 0x8e, 0x68, 0x7b, 0x80, 0x81, 0x9a, 0x75, 0x90, 0x9b, 0x79, 0x7c,
  0x97, 0x8a, 0x8a, 0x8f, 0x87, 0x87, 0xa1, 0x62, 0x9a, 0x9c, 0x79, 0x93,
  0xa5, 0x94, 0x5b, 0x6d, 0x9e, 0x80, 0x80, 0x8b, 0x84, 0x80, 0x7d, 0x44,
  0x8b, 0x90, 0x99, 0xa7, 0x4f, 0x8c, 0x9b, 0x74, 0x53, 0xa2, 0xef, 0x91,
  0x3a, 0x72, 0x75, 0x3c, 0x4f, 0x84, 0xbd, 0x66, 0x62, 0x80, 0x8f, 0x5b,
  0x51, 0x95, 0xbc, 0x92, 0x93, 0x80, 0x7c, 0x6e, 0xa2, 0x7f, 0x7f, 0xc1,
  0x92, 0x86, 0x82, 0x88, 0x87, 0x8f, 0x77, 0xef, 0x62, 0x5f, 0x9c, 0x56,
  0x8b, 0x56, 0xc8, 0xca, 0x18, 0x66, 0x5d, 0x38, 0x6c, 0x7e, 0xe7, 0x59,
  0x69, 0x74, 0x6e, 0x5e, 0x93, 0x82, 0xcf, 0x40, 0x62, 0x8b, 0xa8, 0x7a,
  0x84, 0x89, 0xc1, 0x60, 0x60, 0x8f, 0x8b, 0x77, 0x82, 0xb4, 0xc1, 0x4e,
  0x78, 0x8e, 0x78, 0x96, 0x62, 0x7f, 0xa2, 0x8d, 0x8b, 0x82, 0xac, 0x87,
  0x90, 0x8d, 0xa4, 0xa4, 0xa7, 0x8d, 0x93, 0x97, 0x92, 0x85, 0xa2, 0xaa,
  0x83, 0x81, 0xa1, 0x6c, 0x6b, 0x96, 0xa7, 0x80, 0x89, 0x6c, 0x7e, 0x64,
  0x71, 0x9d, 0xa1, 0x61, 0x9d, 0x8e, 0xb1, 0x86, 0x8c, 0xa1, 0xae, 0x84,
  0x93, 0x82, 0x84, 0x6c, 0xa3, 0x74, 0x95, 0x81, 0x9d, 0x86, 0xa8, 0x6d,
  0x8b, 0x99, 0x77, 0x89, 0xae, 0x86, 0x7c, 0x68, 0x9d, 0x81, 0x79, 0x83,
  0x8b, 0x66, 0x7f, 0x73, 0x87, 0x91, 0xd0, 0x9e, 0x47, 0x8c, 0xa2, 0x5c,
  0x54, 0x99, 0xce, 0xa4, 0x4f, 0x7f, 0x86, 0x4a, 0x51, 0x92, 0xc1, 0x5d,
  0x5b, 0x70, 0x71, 0x4e, 0x5c, 0x97, 0xc2, 0x8a, 0x90, 0x8d, 0x86, 0x5f,
  0x96, 0x76, 0x82, 0xc6, 0x95, 0x7f, 0xa4, 0x7c, 0xa2, 0x94, 0x8a, 0xeb,
  0x55, 0x6c, 0x7d, 0x5d, 0x77, 0x6f, 0xb7, 0xc2, 0x41, 0x6a, 0x68, 0x35,
  0x77, 0x73, 0xcd, 0x78, 0x4e, 0x70, 0x86, 0x61, 0x65, 0xad, 0xe1, 0x2f,
  0x74, 0x7e, 0x71, 0x80, 0x84, 0x9a, 0xc9, 0x52, 0x76, 0x8f, 0x7f, 0x73,
  0x5f, 0x95, 0xc6, 0x77, 0x75, 0x8c, 0x68, 0x7e, 0x6b, 0x94, 0x9a, 0x70,
  0x8f, 0x72, 0x9b, 0x79, 0x8d, 0x87, 0x96, 0xac, 0x97, 0x91, 0x74, 0x72,
  0x83, 0x94, 0x8f, 0x99, 0x90, 0x83, 0x76, 0x6b, 0x80, 0x77, 0xb2, 0x6e,
  0x7b, 0x8d, 0x6f, 0x77, 0x9b, 0x9a, 0x9b, 0x70, 0x98, 0x83, 0x85, 0x61,
  0x7c, 0x8a, 0x8e, 0x83, 0x8a, 0x88, 0xa6, 0x76, 0x88, 0x71, 0x95, 0x78,
  0x9c, 0x8b, 0x6b, 0x68, 0x9f, 0xa7, 0x85, 0x9f, 0x96, 0x89, 0x66, 0x61,
  0x9a, 0x95, 0x88, 0x9e, 0x7e, 0x8a, 0x8e, 0x60, 0x8c, 0xa1, 0xad, 0xa2,
  0x53, 0x8e, 0x88, 0x5e, 0x5b, 0xb4, 0xd6, 0xa0, 0x3d, 0x67, 0x68, 0x50,
  0x49, 0x96, 0xb9, 0x65, 0x5d, 0x7e, 0xa4, 0x62, 0x59, 0x7c, 0xb0, 0x86,
  0x99, 0xa4, 0x70, 0x6c, 0x9e, 0x71, 0x6f, 0xbe, 0xad, 0x92, 0xa3, 0x7b,
  0xa2, 0x9e, 0x7f, 0xd6, 0x60, 0x73, 0x9f, 0x52, 0x78, 0x90, 0xb8, 0xb2,
  0x37, 0x55, 0x63, 0x4d, 0x64, 0x92, 0xcd, 0x7c, 0x5d, 0x6a, 0x95, 0x4e,
  0x67, 0xad, 0xd1, 0x30, 0x6a, 0x77, 0x60, 0x85, 0x81, 0x97, 0xe5, 0x6e,
  0x63, 0x80, 0x62, 0x8b, 0x7d, 0x8b, 0xb0, 0x61, 0x8d, 0x8b, 0x5a, 0x75,
  0x71, 0x97, 0x90, 0x69, 0xad, 0x75, 0x88, 0x96, 0x85, 0x86, 0x98, 0xac,
  0x93, 0x97, 0x8d, 0x89, 0x86, 0x8b, 0x8e, 0x99, 0x82, 0x7c, 0x8b, 0x52,
  0x68, 0x6b, 0x9f, 0x76, 0x89, 0x7e, 0x83, 0x66, 0x8f, 0xae, 0x90, 0x7b,
  0x9e, 0x8d, 0x8f, 0x61, 0x70, 0x96, 0x98, 0x70, 0xa1, 0x8d, 0xa8, 0x71,
  0x83, 0x96, 0x90, 0x95, 0x89, 0x94, 0x94, 0x7c, 0xaa, 0x6c, 0x75, 0x98,
  0x94, 0x8a, 0x85, 0x73, 0x9c, 0x8d, 0x7d, 0xa2, 0x86, 0x69, 0x99, 0x5f,
  0x86, 0x89, 0x9c, 0x9a, 0x2a, 0x99, 0x85, 0x62, 0x4d, 0x99, 0xd0, 0xa9,
  0x55, 0x69, 0x98, 0x72, 0x80, 0x9b, 0xb9, 0x63, 0x72, 0x79, 0x65, 0x70,
  0x6a, 0x88, 0xaf, 0x73, 0x92, 0xa5, 0x88, 0x63, 0x93, 0xba, 0x5e, 0xb5,
  0xab, 0x88, 0x72, 0x77, 0x8e, 0x7c, 0x94, 0xdd, 0x7a, 0x6c, 0x73, 0x66,
  0x5f, 0x9d, 0xbb, 0xc1, 0x47, 0x5f, 0x81, 0x4e, 0x65, 0x80, 0xde, 0x61,
  0x5f, 0x68, 0x7d, 0x59, 0x6e, 0xa5, 0xbc, 0x4a, 0x81, 0x87, 0x9d, 0x7d,
  0x6c, 0xb7, 0xcf, 0x61, 0x72, 0x7f, 0x83, 0x72, 0x6c, 0x9f, 0xc7, 0x58,
  0x95, 0x8a, 0x84, 0x82, 0x57, 0x83, 0x97, 0x5b, 0x92, 0x83, 0x95, 0x80,
  0x87, 0x88, 0xa7, 0xa2, 0x8c, 0x86, 0xad, 0x7e, 0x85, 0x94, 0x97, 0x97,
  0x70, 0x7b, 0x8d, 0x67, 0x79, 0x71, 0xab, 0x7b, 0x7f, 0x6d, 0x82, 0x79,
  0x7d, 0xa1, 0xa5, 0x65, 0x86, 0x8d, 0x80, 0x66, 0x85, 0x9c, 0x9d, 0x85,
  0x8e, 0x8b, 0xb7, 0x61, 0x7a, 0x91, 0x9a, 0x82, 0xb1, 0x8c, 0x71, 0x89,
  0x8f, 0x83, 0x7c, 0x9a, 0x80, 0x89, 0x95, 0x7c, 0x62, 0x73, 0x8e, 0x8a,
  0x88, 0x67, 0x63, 0x5b, 0x86, 0x92, 0x85, 0xb2, 0x2e, 0x97, 0x88, 0x65,
  0x50, 0x7a, 0xe4, 0xa7, 0x47, 0x67, 0x6f, 0x63, 0x50, 0x7b, 0xbb, 0x69,
  0x5a, 0x77, 0x93, 0x7d, 0x5d, 0xad, 0xbc, 0x86, 0xaf, 0x87, 0x87, 0x93,
  0x99, 0x80, 0x89, 0xbc, 0xb9, 0x8f, 0x6d, 0x7f, 0xa0, 0x9e, 0x8c, 0xe6,
  0x67, 0x68, 0x79, 0x69, 0x88, 0x72, 0xb8, 0xaa, 0x41, 0x6b, 0x70, 0x50,
  0x69, 0x6c, 0xd1, 0x5d, 0x4c, 0x66, 0x98, 0x67, 0x5d, 0x7c, 0xcb, 0x45,
  0x6d, 0x57, 0x82, 0x7f, 0x83, 0x99, 0xc7, 0x5a, 0x81, 0x8e, 0x94, 0x7b,
  0x81, 0xc0, 0xca, 0x6a, 0x7e, 0x8b, 0x96, 0x8b, 0x6c, 0x92, 0x90, 0x63,
  0x85, 0x6e, 0xac, 0x95, 0x8d, 0x9f, 0xa3, 0x95, 0x90, 0x7e, 0x7d, 0x88,
  0xa0, 0x76, 0x96, 0x9a, 0x8f, 0x76, 0x81, 0x76, 0x6f, 0x68, 0x95, 0x71,
  0x92, 0x7b, 0x92, 0x6e, 0x91, 0x81, 0x7d, 0x74, 0x83, 0x8e, 0x6a, 0x81,
  0x82, 0xa7, 0x9e, 0x60, 0x93, 0x87, 0x7c, 0x82, 0x94, 0x7e, 0x91, 0x81,
  0x9b, 0x7f, 0xa7, 0x86, 0x8b, 0x92, 0x83, 0x95, 0xb3, 0x8a, 0x5a, 0x9c,
  0x9b, 0xa0, 0x7d, 0x8b, 0x86, 0x63, 0x8f, 0x6d, 0x8b, 0x93, 0xb5, 0x9f,
  0x51, 0xa1, 0x70, 0x51, 0x3c, 0x70, 0xbe, 0x9f, 0x39, 0x74, 0xa6, 0x79,
  0x75, 0xa7, 0xb6, 0x72, 0x82, 0x6d, 0x76, 0x62, 0x6a, 0x82, 0xab, 0xa7,
  0x90, 0xa2, 0x94, 0x73, 0x8b, 0xab, 0x7e, 0xcc, 0xa5, 0x76, 0x7f, 0x83,
  0x9a, 0x9a, 0x86, 0xca, 0x60, 0x6b, 0x9c, 0x64, 0x73, 0x69, 0xb0, 0x98,
  0x39, 0x60, 0x8f, 0x3c, 0x7b, 0x64, 0xc5, 0x70, 0x5f, 0x67, 0xaa, 0x41,
  0x7e, 0xb5, 0xd4, 0x53, 0x7b, 0x6d, 0x6c, 0x98, 0x7d, 0x8e, 0xdf, 0x73,
  0x81, 0x89, 0x78, 0x93, 0x88, 0x96, 0xc3, 0x85, 0x97, 0x86, 0xae, 0x97,
  0x5f, 0x7d, 0x94, 0x7a, 0x92, 0x7e, 0xac, 0x96, 0x5f, 0xa1, 0x89, 0xba,
  0x81, 0x7c, 0x7a, 0x77, 0x85, 0x7f, 0x83, 0xab, 0x75, 0x70, 0x82, 0x57,
  0x7e, 0x7d, 0xb2, 0x70, 0x83, 0x86, 0x8b, 0x69, 0x89, 0xb3, 0x9e, 0x83,
  0x81, 0x88, 0x85, 0x7b, 0x84, 0x92, 0x95, 0x76, 0x8d, 0x89, 0x94, 0x84,
  0x8b, 0x88, 0x9a, 0xa0, 0x99, 0x8f, 0x85, 0x6c, 0x9f, 0x87, 0x93, 0x9e,
  0x97, 0x83, 0x8e, 0x94, 0x89, 0x9d, 0x7e, 0x9d, 0x82, 0x63, 0x66, 0x49,
  0x81, 0xa4, 0xb6, 0xab, 0x51, 0x97, 0x81, 0x77, 0x53, 0x91, 0xcf, 0x98,
  0x47, 0x8c, 0x68, 0x37, 0x53, 0x7e, 0xc0, 0x72, 0x56, 0x5a, 0x6e, 0x5d,
  0x78, 0x86, 0xa7, 0x89, 0xa2, 0x73, 0x71, 0x82, 0x9b, 0x87, 0x78, 0xa9,
  0xa4, 0x7b, 0x85, 0x6a, 0xa0, 0x87, 0x86, 0xd0, 0x7e, 0x4f, 0x69, 0x5d,
  0x78, 0x67, 0xaf, 0x97, 0x47, 0x6d, 0x67, 0x44, 0x70, 0xa1, 0xc8, 0x6d,
  0x60, 0x75, 0x8f, 0x6f, 0x74, 0xac, 0xc6, 0x53, 0x73, 0x69, 0x6f, 0x75,
  0x7e, 0xb5, 0xce, 0x80, 0x95, 0x76, 0x73, 0x73, 0x5c, 0x9e, 0xa3, 0x58,
  0x8f, 0x79, 0x61, 0x98, 0x5d, 0x8c, 0x87, 0x76, 0xa0, 0x75, 0x92, 0x95,
  0x7a, 0xa1, 0xa6, 0x7d, 0x96, 0x76, 0x81, 0x77, 0x94, 0x91, 0x7d, 0xa8,
  0x6c, 0x71, 0x8d, 0x5c, 0x8b, 0x7b, 0xa5, 0x75, 0x76, 0x72, 0xa4, 0x8d,
  0x80, 0xa6, 0x9b, 0x63, 0x90, 0x86, 0x81, 0x78, 0x6e, 0x95, 0x90, 0x83,
  0x93, 0x8b, 0x61, 0x5f, 0x8d, 0x83, 0x90, 0x8c, 0x9f, 0x72, 0x6f, 0x75,
  0xa6, 0x82, 0x81, 0x9b, 0x85, 0x8f, 0x9e, 0x90, 0x9b, 0xa2, 0x73, 0x93,
  0x7e, 0x60, 0x8b, 0x7b, 0x85, 0x9d, 0x88, 0x9d, 0x4f, 0x7b, 0x6e, 0x7b,
  0x49, 0xa9, 0xd6, 0x9b, 0x2f, 0x75, 0x81, 0x57, 0x6b, 0x96, 0xc8, 0x7f,
  0x5f, 0x79, 0x9f, 0x6b, 0x54, 0x73, 0xaf, 0x90, 0x88, 0x7f, 0x6f, 0x73,
  0x89, 0x80, 0x85, 0x8d, 0x9a, 0x7a, 0x91, 0x7c, 0x8d, 0x7f, 0x8d, 0xd4,
  0x74, 0x6b, 0x68, 0x76, 0x76, 0x9f, 0xb5, 0xa6, 0x41, 0x51, 0x8b, 0x54,
  0x66, 0x66, 0xc2, 0x79, 0x67, 0x50, 0x81, 0x63, 0x70, 0x86, 0xd0, 0x4e,
  0x8b, 0x6e, 0xac, 0x8c, 0x69, 0x9e, 0xc5, 0x82, 0x8a, 0x70, 0x8d, 0x8b,
  0x72, 0x85, 0xc6, 0x7e, 0x7a, 0x78, 0x98, 0x8e, 0x7c, 0x7a, 0x8a, 0x66,
  0x91, 0x73, 0x75, 0x8f, 0x82, 0x84, 0x96, 0x92, 0xa6, 0x8a, 0x6f, 0x81,
  0xa1, 0x8c, 0x8e, 0x87, 0x78, 0x80, 0x81, 0x72, 0x5f, 0x81, 0xae, 0x52,
  0x70, 0x7e, 0x7c, 0x7e, 0x88, 0xb4, 0x8b, 0x7e, 0x72, 0x89, 0x8c, 0x73,
  0x78, 0x85, 0x8e, 0x75, 0xa1, 0x84, 0x5d, 0x81, 0x78, 0x80, 0x8e, 0x90,
  0xaa, 0x87, 0x94, 0x78, 0xb4, 0xa5, 0x8d, 0x86, 0x9a, 0x81, 0x93, 0x80,
  0xad, 0x8b, 0x92, 0xa3, 0x8f, 0x58, 0x72, 0x74, 0x93, 0x8f, 0x85, 0x96,
  0x4a, 0x89, 0xac, 0x63, 0x58, 0x83, 0xc8, 0x8c, 0x3c, 0x80, 0x88, 0x5f,
  0x49, 0xa4, 0xc0, 0x7a, 0x66, 0x73, 0x91, 0x5c, 0x7f, 0x93, 0xab, 0x94,
  0xa6, 0x70, 0x65, 0x72, 0x8f, 0x83, 0x81, 0xb8, 0xa3, 0x75, 0xa1, 0x75,
  0x8e, 0x8b, 0x95, 0xb9, 0x8e, 0x54, 0x90, 0x61, 0x74, 0xa7, 0xaa, 0x98,
  0x57, 0x67, 0x6b, 0x69, 0x52, 0x80, 0xc9, 0x70, 0x72, 0x5c, 0x71, 0x66,
  0x6e, 0x8d, 0xb8, 0x51, 0x8a, 0x51, 0x81, 0x7c, 0x65, 0x7f, 0xc5, 0x8a,
  0x81, 0x7a, 0x8b, 0x72, 0x68, 0x82, 0xc9, 0x88, 0x7d, 0x86, 0x89, 0x98,
  0x5d, 0x87, 0x83, 0x7d, 0x9c, 0x7d, 0x98, 0x87, 0x92, 0xa7, 0x8a, 0xa6,
  0x85, 0x7f, 0x82, 0xa4, 0x79, 0x7c, 0x8c, 0x87, 0x78, 0x78, 0x79, 0x79,
  0x60, 0x8f, 0xa9, 0x5d, 0x68, 0x8d, 0x8f, 0x86, 0x76, 0xa0, 0x90, 0x7a,
  0x8b, 0x7d, 0x8a, 0x78, 0x8f, 0x88, 0x72, 0x8c, 0x85, 0x78, 0x6a, 0x8c,
  0x76, 0x96, 0x9d, 0x8a, 0x98, 0x8d, 0x8d, 0x66, 0x9b, 0x92, 0x8b, 0x90,
  0x89, 0x7f, 0x8a, 0x77, 0x80, 0x85, 0x8e, 0xa8, 0x93, 0x45, 0x75, 0x8e,
  0x93, 0x98, 0x94, 0x97, 0x5e, 0x7a, 0x6d, 0x6b, 0x7e, 0x88, 0xb2, 0x85,
  0x6d, 0x75, 0x84, 0x7e, 0x6a, 0xa9, 0xaa, 0x90, 0x6c, 0x70, 0x93, 0x61,
  0x78, 0x78, 0x98, 0x8d, 0xa4, 0x86, 0x89, 0x79, 0x91, 0x6a, 0x7c, 0xb2,
  0xac, 0x6b, 0x9c, 0x86, 0x8e, 0x82, 0x80, 0xa6, 0x87, 0x60, 0x9f, 0x74,
  0x7a, 0xa9, 0xae, 0xa4, 0x4a, 0x72, 0x83, 0x6b, 0x88, 0x9d, 0xb9, 0x80,
